#version: 0.2 - Trained by `huggingface/tokenizers`
Ġ Ġ
ĠĠ ĠĠ
> <
ĠĠ Ġ
ĠĠĠĠ ĠĠĠĠ
s e
ĠĠĠĠ ĠĠĠ
i n
r e
o n
Ġ =
) <
: <
a t
e r
s t
o r
se l
sel f
ĠĠĠĠĠĠĠĠ ĠĠĠ
, <
m e
d e
Ġ i
Ġ '
l e
a r
Ġ self
a l
Ġ "
ĠĠĠĠĠĠĠĠ ĠĠĠĠĠĠĠ
u r
i on
e n
Ġ re
) :<
Ġ (
i t
a n
r o
g e
a me
Ġ t
Ġ p
Ġi f
m p
ĠĠĠĠĠĠĠĠ ĠĠĠĠĠĠĠĠ
e x
Ġ f
c h
de f
) ,<
c t
u t
n ame
d i
a s
o t
c e
' ,
c o
l o
Ġ in
Ġre t
e l
ur n
Ġret urn
_ _
in g
p t
' ),<
u e
or t
n t
Ġ s
Ġ n
f i
Ġ def
a d
e d
st r
Ġ c
on e
l i
p e
mp ort
0 0
at h
Ġ o
t r
se r
N one
ge t
d at
Ġ <
er s
s s
c k
i l
u p
Ġ m
Ġ b
. _
i d
an d
u n
( "
ro m
p ath
a ge
ex t
Ġ el
ĠĠĠĠĠĠĠĠ ĠĠĠĠĠĠĠĠĠĠĠ
e s
a b
] <
a p
Ġn ot
" ,<
" ,
u l
Ġi s
( )<
Ġ None
me nt
r or
Ġ _
pt ion
f rom
Ġf or
Ġi mport
Ġ +
se t
p l
Ġ 0
v al
as s
y pe
) )<
Ġ r
en d
Ġ u
t er
Ġ w
" :
al l
ers ion
( <
c on
c l
h e
Ġ ex
r ror
o k
fi le
E rror
( '
Ġ [
di r
k e
g s
at e
ul t
dat a
a ck
q u
ur l
Ġel se
ĠĠĠĠĠĠĠĠ ĠĠĠĠĠĠĠĠĠĠĠĠĠĠĠ
en t
Ġ a
a se
l in
o d
i p
e t
v ersion
i le
Ġ= =
v e
i s
" )<
e ct
ar se
or m
o l
ap p
t h
Ġ %
Ġ lo
T r
" <
a g
e m
Ġ )<
ab le
Ġ 1
in t
ss age
ar gs
ke y
d o
i f
Ġo s
Ġ {
ar t
i z
Tr ue
o de
ĠĠĠĠĠĠĠĠĠĠĠĠĠĠĠĠ ĠĠĠĠĠĠĠĠĠĠĠĠĠĠĠĠ
i mport
me ssage
Ġ di
Ġ h
at ion
t ext
re s
li b
Ġ __
val ue
r i
) .
Ġc on
cl ass
Ġ" \
f o
ch e
le n
u m
p ro
i b
f orm
Ġ e
ok en
li st
in st
Ġ as
Ġ -
al se
at ch
a i
Ġ co
Ġ C
Ġ and
p re
r y
F alse
a m
ch at
i me
p o
i st
dat e
__ (
i g
' )<
m a
p r
' ,<
g g
v er
b u
ai se
Ġre s
E R
ct ion
Ġ name
a ce
co de
it h
; ":
Ġ S
le ment
Ġ or
at tr
R e
u ser
t o
t ype
m m
t e
p y
Ġ str
Ġr aise
iz e
ut il
Ġ *
h t
Ġ get
E x
Ġ st
I n
qu i
ce pt
p ut
app end
[ "
il d
ib ut
f f
( )
Ġ P
Ġ d
' :
ad d
Ġ de
ption s
b j
Ġt ry
in it
j o
c a
[ '
v i
Ġf ile
\ <
in fo
or d
q ue
' ]
an ce
jo in
mm and
" ]
Ġel if
x F
Ġex cept
u b
i ve
' <
lo c
a y
n o
Ġt o
p er
ĠĠĠĠ Ġ
o ur
1 0
Ġ g
s g
00 00
o ut
i c
e w
u le
w a
str ing
Ġ D
x f
u s
x b
o s
h er
x a
ter n
Ġp ath
re pl
lin e
in d
util s
y s
lin k
x e
ar n
fi g
que st
s c
Ġ False
ser t
x d
O N
Ġ True
a ct
p en
ĉ ĉ
s p
a ult
Ġ y
) ,
. __
he ad
Ġ 2
Ġ l
ot her
od ule
x c
= "
qui re
Ġ data
h o
form at
wa it
ar ser
up date
Ġ value
it e
inst ance
Ġ T
Ġ M
p arse
co mp
Ġu ser
t y
our ce
Ġdi st
C h
2 2
re nt
ro up
Ġ len
Ġ v
m o
Ġp ro
ch ar
Ġ se
lo ad
w n
Ġ en
> \
pe c
I N
i m
Ġa wait
di st
C on
Ġis instance
m l
R E
at a
Ġp re
k w
pl it
Ġ L
} <
( ):<
de x
p ack
Ġm a
1 1
Ġ set
e c
Ġ @
Ġt oken
ar y
e st
v ent
lo w
= '
re ct
fi x
ce ss
Ġ 6
" :<
Ġres ult
Ġlo c
b o
Ġ+ =
it er
Ġ url
Ġ key
S t
3 2
el d
o ptions
er ror
N ame
o bj
ce ption
it em
n d
u re
m d
ode l
re ad
- -
t a
u nt
. .
Ġ" <
1 2
repl y
A T
Ġ O
Ġw ith
Ġ( '
Ġ A
or y
ĠĠĠĠĠĠĠĠĠĠĠĠĠĠĠĠ ĠĠĠĠĠĠĠĠĠĠĠĠĠĠĠ
T ag
s plit
Ġ[ ]<
i es
it y
Ġ I
] )<
Ġ- >
b ase
i fi
Ch ar
Ġ U
Ġs ys
co d
Ġ me
re q
ri pt
E S
Ġp ip
Ġt he
m in
co l
quire ment
Ġlo gg
n c
bu ild
Ġo ut
E lement
Ġ message
un d
st art
2 0
T ype
a c
s ize
Ġ other
an g
Ġf rom
as h
C o
tr y
o ol
th on
Ġ >
inst all
" ),<
Ġ* *
b er
Ġ version
Ġp arse
pe ct
at or
V al
b ack
w r
t ime
Ġp r
le ase
ar k
t ent
Ex ception
i eld
w ith
p on
str ibut
tr a
p ort
an ge
ut h
w ord
ar ch
Ġ B
c ur
Ġpr int
ad ata
n ect
stribut ion
Ġ ):<
l er
" .
che ck
0 1
re e
Ġ .
sp ace
Ġ x
de nt
Ġ 3
ð Ł
2 5
Ġ un
I ON
co mmand
pon se
m atch
b ot
Ġ( <
t oken
Val ue
i al
ar get
m odule
re d
ĠĠĠĠĠĠĠĠĠĠĠĠĠĠĠĠ ĠĠĠĠĠĠĠĠĠĠĠ
di ct
Ġp ass
' )
arn ing
E N
st ate
P arse
Ġ do
1 8
3 3
r c
con fig
at form
A R
u st
g r
o ck
] ,
kw args
Ġb u
ĠĠĠĠĠĠĠĠĠĠĠĠĠĠĠĠ ĠĠĠĠĠĠĠĠ
er r
st at
ab el
g roup
ar d
Ġ update
ed it
l a
file name
Ġt ext
! =
cod ing
th od
b y
Ġm sg
Ġ chat
and ler
Ġs up
val id
v ed
Ġ k
Ġ F
f or
Ġt ype
y nc
m sg
s h
S tr
at tern
1 6
Ġin t
2 4
Ġ list
ar g
O R
o pt
Ġ In
in e
Ġ !=
1 7
r un
" )
t adata
Ġ args
Ġt h
l y
r on
a il
S T
in tern
t p
A N
c md
def ault
p arser
st all
an n
Ġ6 8
Ġc l
1 4
he el
ibut e
re am
ss ion
p a
head ers
er t
Ġi t
H T
ca che
intern al
Ġn ew
e y
ption al
( ))<
Ġb e
1 9
/ /
re quest
s ub
Ġ N
D E
6 4
C H
er y
D i
Ġre q
bu g
Ġ 4
sc ript
li c
lo b
[ :
K ey
z ip
e p
i x
li ent
url lib
f ind
] .
re lease
ht ml
* *
Ġm atch
po s
o m
( ).
u de
Ġ al
Ġt ime
Ġas sert
Ġe vent
u se
dir s
Ġh as
o re
an s
un c
per ty
f e
up le
ï ¸
pect ed
1 5
in dex
te mp
Ġo f
o p
8 5
ï¸ ı
t tr
en s
Ġb ase
t ing
R es
ig ht
p h
M E
di rect
a ve
vi ron
F F
> @
Ġc a
ĠĠĠĠĠĠĠĠ Ġ
P ro
re ss
Ġ[ <
n s
Ġlo g
ot e
ro ot
Str ing
Ġw h
s with
cl ude
Ġ attr
n um
ff ect
v ar
( [
me thod
pack age
s on
od y
py thon
ction s
p ar
u ment
ul l
1 3
pro perty
w in
Ġ ch
' :<
Ġst art
o pen
Ġdef ault
Ġp l
S S
ffect ive
t ag
Ġ 5
Ġ line
che me
el p
qu ery
in al
obj ect
an di
) )
Ġlogg er
â Ĺ
file s
a k
lo g
V ersion
ro w
co unt
e ffective
a uth
Ġma x
q l
S ION
m odel
L E
c re
mo ve
lo se
Ġy ield
ex pr
2 3
nect ion
C K
s pec
d a
x A
Ġ{ }
name space
e mp
Ġ 8
ĠĠĠĠĠĠĠĠĠĠĠĠĠĠĠĠ ĠĠĠĠĠĠĠĠĠĠĠĠĠĠĠĠĠĠĠ
â ĸ
t es
r st
ma x
m ap
Ġc ur
Ġ Re
ĠĠĠĠ ĠĠ
Ġo bj
j son
le d
wr ite
e gg
t on
Value Error
Ġfile name
Ġsup er
Ġ E
Ġco l
pro cess
Ġp y
lo ck
{ }
e g
t in
t ers
v el
it ion
' ):<
g th
t ree
Ex pr
at ed
item s
wn load
fi l
ttr ibute
Ġ end
ht tp
ut ton
o und
c s
ad min
L O
T oken
m ark
0000 0
S E
f t
L ist
L o
ut e
St ate
e lement
de bug
I T
i code
r a
r ame
j ect
Ġbu ild
res ult
qui res
o u
' ]<
' .
ma in
pre fix
an t
Ġout put
A L
ifi er
â ¬
it le
m b
( _
no re
p attern
Ġit em
Ġ W
art s
Ġ{ <
S et
str ip
2 9
Ġp ack
as ync
s o
o ption
Ġo pen
c all
Ġ :
Ġ an
out put
Ġ link
¼ ï¸ı
âĹ ¼ï¸ı
te st
s u
U n
Ġ ]<
t able
comp ile
[ -
F A
w arn
t arget
in put
4 0
Ġi ter
or k
Ġre pl
5 0
] :<
st ream
lob al
Ġ ValueError
s ource
Ġ le
di stribution
ar r
le te
" ):<
low er
as sert
ho st
8 6
m ode
me tadata
k ip
Ġ char
Ġs pec
ĠO ptional
Ġcon text
H andler
Ġco mp
" ]<
e vent
8 0
3 0
Ġt est
head er
Ġ' %
Ġb y
i v
Ġ G
con tent
re quirement
x y
pr int
pl atform
Ġ( "
as k
l abel
Ġre quest
repl ace
do w
i mp
i ck
de d
Ġ |
y st
I D
Ġwh ile
en viron
Ġw r
o st
o ved
Ġ{ }<
po int
ĉĉ ĉĉ
E L
um n
tin ue
p ing
Ġs ub
cur rent
D e
n et
qu al
a mp
F I
Ġo ptions
se nd
2 1
stat us
al led
lib r
l ate
} )<
un k
re g
c lose
Ġlogg ing
U T
Ġfor m
con text
andi date
ut f
yst em
ĠĠĠĠĠĠĠĠĠĠĠĠĠĠĠĠ ĠĠĠĠĠĠĠĠĠĠĠĠĠĠĠĠĠĠĠĠĠĠĠ
A D
Ġp os
ĠP arse
] )
Ġcon tinue
Ġ' .
ol d
Ġdist utils
Ġm odel
Ġ on
Ġin stall
SS L
lin es
2 7
ã ĥ
R O
5 5
re ak
2 6
ab s
] ,<
key s
E X
en er
loc ation
Ġpack age
= =
Ġi m
m an
Ġ check
h ash
E D
e le
Ġ 7
c lient
start swith
I mp
on t
Element s
ge x
f unc
Ġin string
ĠD ist
n ew
ist s
n e
Ġn um
am b
Ġo pt
( (
u ct
Ġex c
9 9
â¬ Ľ
ex pected
Ġr ange
gg er
: //
Ġu se
Ġ val
ool s
P E
d b
ĠM oved
module s
a st
ĠĠĠĠĠĠĠĠ ĠĠĠĠĠ
error s
cl s
res ponse
Ġb reak
res ource
T P
Char s
c i
Ġs h
ĠC o
re quires
ock et
i ct
a in
ff er
re move
ver t
A ttribute
in ter
9 0
s ing
Ġf ind
type s
Ġ add
E n
Ġc an
en code
co py
amb da
Ġ ext
Ġ' \
po p
ex ec
Ġcon fig
Ġb ool
p ass
ĠĠĠĠĠĠĠĠĠĠĠĠĠĠĠĠĠĠĠĠĠĠĠĠĠĠĠĠĠĠĠĠ ĠĠĠĠĠĠĠĠĠĠĠĠĠĠĠ
3 7
ang o
fi rst
3 4
D O
Ġco mmand
co m
( {
Ġ app
C O
HT TP
ann el
s rc
s ys
IN G
U N
n ot
Ġcl s
Ġ )
ens ion
Ġt r
li m
l d
Ġb ot
00 0
C T
len gth
i o
w e
Ġ' <
Ġin put
Ġ[ '
k g
Ġth is
"] ,
id th
orm al
. ")<
Ġt arget
j ango
t itle
Ġ" .
Ġres ponse
loc al
ul d
Res ult
opt s
D I
âĹ¼ï¸ı âĹ¼ï¸ı
Ġget attr
S ER
sel ect
ig n
im age
L T
in string
s l
F ile
tr as
A ction
w heel
a int
c ript
namespace s
> _
end or
). __
i e
ca pe
5 6
Ġ> =
ĠU n
2 8
Ġt ag
a re
0 4
Ġpre fix
l l
'] ,
c ert
de code
Ġc all
Ġs ql
ol s
) ):<
Ġform at
AN D
direct ory
w ork
7 7
" ))<
ot al
am s
bo ard
] [
ĠĠĠĠĠĠĠĠĠĠĠĠĠĠĠĠ Ġ
il er
. ",<
R L
la gs
6 0
in ary
con d
Ġfile s
Ġs u
Ġm in
3 8
N ot
p ace
ĠDist utils
release s
Ġrepl y
ES SION
s up
4 9
re f
Ġ H
en coding
Ġn ode
Ġstr ing
or ch
sh a
3 9
ĠC on
et ime
v endor
Ġf il
' t
on g
lo at
Ġ ver
as on
s cheme
f ed
ibut es
EN T
3 6
name s
es cape
3 5
le an
D o
pl ay
Ġ /
vi ew
Type s
Ġ headers
mp ty
Ġe lement
sc ri
ac y
ce s
P I
Ġn p
Ġt y
ĠS ESSION
str aint
l ass
7 5
po st
xF C
qu ote
act ers
9 6
4 8
Ġh t
arning s
Ġdi ct
value s
Ġin dex
Ġde st
ex ists
Ġp ar
4 6
Ġg roup
Ġn o
b ody
Ġr un
pa rent
L A
d f
if y
m ber
Ġf ound
7 6
it s
0 3
Ġ dir
ag er
dat etime
pro ject
tr act
ting s
iz ed
n er
Ġt emp
Ġpl atform
Ġ" "<
Ġex tra
tra in
Ġ{ "
Ġhas attr
V ER
T ext
ut able
package s
ic al
http s
Ġp arser
all y
Ġ[ "
S H
p age
A ME
u mp
ct ype
Ġm odule
.. .
Ġst at
do c
E E
ho w
ig nore
Ġh elp
ifi c
a v
( *
5 2
iz er
de lete
ur ity
A B
L ER
Ġcon tent
ĠL ist
ma ke
ec urity
Ġca che
arg ument
( ?
Ġ< =
l ay
7 8
Ġcur rent
M odule
H AND
xF F
Ġt uple
a x
Ġme tadata
Ġ \
M et
Ġ arch
and om
M L
port ed
ff set
() ,
Co mmand
Q ue
6 6
Ġin st
gr am
atch er
i de
Con text
ad er
7 0
t ok
di s
per ator
ta in
p i
CH E
Ġcl ass
Ġh ash
c ord
iter al
Ġp arts
E nd
co re
0 2
b l
Ġ zip
h andler
Ġs cript
arser Element
7 4
o f
do wnload
Ġc re
E qual
9 1
a f
Ġ Exception
Result s
Q u
Ġ }<
Que ue
D ata
Ġc md
fil ter
L I
HAND LER
Ġin fo
p p
9 2
9 8
u pt
ĠCo mmand
le vel
) ))<
9 5
low ed
w h
in sert
s ite
Ġex pr
o o
ĠĠĠĠĠĠĠĠ ĠĠĠĠ
Ġ json
ge st
arr ay
libr ary
Ġ all
' ))<
en try
â¬Ľ â¬Ľ
ro l
c cess
Char acters
v is
> )<
Ġy ou
ap i
rect ory
P Y
9 3
at ive
4 7
ĠS ecurity
em ail
f n
en v
Ġa ction
p s
Ġt orch
B ase
f g
C A
by tes
f rame
di a
Ġ R
ra w
Ġde l
re t
Ġw arnings
U LT
â Ģ
4 5
e ssage
7 2
Re quest
Ġp a
h as
er n
Ġty ping
> __
-- --
â ł
Ġ query
se d
or ig
amp le
n ode
i ss
Ġst ate
Ġ error
scri ption
' \
la st
F orm
Ġo ption
m ment
Ġp attern
s kip
h is
Ġs ize
Ġen coding
c r
6 8
Ġ up
app er
St art
s ave
Ġi d
4 4
Ġ z
ĠN ot
t rol
re quire
8 85
Ġobj ect
le t
ĠMoved Attribute
9 7
g ht
( ),<
re n
Ġw heel
N O
p ri
Ġs ource
w ard
r ag
cre ate
Ġv ar
Ġre quirement
co mm
ĠT ype
ext end
ext ension
mport Error
id get
O r
path s
set up
Ġn ext
Y PE
C lass
m od
ĠĠĠĠĠĠĠĠĠĠĠĠĠĠĠĠĠĠĠĠĠĠĠĠĠĠĠĠĠĠĠĠ ĠĠĠĠĠĠĠĠĠĠĠĠĠĠĠĠĠĠĠĠĠĠĠĠĠĠĠĠĠĠĠĠ
B A
" \
3 1
Ġs cheme
Ġ' /
Ġstart Tag
4 1
5 8
Ġ ),<
Ġco de
W arning
do ut
upt ools
Ġg lobal
Ġs o
7 3
en ce
Ġl abel
x t
dir name
Ġ err
comp at
Ġt mp
bu ffer
m ary
ĠĠĠĠĠĠĠĠ ĠĠ
U ser
FA ULT
6 5
w d
c an
h elp
w idth
7 9
w arning
M A
pass word
I d
Ġ" -
lim it
7 1
" ).
C ol
token Queue
ord er
U SER
Ġor ig
f un
s v
tr ans
b e
) [
Ġ ser
de n
Ġma ke
W N
885 9
Ġm ust
) :
ex tra
A r
ĠI mportError
mo v
I O
is o
le ar
A ctions
"] ,<
a ction
expr s
8 1
auth or
var s
5 4
c ro
Ġs rc
(' .
Di ct
vi ce
Ġname d
Ġ edit
cod er
n y
xF A
L S
0 5
ĠP arserElement
HT ML
ex tras
g ress
v id
bo se
in clude
Ġas ync
ĠC all
c y
end swith
9 4
Ġ" %
Ġ \<
Ġtoken Types
ation s
pre c
C a
Ġn et
on ly
do wn
Ġ Key
de st
Ù ħ
H e
se p
cur s
Ġh ost
5 1
Ġm ode
fi eld
__ )<
Ġf n
. "<
in dow
Ġi g
resource s
({ "
Ġdi s
win dow
vi de
se g
P re
sp atcher
W h
0 7
Ġ `
Imp lement
6 9
8 8
ma y
xF D
u res
Ġ root
4 2
ib le
6 7
time out
ci i
Ġre ad
6 3
s pect
o i
im g
( __
ann ot
se ssion
0 8
B u
g lobal
â £
con nection
5 7
8 2
ðŁ Ķ
et ch
pos ition
S e
u al
T H
ch annel
Ġ j
p art
ch em
p arts
8 3
0000 1
L en
co pe
il l
6 1
4 3
Ġurl lib
Ġ datetime
} ,<
re pr
mov es
le ct
fo re
s y
Ġt ele
ok ie
script s
Ġl ast
link s
P P
ho uld
5 3
Ġ at
8 4
y thon
Ġ &
mark er
c c
T O
bo x
Ġim age
Ġcon n
ph ase
B utton
Ġb ody
and le
Implement ed
set Name
dat ion
ĠNot Implemented
ort ed
l ambda
Ġf in
user name
li ed
Ġex ec
st d
I nt
con nect
Ġse nd
ut ure
o w
se s
an k
8 9
in k
pl at
AR K
F O
\ \
0 6
00 01
Re quirement
ĠĠĠĠĠĠĠĠĠĠĠĠĠĠĠĠ ĠĠĠĠĠ
r ange
Ġpro cess
Ġt f
E T
M P
n ext
u x
d jango
m ult
ent ity
col or
pro xy
class method
f ull
se arch
Ġ kwargs
Ġb ack
Ġo p
l ang
Ġs a
b inary
Ġ ab
gr a
Ġ{ '
Ġo ld
Ġtime out
Ġpa rent
ĠC h
le ep
t xt
o us
ĠParse Exception
pa re
s ystem
= [
b lock
s um
8 7
C F
app ing
Di stribution
pt h
set tings
iss ing
(? :
s ql
H E
Key board
model s
url s
= {
un icode
us h
EX T
stat ic
ss l
lement ation
S pec
g ener
6 2
T o
Ġ abs
ut o
ch ed
N AME
Ġm ark
Ġ1 0
DE FAULT
" {
ial ize
F ield
ho ok
In valid
err msg
f lags
W idget
p date
I G
E mpty
it ies
ex cept
m age
c p
ĠĠĠĠĠĠĠĠĠĠĠĠĠĠĠĠ ĠĠĠĠ
Ġp art
Ġ' -
5 9
ur ation
requirement s
line Keyboard
Ġf i
ile d
Ġwr ite
it es
C ON
re l
d d
open Elements
Q t
C E
Ġfin ally
R A
p ip
i dent
f inal
s ocket
fe at
me mber
pre ss
Form at
to col
dat es
pre releases
b an
Ġ 9
er o
ch ine
con n
M ode
B y
} "<
" })<
M atch
Name d
ĠType Error
__ ()<
I t
c or
di m
Ġig nore
Ġ V
Ġname space
st ack
Ġa ct
ar ies
Parse Action
ch unk
c andidate
f fix
t d
In fo
R et
Ġa re
Ġp kg
lo gger
Ġ ad
s a
i able
ick er
Ġen v
Ġdo Actions
Ġ' --
h ase
' ).
comp iler
assert Equal
cond s
CHE CK
ormal ize
ret urn
le ft
add ress
'] )<
u str
Ġd f
âĸ Ī
Ġin dent
0 9
on ical
Re pr
qu ence
in valid
Con nection
str Repr
b atch
ate g
Y ou
U RL
= ',
le ctions
I S
AT A
vid er
VER SION
ai r
Ġme thod
Ġ" __
] +
O ptional
b r
N o
attr ibutes
as cii
Ġc ert
f li
Ġres ource
Ġan y
ust om
o c
so le
ist er
Ġ HTTP
current Token
Co mp
ta gs
Ġ lib
ro und
ok up
Ġdi rectory
c ase
b utton
Ġin clude
str uct
vi ous
Ca che
M O
f uture
Ġco unt
Ret urn
ex c
) '),<
le g
i str
Re f
ĠĠĠĠĠĠĠĠĠĠĠĠĠĠĠĠĠĠĠĠĠĠĠĠĠĠĠĠĠĠĠĠ ĠĠ
. *
de nc
pen denc
L e
ĠC ol
o me
ĠD i
tr ies
ES T
ex p
Ġf unc
par ams
T he
ri ght
Ġpro ject
st ore
Ġ" {
no wn
) ]<
ã Ĥ
Ġht ml
l at
a iled
able d
c fg
edit able
â Ķ
he ight
to p
id s
T ime
su do
main ing
lic ation
K E
o g
um er
c li
an y
Ġen try
Ġcre ate
dex Error
to ols
â ķ
! ")<
O S
R o
ĠIn stall
po ch
} )
Ġa uth
G et
F il
Ġ admin
vis ion
Ġre v
OR T
I C
Ġ row
Ġo perator
rag ment
Ġ' '<
ĠU pdate
Ġin it
is dir
el l
ĠI ter
Ġmodel s
Ġ" ,
Ġl ambda
Ġal low
ta il
fli ct
con v
viron ment
host name
E nt
po ol
lin ux
ĠKey Error
spect ive
fil ters
w er
inst alled
b ar
e k
t otal
in ner
ub lic
m i
Ġun icode
T able
Ġby te
u g
Ġi mp
i as
ĠT uple
Ġ8 2
Ġtoken s
M ARK
man ager
ites pace
Ġy our
Ġf ont
Lo gger
andi dates
Ġpath s
ĠO S
N ode
Ġnamed type
unt ime
: ]<
sha pe
Ġs kip
con tr
Ġparse d
command s
It em
O n
Ġres p
or s
Ġw e
Ġch unk
af ter
z en
Ġpass word
Ġstat us
me ta
mo ved
es c
Ġc lient
Ġst ream
libr aries
KE Y
Ġ- -
f p
back end
ðŁ Į
] ))<
y nt
Ġ lines
Ġre quire
Ġex tract
Ġlo ad
di o
c lear
ĠP ro
ce ptions
0000 01
bj ect
Ġm ult
Ġs sl
co me
res ol
T ER
ĠA ttribute
re cord
ro zen
eg er
ĠIn valid
ynt ax
u age
Ġf ed
ĠĠĠĠĠĠĠĠ ĠĠĠĠĠĠ
val i
ex e
un expected
Ġend Tag
l iteral
contr ib
con trol
âł Ģ
P AT
a z
B U
R I
em b
act er
m ask
Parse Error
id x
el se
ap h
S A
Lo c
a it
g ine
no w
Ġp er
Ġim g
ĠNotImplemented Error
base name
ol ute
u f
xF E
IN FO
ig r
ð Ĳ
n orm
< /
de v
if est
ag ing
gg ing
e val
S U
Ġ" _
Ġin ter
con vert
ĠĠĠĠĠĠĠĠĠĠĠĠĠĠĠĠ ĠĠĠĠĠĠ
Ġf ull
ĠD E
ment ion
char s
de l
Ġattr s
Ġse ssion
G G
wr ap
result s
num ber
Ġf un
con tain
Ġcon nection
extension s
p kg
st dout
> "
Ġdo wnload
temp late
Ġre ason
he re
Co mment
l s
Re gex
str ict
Ġf inal
Ġr andom
Con fig
Ġcol lections
A s
wa re
Ġby tes
P o
IT E
M ENT
iter able
Ġme ta
Ġset uptools
re ason
Ġset up
In stall
âĸ Ĵ
Ġpar ams
s ure
Ġn e
read y
chem a
AT ION
M essage
Ġs plit
Ġs orted
Ġex pected
Ġ" `
h s
f loat
load er
user s
i a
Ġ util
doc ument
ĠCol umn
orig inal
Ġloc ation
message s
n ing
o ok
s leep
:< /
ĠĠĠĠĠĠĠĠĠĠĠĠĠĠĠĠ ĠĠ
Ġco py
ĠAttribute Error
E C
B O
M ore
Ġm od
t k
app ed
x ff
Ġf ield
â Ļ
old er
or g
Ġcon vert
Ġinst alled
T est
on ent
wn er
oi ce
ack list
x x
pl ace
ĠCon fig
(" .
Ġtr ans
ca le
qu ot
pre ter
25 6
G S
P A
n g
Ġs how
Ġ arg
) ),<
V E
DO WN
W indow
h od
se ction
ot o
gra de
Ġabs olute
a ded
' s
Imp l
t mp
Ġrequest s
ific ate
umer ate
act ive
) "
Ġw arn
Ġ ..
req s
Ġd jango
(" \
x ml
Ġloc al
set ParseAction
ĠMoved Module
Ġt able
Ġfi rst
Ġt otal
Met hod
'] ,<
point s
Or More
Ġbu f
AR S
"] )<
C all
ĠU ser
word s
Ġ' (
Ġs hould
n n
um b
Ġpre releases
static method
ĠĠĠĠĠĠĠĠĠĠĠĠĠĠĠĠĠĠĠĠĠĠĠĠ ĠĠĠĠĠ
1 00
exec utable
Ġso up
f etch
o un
Ġ' ,
Wh itespace
P ath
fun ction
f er
leg acy
P arser
S ec
ur i
Ġor d
Ġtype s
U p
d uct
ER S
xF B
) ",
Ġw in
â£ ¿
Ġs ocket
r p
ex ceptions
"] .
Ġ join
std err
', '
Ġen umerate
A uth
Ġ q
ĉĉ ĉ
imp le
res h
5 17
S er
de scription
- %
m t
Res ponse
u id
Ġ Version
ER R
ĠD ict
0 33
m do
Ġp ri
Ġf loat
Ġi o
p g
s ix
t uple
ðŁ ĵ
in ed
mb ols
ex ception
we ight
> {
ð Ŀ
Ġs ystem
call back
âĸĪ âĸĪ
id d
parse d
" ),
for ce
Ù Ĭ
oun dation
get Logger
F D
a w
F oundation
ĠIn lineKeyboard
Ġb est
Ġ errors
Ġr v
ail able
en ter
k er
mdo ptions
as ses
tr ue
j or
ex it
Ġd st
re st
r t
d ump
O ption
OR D
f ont
Ġ header
Ġuser name
object s
idd le
M odel
ut ion
Pro ber
di spatcher
F rame
b dist
ĠĠĠĠĠĠĠĠĠĠĠĠĠĠĠĠĠĠĠĠĠĠĠĠ Ġ
% (
Ġn n
mark up
re try
M ark
T E
Ġver bose
f l
Ġf e
di gest
p atch
col umn
( **
Ġle vel
Ġ' __
imp lementation
Ġex ist
sub process
ri ver
Ġht tp
ĠCall back
Ġcon straint
B C
s m
st ep
2 00
ens or
d ry
ot s
t ar
End Tag
v ate
al lowed
m s
attr ibute
Ġ" (
comp are
den ce
is h
f c
se conds
tok list
may Return
mayReturn Empty
S I
Ġ[ ]
ra in
LO CK
ct x
set default
Ġ K
Ġm o
un pack
Ch at
âĸĴ âĸĴ
ĠĠĠĠĠĠĠĠĠĠĠĠĠĠĠĠĠĠĠĠĠĠĠĠ ĠĠĠĠ
= (
__ <
Ġth at
Ġdi stribution
Ġt itle
Ġasync io
token s
reg ister
ex clude
r m
u dio
__ (<
Ġcall back
h ex
Ġ" /
ser ver
__ .
Ġon ly
n p
app lication
Ġd ry
re v
re gex
s how
Ġp ost
Ġbase string
ERR OR
char set
rozen set
Ġsu ccess
ry pt
Ġset attr
] ]
pre pare
act ory
bo ol
re en
comm it
bu f
de red
Ġw ill
a pt
Ġc v
Ġd b
( \
b le
De f
lay er
Ex pected
Ġ" --
arch ive
Ġh ave
Parse Mode
Ġnet loc
Ġresult s
Named Type
parse Error
w w
ch ain
Ġtele gram
ace back
Ġse arch
Ġen sure
Ġ+ <
t en
ĠRe quirement
h el
Ġs y
x ed
SH A
xf e
Ġcan onical
r at
pack aging
ens ure
Ġpro xy
ĠC ore
e q
group s
SE T
ĠCommand Handler
b est
I dent
N ING
[: -
C C
xd c
Bu ild
re direct
Ġp ort
port s
ant s
ĠCore Foundation
"] :<
phase s
Ġst ack
AB LE
Ġb lock
En coding
ial izer
Ġf l
r aise
Ġe gg
ĠDi stribution
ist ory
xc f
ĠS tr
abs path
__ ,
g ame
} ")<
Ġres ol
pre ssion
Ġ Z
Ġf p
Ġm an
pre d
con straint
Ð ¾
x ab
th er
G roup
Ġrepl ace
Ġ ).
Ġ select
o ffset
com ment
g o
O K
Ġre move
T LS
g b
an ch
re al
lo ss
DI R
l ong
import er
Ġ valid
Ġse ction
'] .
a gs
Ġt ar
ke ep
Ġvalue s
lo gging
f ul
Ġsh util
Ġ" '
ex tract
st op
t ect
ĠĠĠĠĠĠĠĠĠĠĠĠĠĠĠĠĠĠĠĠĠĠĠĠ ĠĠ
in ation
Ð °
lib c
x B
so up
pendenc ies
}< /
ĠO ption
cl a
S ize
r andom
lo aded
} \
f s
en se
Ġre maining
xf b
net loc
ifi ers
ĠB ase
ind er
Ġun pack
ĠM essage
Ġf rozenset
ch ild
(" %
xf a
T his
Ġ one
xe a
O F
ĠI mage
I ME
Ġpackage s
x D
i ch
c lean
} ".
Ġex tras
) \
con st
Ġfind er
ok ies
M M
attr s
ol ated
ĠG roup
pe p
Ġfil ter
em o
by te
default s
p lied
ct ools
up ported
â¬ ľ
(' /
me dia
: %
d k
Ø Ń
ĠL O
h andle
F ound
c lo
Ø ¬
Ġlen gth
opt im
f ter
Ġrequire d
Ġs ix
xA B
at er
ho me
st ock
se q
up per
cl asses
ri es
Ġth read
ðŁĵ ¶
Ġde bug
() ))<
Ġme mber
pos it
f ail
xd b
Ġc andidate
St ack
e poch
Un expected
Qu ote
P ython
a ke
st icker
window s
n on
ĠP Y
Ġdo es
match es
I L
as ic
um ns
xe e
Ġw ord
ĠUn ion
ĠRe gex
Start Tag
data set
() [
Ġb utton
ĠA ny
Ġ },<
Con tent
25 5
ĠOS Error
k nown
n or
s core
c ent
ch ange
Ġg ener
ignore Expr
ic ro
a uto
[ ^
xf c
th read
Ġpro spective
f r
v s
ver se
par sing
emp ty
se nt
> ]<
B ot
m y
A ny
Ġde scription
i r
re set
list dir
== ==
Con st
istr y
cro s
m k
he ck
ay s
Ġparse Impl
ann ed
Ġb atch
P l
xa e
âĢ İ
Ġs ave
Ġ argument
eg acy
Ġ ro
at us
Ġ" >
Ġt rain
USER S
vide o
Ġco mment
at ing
ĠS t
t ed
á Ħ
require d
xb d
pl y
ĠĠĠĠĠĠĠĠĠĠĠĠĠĠĠĠĠĠĠĠĠĠĠĠĠĠĠĠĠĠĠĠ ĠĠĠĠĠĠĠĠĠĠĠĠĠĠĠĠĠĠĠĠĠĠĠĠĠĠĠ
xc d
âłĢ âłĢ
t s
W S
Q U
mi ssion
D S
li ke
() )
iddle ware
xb f
A S
pace Characters
Ġal lowed
W r
exec ute
Ġ' _
fi ed
AL L
ĠT YPE
x C
in dent
def ined
Ġdo c
C re
P RO
r b
Ġfilename s
Ġfil ters
ab i
ĠS yntax
Ġde code
b in
e a
Ġ quote
xa a
P RE
Ġ" ".
---- ----
exp and
ĠD e
ĠĠĠĠĠĠĠĠĠĠĠĠĠĠĠĠĠĠĠĠĠĠĠĠ ĠĠĠĠĠĠ
P os
Ġr ight
= _
} ,
ĠL ink
R UN
à ´
xe f
pro ber
âĢİ ðŁĵ¶
un it
xb b
v c
Ġst op
emb ed
find er
prec ated
ĠCallback Context
el come
xd f
hel per
ro p
Ġst d
xd d
LI ST
Ġ_ ,
Ġsh a
il tin
Ġre cord
T ree
U R
xf d
Ġarch ive
Ġsu ffix
Ġw ork
u d
tok dict
A PI
i se
l ing
xa c
ty le
x ies
Ġex p
BA SE
e of
j ust
y le
Di r
) "<
P hase
so ft
Ġcur r
s ock
ser ve
do ctype
He ader
D is
M ap
n u
xe b
RE D
xd a
p ng
Z E
Met adata
Y ER
ation Error
Ġiter tools
Ġser ver
Ġ Qt
Ġb inary
xe c
Ġ head
Ġm y
u i
x ce
Ġapp name
' "
ĠU RL
ã Ģ
bu ff
dis play
I P
e e
ifi ed
Ġle ft
pri vate
Ġ ar
t n
ern el
(' \
Ġnum ber
Ġf rame
([ <
eg ative
A ll
al low
Ġcol umn
O ther
xc c
LA GS
LO AD
Ġitem s
â£¿ â£¿
o perator
Ġ dirs
F B
x de
we b
ump y
Ġre g
Ro bot
pl ot
Ġcon nect
ub le
str act
Ġco okie
Ġiter able
O L
( .*
mult ip
F E
ns upported
e qual
ĠB ad
h and
Ġ Ð
ule s
U P
Ġf lags
sa fe
O bject
10 4
xa f
ctype s
Ġexc p
Ġm ap
is file
cla use
ent ities
f ace
xb c
al ph
di v
net work
xc b
i que
A d
ert ificate
_ ,
Ġmark er
O P
Ġre l
Ġfor ce
ĠStr ing
m is
Î ¹
ele ct
Ġval i
M IC
0000 2
Ġsub process
B ody
A n
BU G
B ar
d ot
EST RO
n ormalize
st amp
' ),
con fi
oo lean
P ool
AT E
Ġrequirement s
ESTRO YER
ver bose
Ð µ
Ġma in
s ign
B ack
` `
dent ial
ĠCall able
d st
W ith
version s
St atus
A l
Ġl ang
(). __
0000 00
pl us
Ident ifier
x ad
M ES
z er
at ure
Value s
Ġs ite
lic it
o wner
Def ault
ĠInlineKeyboard Button
p air
Ġcomp ile
A ttr
p ure
d l
i ant
Widget s
ĠI D
s cope
Ġun iv
ĠUn icode
) ",<
set ting
man ifest
his data
stock hisdata
gr aph
Ñ Ĥ
Spec ifier
Ġw idth
Parse Results
D ATA
ĠS e
Ġp age
do main
CO L
channel s
t he
T ION
ction ary
Ġg lob
, "
S tyle
d ing
Ġret ries
ren ce
s i
it ch
DI ST
GG ER
Ġdi spatcher
CH AT
curs ive
ap ed
Ġ{} ".
) ]
Ġthread ing
ĠS U
ormal ized
Ġobject s
g t
s w
co okies
dat ed
/ {
S L
bl acklist
L ine
f older
ĠD is
Ġm issing
ext ern
F C
n one
c andidates
: -
col umns
ing le
a a
xb a
(' --
Ġlo ck
chat s
o b
Fil ters
Ġre lease
ver ify
o red
Ġ ...
Ġre direct
Ġpro gress
Ġk ind
ab c
Ġ view
feat ures
dist utils
bo und
.. ..
G E
T h
g ot
Ġpre vious
. \
D B
g it
FF FF
c at
C andidate
prec ation
S u
F or
e b
f init
format s
V i
g er
comm on
Ġp o
Ġw as
( ["
C heck
or ary
D ist
posit ory
n ull
Ġ" )<
o ver
ï ¼
iz ation
hash es
Ġback end
m it
cs v
Token s
MARK ER
tr ic
par am
xb e
Ġopt s
ateg ory
environ ment
sy mbols
ĉĉĉĉ ĉĉĉĉ
t l
Ġkey s
ĠSecurity Const
MO DE
g en
Ġal ready
Ġ( (
s or
Ġ2 0
request s
m ote
ĠM Y
sum mary
SI ZE
j pg
. ')<
de p
Ġ library
z e
Ġo ffset
ĠĠĠĠĠĠĠĠĠĠĠĠĠĠĠĠĠĠĠĠĠĠĠĠĠĠĠĠĠĠĠĠ ĠĠĠĠĠĠĠĠĠĠĠĠĠĠĠĠĠĠĠĠĠĠĠĠĠĠĠĠĠĠĠ
() ),<
ĠS SL
Ġcol or
(" <
Ġstack level
s ort
Ġch annel
m ath
OR M
FI G
Ġpl ay
S elect
] ):<
` ",<
me s
ack age
Ġ1 00
o id
p k
Ġa v
Ġh ook
IN E
ans wer
PAT H
que ue
Ð ¸
resol ve
In dexError
add ing
FI EL
Pl atform
Ġ 85
up grade
Ù Ħ
ance l
label s
b ind
Ġname s
var iable
en gine
ĠF ile
ĠIn dexError
CH ARS
field s
A C
sel e
Ġi dent
Ġc lose
Ġcanonical ize
Ġ Ex
ge d
Ġchar set
Ġbase name
f b
âĸ ĳ
O T
rest ype
Ġde lete
end ing
nd er
ĠIter ator
> '
ĠP ython
Pos ition
Ġl ong
IN TER
Ġpos ition
Ar g
set uptools
Ġst dout
Ġid x
lic ense
spec ifier
output s
e ar
Ġc r
sh ort
` ")<
tk inter
IT H
Ġop Expr
c ap
name d
Ġse p
mb ine
data State
Int eger
x ca
A PP
Ġs p
li ce
ac c
Pro vider
Ġe val
cor rect
] ]<
co s
Ġb l
Ġ2 55
F ore
ator s
le ction
On ly
able s
ĠB ot
dential s
Ġ ])<
de vice
Ġs um
Ġ- =
t f
Ġh andle
RUN NING
M ix
us ic
Ġse en
Ġn ormalize
ĠIter able
Ġfun ctools
A ES
arg v
ST R
O pen
v ers
di c
", "
tr ack
compat ible
B AN
th ing
Ġsup ported
Qu ot
Ġn s
Ġ* <
Ġv is
__ .__
res p
Ġfull name
ignoreExpr s
p ublic
] (
à ¶
Do wnload
( %
12 8
mb ers
ðŁĶ ´
c ure
at is
Ġm ask
end ored
tail s
= ("
Ġen code
Ġf ailed
ig h
'] :<
close d
vide s
ĠMY PY
ion s
(' %
Ġa c
ðŁĮ ķ
source s
P O
l ers
su ffix
r ay
mult i
vali date
g or
C ur
o x
Ġr aw
Ġret ry
f wd
ty ping
String Class
literal StringClass
Ġ( %
id den
gener ate
d one
Ġdi rect
gor ith
O f
S o
ay load
ma c
âĹ¼ï¸ıâĹ¼ï¸ı âĹ¼ï¸ıâĹ¼ï¸ı
ex ample
as y
ĠParse Results
Time out
Ġ limit
am a
full name
ab ase
) -
Ġch ild
S O
sv g
Vi ew
ed s
Ġe p
Ġexist ing
ing State
Ġlabel s
j i
az a
T YPE
Ġn on
pro gress
() ):<
â¬ľ â¬ľ
Ġw ait
> "<
ĠRe quest
2 19
] *
Ġ ctypes
(" >
form ation
" '
Ġo ver
M D
_ .
Ù ī
dered Dict
ar m
par ame
Ġbu ffer
ĠInstall ationError
Quote Char
Format ting
C lient
c rypt
Ġa fter
ĠO r
Ġre quires
ri g
comp onent
Ġtemp late
de sc
wh ite
ðŁĶ µ
) }
Ġt ree
arg types
Ġle t
) ).
Ġadd ress
CHECK ING
at es
Ġpy thon
feat ure
U M
platform s
(" /
Di rectory
e ad
ĠĠĠĠĠĠĠĠĠĠĠĠĠĠĠĠĠĠĠĠĠĠĠĠĠĠĠĠĠĠĠĠ ĠĠĠĠĠ
gorith m
â¬Ľâ¬Ľ â¬Ľâ¬Ľ
mission s
T IME
In dex
Ġ ],<
Ch ild
UT F
I ter
L iteral
Ġcommand s
V ar
C S
Option Error
Ġcon tain
ma jor
Ġreq s
Ġord er
sele ss
contain s
TH ON
Ġ 32
mis c
co okie
Ġa g
Re try
ca ption
Ġexec utable
Ġex clude
ag ent
OR Y
G ET
Tr y
f ragment
act or
e red
Ġ J
Ġorig inal
h istory
ĠS et
IN DO
>< /
Ġp e
pro b
Con v
I mage
mark down
be fore
Ġcomp iler
m at
it el
ma chine
V C
er ce
ĠS pec
EN D
á ¼
Ġver ify
Fil ter
i k
v cs
Ġimport lib
ĠDistutils OptionError
ĠBad Request
â ľ
Ġt k
Ġsa fe
b g
d ar
ang le
apt er
S ub
g lob
Set up
ĠQt Widgets
n a
s ample
} .
Ġ email
me an
I F
e f
= %
W ITH
sup ported
cre ment
Ø ®
ĠC H
EL P
Ġmult i
O ffset
d td
Ġin sert
Ġversion s
ĠF ED
lic y
Ġattr ibutes
T uple
Ð ½
up press
ca ched
Co re
Ġpri mary
ER ATION
sub type
Ġzip file
Ġab is
Ġlo okup
Window s
c mdoptions
o od
ick le
Ġvar s
un iv
Un icode
ero OrMore
b it
ph oto
url parse
[: ,
Ġ X
Ġv cs
stat s
may IndexError
Ġal ph
O UT
s ide
Ġp ool
lo od
Ġpart ial
Mark up
Comp iler
T EXT
Se quence
c v
r l
py pi
ca use
final ized
o ff
Pro cess
: \
ĠC om
re tries
Ġn ull
st yle
reg istry
Col or
icro soft
Ġ Y
EN SION
[: ]<
R ange
ĠC F
Ex ec
inter preter
C annot
> )
Ġ[ (
content s
He ad
Ġ RE
d river
p ol
Ġstr uct
im ation
man y
t b
ns i
oo g
Ġbutton s
j ar
t g
Ad min
ro po
Ġs ign
Ġi p
Ġs ock
end er
RE CT
trans late
ĠLO GGER
ropo ut
spec s
Ġcode cs
sl ots
cp u
' (
CON FIG
Ġc annot
Ġc lean
dist ro
ĠCh at
Ġ[ ])<
Se ssion
Ġinter preter
finit y
l t
ĠP ip
'] ),<
Con trol
ĠP y
Ġre al
pos ix
Ġvali date
oog le
> }<
á ı
Ġapp author
L U
Ġ et
r ate
pre view
mb ol
Ġvar iable
ä ¸
Ġmatch es
de pth
Ġpre d
L abel
Ġf ragment
file list
Ġg r
l r
Ġpl at
ter m
he b
s chema
Ġex act
mp ath
gr id
Ġhash es
pure lib
O rig
a udio
u ate
MA X
Ġv endored
W heel
ĠA pp
f w
tr ust
Ġde precated
Co unt
ug in
r strip
Ù Ĩ
(' -
Ġmin or
Ġ" *
Ġ" {}
Ġc lear
ub e
li ght
Ġ< <
und er
Ġre f
fo und
E CT
f name
precation Warning
. ".
lo okup
ed String
pe ed
Tag Token
ĠSpec ifier
pro duct
Ġt ri
Ġdi vision
ER T
lang uage
cert s
le s
ca st
A F
app name
Ġo per
ip v
Ġpre v
DOWN LOAD
func s
Ġ date
St ream
make dirs
ful ly
; <
N A
00000 4
ĠĠĠĠĠĠĠĠĠĠĠĠĠĠĠĠĠĠĠĠĠĠĠĠĠĠĠĠĠĠĠĠ ĠĠĠĠĠĠĠĠĠĠĠ
Tr ans
INDO WS
code s
Ġch ange
load s
Ġel f
pro p
p ed
x E
à ¸
reg ion
Ġ ðŁ
H O
lo sing
ĠĠĠĠĠĠĠĠĠĠĠĠĠĠĠĠĠĠĠĠĠĠĠĠĠĠĠĠĠĠĠĠ Ġ
ial og
Pro xy
row s
mm on
ĠCh ar
al og
f actory
m er
Ġexpr s
Ġ` {
Item s
Ġcon v
mo di
IG HT
C an
al le
Ġno w
open er
curs or
me m
Ġdis able
Build er
u ce
2 11
Ġ entity
al k
Ġc wd
Ġb g
pro vider
Ġun it
Ġpar am
MODE L
ri de
pro tocol
dat abase
ne OrMore
Ġurl parse
sha red
Ġx ml
c name
f d
Ġt ok
'] ['
Ġlet ter
Ġp d
000 11
Ġtele thon
Ġc p
code Error
FIEL DS
Ġca ption
Pro tocol
Le ft
, '
co erce
Ġz aza
Ġimp lementation
get item
bu iltin
ĠT ime
Ġ ~
ĠInstall Requirement
tr aceback
comp ress
Ġen vironment
a ch
} {
min or
al w
ĠCo mp
PP ORT
} `
Ġsys config
Ġdis play
P ar
In put
egacy Version
V AL
Tr ust
W ORD
le ss
ĠF il
Res ol
= ['
send er
Ġopt im
nor mpath
C B
t ask
me mbers
Ġn orm
con f
Not Found
let ed
Ġargument s
DI RECT
W AR
c al
Ġ ._
Ġ height
Ġfield s
Ġ Response
temp orary
ue ss
Base Exception
Ġav ailable
c wd
c d
fe rence
m on
o per
F ED
Ġinst ead
rp m
M S
lib Exception
IS O
B Y
M an
Ġl d
) ?
Ġ You
ĠI O
D A
S h
H t
Ġ1 6
ĠT o
F inder
ific ation
cr iter
Ġdi gest
( ['
vi rt
L EN
en o
con flict
ri ve
Po int
ĠI nt
+ "
ĠD o
S cope
Ġ ,
Ġpl t
c b
iv ation
igr ations
Cre ate
( -
Ġp hase
s dist
âĹ¼ï¸ı \
ateg y
' {
Ġ IN
ur ing
By tes
Ġp ad
Co uld
C ode
Ġex it
ĠT emp
imp lied
hook s
ĠA nsi
// ",<
En vironment
lin eno
PY THON
B lock
ĠE nt
plat lib
L ink
re ater
Ġpre loc
Ġis olated
Ġb ut
sup press
curs ion
ĠE n
Ġspec ifier
Ġ"- //
confi dence
N et
Ġ Values
ĠĠĠĠĠĠĠĠĠĠĠĠĠĠĠĠĠĠĠĠĠĠĠĠĠĠĠĠĠĠĠĠ ĠĠĠĠ
R ight
i an
for ward
Ð¾ Ð
W H
Ġin str
H ELP
e ded
or ld
2 10
Ġ ?
Ã ©
un ch
Ġ1 5
post args
By te
in ish
ES S
skip Whitespace
Ġh ome
Con sole
Col umn
__ ,<
ĠC OS
"] ["
Ġgroup s
I VE
à ·
Ġ libraries
m ute
ĠĠĠĠĠĠĠĠĠĠĠĠĠĠĠĠĠĠĠĠĠĠĠĠĠĠĠĠĠĠĠĠ ĠĠĠĠĠĠĠĠĠĠĠĠĠĠĠĠĠĠĠĠĠĠĠĠĠĠĠĠĠĠĠĠĠĠĠĠĠĠĠ
are a
$ ",
en tries
trans form
, )<
P lease
r and
Ø ª
Ġext ension
df stockhisdata
ĠSyntax Warning
Ġde v
ĠD ESTROYER
Ġwr apper
ip le
ON E
ĠE mpty
i ase
Ġc fg
th an
ðĲ ³
Ġa x
Ġvis it
A pp
ch oice
MARK DOWN
H A
ac cess
ĠCOS MIC
ĠE OF
HE AD
! ",<
I g
f low
ss ible
D ialog
u me
Ġ mention
al ance
Chars Orig
Formatting Elements
' m
Ġn umpy
ve lo
fil l
del ta
2 15
u ild
at al
vel ist
sing le
al ker
Ġwr apped
âĢ ¢
Ġ //
ĠĠĠĠĠĠĠĠĠĠĠĠĠĠĠĠĠĠĠĠĠĠĠĠĠĠĠĠĠĠĠĠ ĠĠĠĠĠĠĠĠĠĠĠĠĠĠĠĠĠĠĠĠĠĠĠ
Ġe mpty
s hould
le x
ter min
Ġg en
C U
â Ī
il t
g round
æ Ĺ
Bu ffer
const ants
Command Handler
lat in
__ ",<
get attr
Qu ery
[ <
_ (
Ġ" ")<
Ġre d
is instance
ĠW in
et a
Attr ibutes
Ġ" [
up load
Ġu sing
ĠW ord
Ġdir name
C R
ro gram
pa red
Ġerr no
re vision
) ")<
dat or
Ġst ep
Set Prober
ĠDist libException
âķ Ĳ
F ont
\ "
LO W
u a
use d
can onical
sp a
DE BUG
M apping
Ġw ant
Key word
er ation
ut es
Ġ{} '.
ain er
Ġc mdoptions
distribution s
E A
s atis
Ġm ath
ON S
LA CK
Ø §
Ġnot e
th umb
+ '
Ġ" :
Ġattr ibute
c mp
re pository
sc an
sc reen
DE F
Ñ Ģ
Ġre set
Ġchar s
chem y
Mix in
l strip
p ush
lo op
b ut
ww w
ĠDis able
N T
EXT ENSION
â Ľ
Ġs w
Ġuser s
Do uble
Ent ity
A ble
all back
Name s
Ġcall able
z ero
Ġi req
Ġsh ort
EC D
al y
pre vious
Ġstr ict
Ġstd err
ĠFED ERATION
In lineKeyboard
Res ource
C ertificate
wr apper
init ialize
ĠI P
lay ers
sc r
Ġ2 00
Ġkey word
{} `
av ailable
Ġplatform s
Ġde p
ðŁ İ
optim ize
w o
temp t
L ib
file obj
bl ue
split ext
request ed
image s
orig in
âĸĴâĸĴ âĸĴâĸĴ
pendenc y
Ġ ap
[: ]
] ['
U L
] |
á ħ
pre v
Ġto p
Ġs cope
T emp
iv en
dia lect
dar win
t orch
Ġ quot
st er
match Len
Ġtemp file
many linux
. %
Ġin valid
ĠDisable Able
at ures
ver y
char acter
d ay
me tric
lo pen
Platform Error
Ġpre pare
su ccess
Ġ% <
k ind
Ġw s
Ġma chine
ro ad
ip File
r ank
Ġg ot
IN T
11 8
A c
Ġvar iant
Ġfl ag
Ġ' {
im um
Ġab i
de pendencies
ĠĠĠĠĠĠĠĠĠĠĠĠĠĠĠĠĠĠĠĠĠĠĠĠĠĠĠĠĠĠĠĠ ĠĠĠĠĠĠ
sup port
w b
"] })<
h ers
Ġ' ')<
ver sed
Con straint
I ST
N ext
t ty
Ġc andidates
ma cros
Ġse nt
Auth or
path name
sp ort
pro spective
Ġparse Element
** **
2 13
Ġ( )<
pre release
re maining
Ġ( ("
Ġde pendencies
input s
Ġre moved
Ġco mbine
Ġk ernel
ab il
alle l
(" -
ĠPro b
âĸĳ âĸĳ
Ġ' "
m apper
m apping
Ġre pr
ib ling
fi re
Ġlo ss
Ġstr ide
ĠW heel
Ġuse d
âĢİðŁĵ¶ âĢİðŁĵ¶
İ âĽ
ĵ âĻ
Ġf g
Ġcontext lib
âĻ ĵâĻ
ðŁĶ´ ðŁĶµ
ðŁĮķ âĻĵâĻ
ĠCom b
İâĽ İ
ðŁĶ´ðŁĶµ ðŁĮķâĻĵâĻ
ðŁĶ´ðŁĶµðŁĮķâĻĵâĻ İâĽİ
c ip
Ġ6 0
sl ash
ï ½
Len gth
Ġne ed
fl ush
g n
N um
Ġm ore
Ġbe en
h ance
al ys
Ġin te
Ġr untime
Ġr hs
ĠS uppress
ic ip
Un known
implied TagToken
s age
Ġs chema
Do ctype
2 12
S paceCharacters
re ction
R SA
_ {
or ies
Ġ' *
count er
da pt
Ġpath name
Ġv c
L AT
f y
Ø ³
AR T
D ate
co res
alys is
Ġdist ro
p ad
col lect
Ġca ched
Ġwr ap
) *
button s
Ġf ix
Ġset tings
Ġwh en
log in
contain er
P y
re port
di alog
ce ll
no red
UN D
Ġwe ight
A SE
Ġ append
ser vice
ĠP O
FI X
ĠU nsupported
a chine
n am
n ormal
ci rc
ðŁ Ĵ
T R
in v
key words
Ġb org
insert Element
c u
f alse
ro k
H elp
check point
ĠF or
hand lers
= -
me nu
Re ad
method s
Match es
norm case
out ube
Ġwh ich
A dd
page s
As List
E B
d er
c pp
key word
save AsList
spa wn
] {
w here
ur lopen
Ġse conds
Ġma jor
play er
Ġser ialize
I M
tr ig
Ġ_ (
ok s
UN K
P K
t ension
Ġm at
Ex pression
22 4
á ĥ
Ġ kw
De bug
context manager
n ote
pro xies
G RO
ĠProb ingState
Ġo k
Ġtrans form
heb ang
Ht ml
F LAGS
g libc
Ġ1 2
frame set
033 8
TO COL
ĠDisableAble CommandHandler
á ½
ers al
Ġuser bot
Ġca st
s cale
Po licy
A ri
Ġsa velist
ĠComb ine
ĠPO INTER
ro bot
end Tag
Ġinstall er
ĠIO Error
] ),
ol ation
Ġdo main
code point
() ]<
start Tag
L ay
c f
c ustom
s im
de ps
Ġe poch
unk nown
] ["
A t
ri x
Ġinstr len
S CHE
= ",
h oto
m iddleware
æ ľ
Ġmeta var
A dapt
C losing
Ġcomp at
EX P
read er
an sport
De coder
Ñ ģ
Ġt ags
ING S
c ar
M iddleware
V ARS
al ias
ect or
Ġh andler
C FA
ĠB y
fl ag
Ari al
di ff
ĠC a
literal s
Ser ver
per cent
A A
M icrosoft
Char SetProber
Ġlink s
O ut
im al
SSL Context
Ġdoc ument
ment s
len v
sv c
virt ua
virtua lenv
S ystem
Ġ' :
RE QU
Ġchat s
Ġlast Expr
Val i
pi res
Ġ ctx
if t
Ġstr ip
az y
Ġp ublic
ĠRe g
Ġty p
cli ck
Ġ like
vi ded
at s
() ).
ang uage
vis it
Ġ` {}`
P ass
r ules
Ø ±
ĠP ath
Ġk lass
Method Type
g z
ĠĠĠĠĠĠĠĠĠĠĠĠĠĠĠĠĠĠĠĠĠĠĠĠĠĠĠĠĠĠĠĠ ĠĠĠĠĠĠĠĠ
est ed
ĠO pen
de coder
make file
Ġinit ialize
V AR
s imple
u c
str ategy
ab et
int eger
ome try
math ml
velo p
c ard
al chemy
get ter
un link
emo ji
Ġex ists
Re cursion
In st
init ial
Ġpro ber
wr it
Pre Parse
) ),
a lect
Ġs ingle
Ġb r
(" _
(" `
end s
dest ination
I FI
Ġh and
En hance
ĠN o
ank ed
Ġfinal ize
ĠEnt ry
? \
B E
s n
fo o
token izer
fe ed
(" ,
Ġcur sor
T ensor
p atcher
Ġi ss
un ce
Ġw indow
Ġoutput s
v oid
Ġre p
{} ".
AD ATA
2 14
C D
(' _
i req
ver ter
ord s
Ġ( %(
dic ate
M ult
pe at
ĠĠĠĠĠĠĠĠĠĠĠĠĠĠĠĠĠĠĠĠĠĠĠĠĠĠĠĠĠĠĠĠ ĠĠĠĠĠĠĠĠĠĠĠĠĠĠĠĠĠĠĠĠĠĠĠĠĠĠĠĠĠĠĠĠĠĠĠĠĠĠĠĠĠĠĠĠĠĠĠ
ĠĠĠĠĠĠĠĠĠĠĠĠĠĠĠĠĠĠĠĠĠĠĠĠĠĠĠĠĠĠĠĠ ĠĠĠĠĠĠĠĠĠĠ
script Data
element In
Ð »
Ġ HTML
Ġme dia
me d
p in
Ġ array
se cond
un ique
um s
âķĲ âķĲ
> (
CT YPE
CH AR
Ġpy rogram
wh ile
Ġnamespace s
Ġmatch Expr
go ing
ĠSpecifier Set
ĠparseElement List
3 00
Ġt od
iter tools
dis able
l m
u ff
path sep
te le
mark ers
Ġpy game
An alysis
d it
Ġdist s
Ġresol ve
Ù ĩ
Ġ" ðŁ
Ġarg parse
tr ace
¼ '),<
Ġp air
ĠDistutils Setup
Ġhash lib
ĠDistutilsSetup Error
Ġ Ì
nt il
ĠA s
Pro gress
PI PE
o graph
C RE
Ġ Name
de tect
ol low
th is
Ġcon flict
ĠT LS
Ġma cros
Ġrequest ed
E F
a pe
S imple
is olated
Mark er
s orted
Ġ[ ],
Ġ3 0
let ion
C ERT
P arserElement
» ï¸ı
in es
T Y
Ġa uto
Ġtr aceback
So up
A nd
Ġf s
no unce
O D
Ġ escape
ĠP ackage
Ġpro ps
ld flags
robot parser
- \
gr ad
log its
C M
Ġ{ !
Ġdata set
und le
Ġdo wn
FF FE
Sec Trust
F unc
Ġ api
Con flict
} '
se ek
Ġinst ance
E sc
Ġ utils
Ġl hs
Element Enhance
Met a
cu da
F ORM
re po
Ġs leep
Ġm d
Ġd on
Ġse cond
Ġcall PreParse
global s
pre args
call s
Ġact ual
âĹ¼ï¸ıâĹ¼ï¸ıâĹ¼ï¸ıâĹ¼ï¸ı âĹ¼ï¸ı\
C lose
ent ic
RE P
ac count
inter val
ĠZ eroOrMore
âĹ »ï¸ı
ne ss
ĠOr deredDict
Ġc c
element s
Ġcontent s
Ġsha red
j ac
Ø ´
Ġm on
comp lete
Q L
Ġal ias
Ġup load
B LACK
f a
s ame
split lines
âĸĪâĸĪ âĸĪâĸĪ
elementIn Scope
Ġ1 000
ren ces
æĹ ¥
Ġm ay
he et
max size
Ġedit able
D et
F i
á ´
con t
pro vides
Ġpro xies
ick ers
â ±
Ġ ]
in line
en abled
Ġformat s
WN ER
Ġman ifest
PRE FIX
b z
ar row
In finity
Ġcomp onent
down loaded
expand user
D uring
G O
ĠP re
pri ce
WH ITE
Ġpro p
Ġwin reg
Man ager
end QuoteChar
mo unt
Ġcr iter
During Try
A UT
i pe
se cure
Re q
build er
parame ters
( ("
Ġ' {}
AT CH
cre ated
SET T
get cwd
Char Field
1 10
c alled
PO ST
Un ion
location s
Ġhook s
2 17
Ġs ample
Ġpre serve
F rom
N I
Ġ% (
Arg ument
, ))<
Ï ī
ex ist
event s
P M
st ub
self Closing
Ġtext wrap
Lo ader
ĠDE FAULT
2 16
â ¡
Ġl ay
re cursive
de tails
vars all
Ġpos ix
ĠTemp Directory
} :
'] [
> ",
m issing
Ġz f
Ġman ager
b stract
ar cname
ro me
un its
Ġd one
RE G
ĠRe try
pack rat
C BC
Ġlo ader
ag ic
Ġde tect
ĠM A
Le vel
U S
à µ
is matches
RA G
Ġp adding
( ',
lat ten
[ \
Ġs ame
loc ator
local s
w arnings
w ise
Ġre port
ME T
process or
system Id
d uration
Ġre st
Ġin formation
Ġ1 4
Ġ@ _
ces sed
Ġauth or
Ġm igrations
ib il
ĠC O
ns fw
win term
oc ab
) "),<
: ])<
ĠĠĠĠĠĠĠĠĠĠĠĠĠĠĠĠĠĠĠĠĠĠĠĠĠĠĠĠĠĠĠĠ ĠĠĠĠĠĠĠĠĠ
==== ====
U rl
num s
Ar row
pre fer
Ġsource s
vali dation
Ġp p
Ġf etch
app ro
ĠT his
zer os
m ar
Ġf ail
__ ',
sub dir
ĠOpen SSL
W ord
ut ed
Ġopt parse
pop ul
Ġs paceCharacters
ok u
Ġtoken list
Ġ| =
Ġg ame
cre en
(?: [^
an nounce
un defined
lo y
Ġfun ction
Ġgener ate
Esc aped
ma cos
En coder
weight s
Exec Error
HA SH
m ime
(" '
te red
rp c
il de
LO G
Ġsy mbols
' }<
B e
f A
FI LE
Ġfil l
Ġax is
di ces
pre fs
Ġde vice
stream line
> ".
i ce
re strict
Ġb ound
table s
C AL
S ON
RE AD
Ġbe fore
b a
Ġr m
de t
un get
to ml
Ġsup port
A ct
Ġc or
Name State
iase s
M issing
ac ity
GRO UP
" }<
Ġdest ination
F loat
Ġ' '.
Ġb ind
E GG
b asic
re w
ĠS T
{} )
man age
Ġwork ing
: ].
S Connection
py project
TO K
MET ADATA
Ġ queue
Ch annel
mo ck
tent ion
pattern s
Ġup dated
Ġfi re
dump s
p ic
Ġt ask
Ġ5 0
ĠParse BaseException
Wr iter
S M
ĠU SER
Ġposix path
: ",
S P
pl t
w elcome
st one
Ġm ock
ent ial
find all
Ġmax Exception
esc Char
BO T
b tn
h a
u name
v as
ĠD ata
Qt Core
Ġex ception
qu are
IG NO
ograph y
E P
Ġstat ic
ch or
Ġc ustom
Ġo b
"] ),<
I CK
M ac
R C
Ġ VERSION
sg i
temp dir
50 9
" **
S dk
r ray
Ġre plied
ac ute
filename s
ĠCH AT
Dis patcher
M e
d rop
help ers
tr i
dist s
Ġbe cause
('. ')<
Ġact ive
b i
12 52
Ġso me
Le ss
ðĲ ĵ
LEN AME
satis fied
b ig
d c
w alk
Ø ¨
Ġ' $
tag Format
Ġspec ified
ĠCommand Error
) (
: ]
er ic
cl one
ĠL anguage
ern al
sv n
col lection
tag Class
ãĥ ¼
) ])<
S yntax
r ing
install ation
ĠDistutils ExecError
Ġconnect ed
pair s
acc um
EXTENSION S
Ġ round
ed ge
ile Error
av g
Cur rent
Ġre po
Ġfor ward
Ġthis Expr
. "
D D
a ctions
lib s
time stamp
Set tings
U nsupported
br anch
le ave
Ġc b
max Len
B UT
Ġ ent
Ġb oolean
config uration
Object Name
Ġm k
op f
imp l
I X
w s
ut if
ack et
Ġdi ff
Ġas cii
ma cro
CO S
part ition
utif ul
d ll
o ptional
w sgi
Ġ( _
set ObjectName
um an
ma ch
Re g
Ġad just
resh old
F ailed
b c
x link
(" [
embed ding
m svc
n ail
as List
ĠP lease
vi ces
Ġout file
Ġwh at
G ener
v ol
an aly
and ard
sy m
multip art
ĠTime out
/ %
E vent
â Ŀ
TOK EN
Ġo wner
ĠB utton
err no
Method Dispatcher
o unt
y m
Ġ Q
.. .")<
process ors
xx xx
n ative
p m
Ġre nder
Ġrun ning
Ġplay er
R aise
h i
á İ
re install
Ġs m
>{ }</
an e
el if
Ġm any
Ex c
s ur
ce i
') ),<
Un able
ĠG et
ain Window
ĠDistutils Error
ĠH ash
Ent ry
IGNO RE
b undle
it ive
ĠSe quence
b ers
Ġpattern s
esc aped
alph a
Pass word
B r
Ġt er
De codeError
ĠString IO
Ġt g
Ġset ting
Ġreg ister
Ġd river
sp an
wr iter
') [
SETT INGS
J ECT
r ary
it al
Ġm er
ĠM et
Ġan imation
h igh
con struct
se en
Ġtr ust
Ġchar acter
temporary Buffer
Adapt er
ex port
Ġs lim
Ġr fc
Do wn
PK G
I mport
def ine
ĠT ele
ĠE U
ðŁĶ´ðŁĶµðŁĮķâĻĵâĻİâĽİ ðŁĶ´ðŁĶµðŁĮķâĻĵâĻİâĽİ
Ġinte ger
h ref
re mote
', ),<
Ġr c
FF FD
sole tes
SU PPORT
ĠSyntax Error
track er
B asic
ad just
ad apter
FI LENAME
results Name
Num ber
s peed
ro ll
ing er
cur r
Ġsy m
Su ccess
f mt
Ġde coder
ĠN ode
cre t
ð ŀ
ident ity
c enter
y anked
ĠA nd
Ġin ner
table Widget
C ustom
i i
M IN
Ġf name
tr c
cur acy
SER TION
Ġ' )<
Ġmax Exc
train ed
With Offset
ParseResults WithOffset
Quot edString
ĠmaxExc Loc
S p
Ġp atch
Ġp op
attr ib
us age
... ,
oi ces
Ġword s
alw ays
M IT
] =
] }
s q
á »
Ġth umb
context lib
escape Regex
wh l
Ġup grade
Ser ializer
f actor
h our
Ġ :<
f ailed
ce dence
Re quires
RL ock
Wh ite
v ault
â ĺ
ĠC andidate
Ġst icker
Ġc li
Parse ElementEnhance
ĠOS Status
Ġfe atures
" ^
' ^
g its
Ġm apper
Out put
Ġt b
Ġp ayload
Ġg libc
ĠL egacyVersion
CC ESS
__( *
sy mbol
Ġw here
Ġco mes
ref s
Ġscript s
TE MP
l ation
m c
Ġ keep
al t
Ġcon st
Ġpro ble
limit ed
N ew
Ġs l
Ġs pace
VER BO
NO T
VERBO SE
: "
H ER
d ash
po se
Ġbl acklist
itel ist
ĠFil ters
criter ia
i con
á ¹
at t
at tempt
Ġd l
b ias
z one
ype s
Tr ace
ĠC ustom
ĠDistutils PlatformError
Results Name
} ')<
li sh
Ġd raw
ĠT h
Ġwr iter
âĶ ģ
A ss
R ect
Ġ sel
di git
bo ok
Ġsql alchemy
}) "<
pre dict
on gest
wr apped
SSL Set
se ns
ab stract
ith ub
ĠM ARK
HE EL
component Type
s ibling
or age
Ġre versed
ĠT ag
c annot
py parsing
Byte CharSetProber
u FFFD
mp t
con sole
ĠstartTag Other
E OF
G B
parse Action
test s
we ek
untime Error
[ ...,
CO M
ĠMet adata
: ")<
fo ot
am ount
=" %
LO B
LA SS
Ġmo ve
rok en
inger print
c ss
time s
Ġ4 0
ĠWin Color
P er
se n
ĠĠĠĠĠĠĠĠĠĠĠĠĠĠĠĠĠĠĠĠĠĠĠĠĠĠĠĠĠĠĠĠ ĠĠĠĠĠĠĠĠĠĠĠĠĠĠĠĠĠ
um my
que e
Ġevent s
_ )<
d m
} '<
/ ',
R ow
f time
) ;
Ġ li
Ġm s
Ġpy parsing
Named Types
Ġ? (.*
ar ity
Ġdi m
Ġmatch String
sys config
P art
t ab
ĠM apping
run ning
iv es
pp c
á ¸
â ²
ð ĳ
ers on
run ner
cre dentials
fun ctions
gener ator
ðĳ £
ç Ĥ
(" --
Ġw arning
Ġd ue
' +
Ġb s
Ġde pth
Ġun ique
Ġnew er
Ġspec ify
HTTP Error
ĠInlineKeyboard Markup
! "<
âĶ ĵ
Ent er
> ")<
C ancel
G r
k ernel
int ainer
licit Tag
Ġpo int
Range Chars
Ġbr anch
escapeRegex RangeChars
ĠMARK ER
read line
ait ama
+ -
d ropout
Ġp ickle
Ġcl one
open stack
d rive
Ġr gb
int ypes
sp atch
jac ent
b b
ST AT
Ġ Error
Ġdi ctionary
Ġe i
aitama Robot
Ġs core
Fi rst
Ġimport er
ĠL o
use s
SSL Error
class ifiers
iter keys
Distribution Analysis
5 12
S NI
av a
analy zer
h ing
str ftime
ĠC ertificate
format ter
config ure
Ġmatch ing
FI LT
. +
c le
d y
Ġ mp
Ġpath lib
iter items
Ġtri gger
ĠIP v
] ),<
Call able
ĠPy PI
tagClass Context
+ +
a wait
g in
Ġg iven
RE SH
') ]<
C I
f req
set ter
to o
meta class
Ġ" **
__ __
Ġex port
Ġout going
Ġfed eration
n od
s r
ch o
key board
NO WN
redirect s
clo ud
ĠEn vironment
Lay out
S QL
en cy
ul ar
cl us
Ġh ex
Raise s
Ġto o
Ġen tries
utable Mapping
come s
Resol ution
macos x
M o
Test s
Style Comment
Debug Action
s ig
v env
Ġb dist
Ġdi alect
Ġmark up
ECD HE
B ox
un quote
ile Header
Ġen viron
FF ileHeader
ition al
EL FFileHeader
âł Ħ
Ġtmp dir
Ġexec ute
Ġdistribution s
l ue
Ġt ail
Ġs k
ĠT he
ĠstartTag Handler
2 18
P ackage
Ġ ass
KEY S
B oolean
se quence
Ġd type
part ial
Ġlang uage
M AN
d ns
ul er
Ġstate ment
p ayload
import ed
rat io
cur dir
Ġtime stamp
bl ack
Ġmod al
D U
I s
S ource
å ħ
as n
ĠS aitamaRobot
Ġsh ell
38 4
u ator
Ġ })<
am ing
ĠS top
Ġsu do
extra ction
ĸ ¹
Ġ" &
ro t
base s
eval uate
DIRECT ORY
B B
E dit
Ġ" +
ck et
train ing
t body
ward s
Ġfe ed
v a
â ¢
sert ion
Iter ation
] ")<
Ex tension
ix ed
Timeout Error
B ER
N S
r x
t ensor
re nder
Ġlo wer
Re c
quest ion
last Expr
Ġimage s
Ġd ay
Ġk now
Ġresol ved
Ġtok list
accum Names
P age
S kip
n umpy
ith er
ĠE X
Connection Error
public Id
FORM AT
Ġopen stack
range s
Format ter
Fore ign
Ġalph abet
ðŀ ¤
res sed
"] [
d s
Ñ ĥ
Ġ arr
in Body
) "))<
n egative
di ag
un e
set Text
ust er
Di ctionary
Ġis o
rel u
b s
Parse Expression
{} '.
} '.
Ġ here
an a
is ion
Do c
Ġmodule s
V ector
d raw
ame ter
Ġf ban
ĠDE BUG
R un
e asy
h idden
Ġt or
Ġcon t
ĠC ON
user id
Ġpro vided
4 00
in ery
crement al
late st
e er
ta ch
var iant
-------- --------
mach inery
3 14
Ġc ategory
ri end
pro file
state ment
23 12
Ġfil tered
)) ),<
Not In
igr ate
igr ation
ĠComp ileError
ä º
Ġm apping
ĠC lient
ver ting
P a
S top
l g
ĠIn put
Ġinput s
metric s
g oogle
Ø ¦
un ix
De precationWarning
ĠendTag Other
prepare r
ĠL abel
col s
Ġconfig parser
r s
(' :
per m
string s
let ter
esc ri
Ġgr aph
RAG ONS
U RI
EN V
Ġapp ro
ðĿ ħ
comment s
ea utiful
g ithub
Ġsup ports
cap ital
L azy
U SE
g uess
af k
Check List
Ġse g
LA Y
termin e
REQU I
S cript
ct et
un install
ĉĉĉĉ ĉ
} /
Ð º
Ù ĥ
se par
ut ron
NA Error
CFA rray
c ut
Ø µ
ï ¾
re String
ser ial
con su
ĠW INDOWS
SA GE
CHAT S
abil ity
' d
1 000
stat es
ãĥ ³
connect ed
Doc ument
) '
å ı
Ġ Í
is olation
0000 11
ĠA d
ĠFor ward
L Y
t ies
Ġpro tocol
ĠO neOrMore
constraint s
AUT H
escri ption
\ .
ma il
Dist utils
collect or
f inish
g ate
re serve
0000 10
Ġ{} )<
Ġformat ted
av ing
á º
ê Ŀ
Ġ ERROR
Ġsa ved
Ġ"/ "
h ave
ma ster
Ġ'\ \
4 40
c ategory
r untime
', )),<
Ex tra
Ġse ns
spec ifiers
ãĥ «
File Error
Inst alled
COS MIC
= {}
S PE
t ls
22 6
B IN
D K
a e
p u
Ġ he
Ġco mmon
init CharsOrig
Ġ10 24
G CM
set ResultsName
TH RESH
box es
y es
ã ģ
Ġ 99
Ġ' ',
min Len
debug Actions
call DuringTry
EXP R
Rec CheckList
CA SE
b ad
Ġpro perty
install er
ĠRe ad
ĠR untimeError
ĠDe precationWarning
çĤ ¹
m ul
Ġan chor
multip le
ĠĠĠĠĠĠĠĠĠĠĠĠĠĠĠĠĠĠĠĠĠĠĠĠĠĠĠĠĠĠĠĠ ĠĠĠĠĠĠĠĠĠĠĠĠĠ
py py
Ġde tails
ĠDo wnload
y ear
ol lowed
mo st
back ground
Ġch oice
PRO TOCOL
B D
d w
assert Raises
Ġinstall ation
Ġcre dentials
D ESTROYER
U E
c en
re verse
un parse
Ġlo w
Ġco ding
'] )
md Help
SSL v
IL D
( ('
] ).
Ø ¹
en able
Ġs cale
AR Y
by e
Ġfe ature
Ġpublic Id
IGNORE CASE
> ",<
f latten
Ġos name
Ġd uration
ĠT ext
IN ST
ĠU N
Ġcomment s
OL D
bound ary
popul ation
2 32
Ġse cure
LE D
â£¿â£¿ â£¿â£¿
Ġcriter ion
ĠStop Iteration
Ġcon fi
ist ic
mat rix
ik i
ĠBy tes
L D
W INDOWS
b f
In dent
String IO
frame work
ĠendTag Handler
real path
sw ig
mon th
3 13
g i
Ġ entities
Ġe asy
view s
Ġag ent
l ap
ð ĸ¹
in f
up lic
do m
ac cept
LE AN
sup plied
LI MIT
Ġglobal s
Ġdown loaded
b eg
BLACK LIST
. '<
d t
l ar
m al
Ġ cell
fi c
Ġw elcome
RE N
cr it
BA CK
Ġoper ation
H AS
g win
se ed
Ġp at
ser ies
Ġse par
') :
road cast
se ctions
di ent
il ine
Ġdi rection
red uce
CON T
inner HTML
M LT
` "<
Ġc s
ĠL iteral
TIME OUT
G e
S V
Ġin spect
Ġdis abled
ĠMA X
D ash
E M
c ancel
| %
me n
Ġ2 5
ĠL oc
num eric
open ssl
)) ))<
com ma
chunk ed
Ġsum mary
M ainWindow
Ġ uri
ce eds
ing s
Ġs ort
Ġdi sc
ĠD O
Ġpro duct
Co okie
FF IX
Ġtr ack
compat ibil
M ATCH
R emo
f ban
à ¾
Ex it
MA P
Cur sor
UNK NOWN
D escription
") ):<
ad apt
to m
Ġg ood
ĠT est
with out
chunk s
icip ant
IFI ER
Ġbound ary
nod ot
h at
Ġre verse
co mb
ad o
Ġa ut
ĠN ew
Ġ'. '.
ĠS ocket
by pass
table name
ax is
wrap s
operator s
T ON
W R
d p
pred s
> '<
al o
Ġs ure
Ġfile obj
Unicode Text
LU E
mer ge
S C
} "
Â °
Ġex pression
Ġcon sole
qui et
Ġd ump
Ġmessage s
]) ))<
Ġbyte array
WAR NING
! `",<
D AT
R IGHT
Î ¸
Ġ linux
Ġret val
Ġc sv
Ġen gine
Char acter
User s
Ġar ity
egative Infinity
! ".
O neOrMore
P eer
S K
Ġp ending
as sed
ul ate
Ġ\ "
rand int
eautiful Soup
. ",
E LE
å į
Ġview s
ĠCertificate Error
. ',<
f lood
p f
de precated
ue s
ĠM odule
Ġmax loc
=[ <
âłĢâłĢ âłĢâłĢ
Ġpo ssible
Ġag ain
__ ",
if orm
Ġd y
RE C
target s
dis abled
Ġet ree
ĠCa che
] \
j ava
ï ¿
ure d
call able
ORM AL
Ġtod o
1 0000
G RE
W alker
b et
v oice
an o
backend s
Vali dator
Ġas k
Ġse em
Name space
Co mmon
par allel
Ġdf stockhisdata
Ġmo di
Ġ"> ":<
Ġconflict ing
Act ive
' [
in Table
re co
re str
Ġs ong
': '
active FormattingElements
z A
re cv
con cat
ĠD RAGONS
ĠW indow
Ġtmp l
rm tree
Position Token
ĠTele gram
[ [
b n
j is
Ġdo ctype
step s
? ")<
F un
s lice
Ġ' '))<
py c
per ties
ron g
Loc al
U sing
h ar
k ick
pro g
ENT IFIER
Ġreplace ment
/ ",
E num
P UT
á Ĩ
Ġsup press
we et
" +
Ġp k
tr im
pl ugin
alph as
Ġe very
=" )
final ize
clean up
Node s
Ġwe b
H ash
i rc
à ¹
al ar
add r
Ġme m
sh ell
AN N
example s
Ġred act
Ġs hebang
ad ow
sp inner
Ġkey board
') ):<
SU FFIX
Ġb ar
res net
CF Type
Ġvalidate Trace
NotFound Error
unch er
ĠBytes IO
Ġt ensor
Ġw intypes
file path
ma intainer
Ġen able
fed s
ident ifier
Ig nor
F LO
li d
spec ific
Ġsens or
d on
PA SS
Be fore
tr ie
Con verter
Ġtr ail
Ġhost name
builtin s
sens itive
W in
i el
ex pression
22 7
la use
Ñ Į
le m
Ġre mote
ch mod
Ġb o
quot es
TION S
THRESH OLD
A E
M ax
U se
w ers
ab out
extern al
* \
u uid
process StartTag
wh itelist
j u
Ñ ı
Ġf uture
Ġb ox
and box
Ġdi v
try Parse
check Recursion
call Pre
amp ler
File s
fun ctools
Ġnamed Items
case Tokens
fail On
Wr apper
Ass oc
callPre parse
= (<
> ).
s cores
([ ^
CO D
CO MM
connection s
F etch
Ġf ollow
li es
(" {
Ġh istory
Re ply
Ø ¶
__ ":<
ad ing
Ġb order
Ġl r
Ġcomp ress
return code
SCHE MES
C Compiler
e gr
f at
Ġ Expected
Ġb ad
En gine
gener ic
PAT TER
Ġ"' %
InlineKeyboard Button
Ù ģ
di sc
Ġthe m
col lections
check first
Pro duct
row ser
ĠWindow s
: .
ðŁ ĺ
Ġpy project
ĠV ar
L et
Y our
Ġ 90
package Name
Ġnode s
Ġnet work
ched uler
SHA RED
variable s
ĠPackage Finder
c nt
v ing
v ocab
Ġ em
get env
act ivation
En abled
Ġcre ated
plat base
TLS v
PATTER N
N ull
ver age
Re lease
10 1
patch ed
b d
g reen
mod al
Se arch
mk dir
= ":
__ ':<
Ġh ref
") ),<
frame s
Or deredDict
Ġmult iple
Install Requirement
lo gg
Ġs dk
sup ports
cro p
Ġad apter
Ġextension s
0 12
3 86
M in
S ign
de cl
ĠB uild
LE CT
ne eded
Int er
dim s
I R
[ (
ame ters
char m
ĠA PI
Ġ3 1
Ġsp inner
Ġ qu
Ġse ss
ĠB ASE
pa wn
EX EC
BO M
sertion Error
ollowed By
W ait
b order
ve c
Tr ansport
Ġd m
22 2
RE Q
Ġchar acters
ĠĠĠĠĠĠĠĠĠĠĠĠĠĠĠĠĠĠĠĠĠĠĠĠĠĠĠĠĠĠĠĠĠĠĠĠĠĠĠĠĠĠĠĠĠĠĠĠĠĠĠĠĠĠĠĠĠĠĠĠĠĠĠĠ ĠĠĠĠĠĠĠĠĠĠĠĠĠĠĠĠĠĠĠĠĠĠĠĠĠĠĠĠĠĠĠĠĠĠĠĠĠĠĠĠĠĠĠĠĠĠĠĠĠĠĠĠĠĠĠĠĠĠĠĠĠĠĠĠ
PA REN
sock s
D L
t foot
u int
en um
(' "
11 9
Ġcur Col
su bject
Ġstring s
: **
S ITE
Ġd rop
ans wers
ra ction
Ġchunk s
sw itch
Ġsw itch
ser ializer
Ġb in
ĠĠĠĠĠĠĠĠĠĠĠĠĠĠĠĠĠĠĠĠĠĠĠĠĠĠĠĠĠĠĠĠ ĠĠĠĠĠĠĠĠĠĠĠĠĠĠ
zip file
host s
node s
Ġad ded
âĶĵ âĶĵ
s quee
in ce
re name
Ġrun ner
ormalized Name
D C
di spatch
Ġbu ilt
map s
Ð° Ð
Ġcompat ible
week data
ANN EL
' re
s dk
Ġ video
Ġf actory
is ual
10 8
Ġg uess
Ġma c
bo o
({ <
" "<
E s
Ġ ct
Ġin to
ap sed
ĠC MD
Ġch ain
count s
iv ate
wheel s
ĠCon tent
resh ape
Ġm or
line ar
Ġth an
sub region
Ġsub path
2 33
S up
Ġ1 7
Ġl a
Ġparse All
Ġmin Elements
Ġindent Stack
Ġsystem Id
optim izer
ĠSU CCESS
ï¿ £
U ntil
is abs
ĠP RO
sh ift
[: :-
Ġsub RecCheckList
BU ILD
tmp l
3 00000
ê Ļ
Ġm ime
Ġex ample
per i
Ġse quence
ĠCon nection
PI P
ðĲ Ĳ
! \
C ATION
F ed
n eg
Ġb an
Ġmatch er
Ġiter ator
Ġexp and
) ')<
B F
E l
Ġco m
Ġpy asn
Ġbuild er
Ġpack aging
Z ipFile
l st
Ġ ut
ro ute
Ġpl ugin
.... ....
squee ze
F ull
[ {
f allback
en c
Re port
Ġsup plied
Loc ator
CU MENT
cont act
exist ing
) ',
â ģ
re peat
ĠB ack
ST ART
CO DE
ide o
Ġmark ers
sm usic
PRO JECT
parame ter
3 15
P ublic
re ssion
set s
Ġw orld
Ġw iki
jo b
Ġ| $
Ġorig in
Ġgener ated
3 16
al c
uff le
boo lean
g reater
Ġp lease
ex ports
Ġn eg
am d
Ġde cor
Up per
ĠZ ipFile
child ren
ĠSSL Error
S l
ile nt
bu gging
Ġme an
AR M
g if
is digit
ĠB eautifulSoup
OR S
zip importer
sup er
Base Version
SO UR
InlineKeyboard Markup
entic ation
Ge ometry
f ingerprint
g ban
t head
| (?:
Î µ
or iz
Ġst yle
out file
Ġv s
") )
Ġact ivation
P ri
h ot
o uld
T ags
W e
le arn
ex pect
ut er
set Geometry
mk path
over ride
: '
di ctions
ma inder
ĠL ay
Process ing
abstract method
SPE C
A uto
L M
} ",
ê ŀ
se cret
cl uster
Ġas List
IN SERTION
Whitespace Chars
) (.*
n ex
n ormalized
ar is
3 18
O ver
T S
ã ħ
Ġs n
Ġs ig
Ġs dist
Ġ[ [
ca y
Ġg reen
unt il
Ġfire bot
b alance
c imal
f it
à ¤
Ġre pository
ip hers
Ġe lem
su c
Ġwr it
MM MM
vc varsall
Ig nore
} ",<
Ġ( .*
ME TH
ast er
Optional NamedType
Ġtk inter
= ('
] ",
ĠP EP
Co py
assert True
F e
Ġle l
ich r
APP DATA
Ġcontain s
modi fied
Ġiss ue
a inst
an imation
Ġse e
RO OT
rel ative
Ġlocal s
Tree Builder
Net work
C ho
å ¤
con s
Ġh ow
po inter
umer ic
ten acity
nex ia
) [-
Q Rect
n ested
Ġ' ãĢ
Ġb it
(' <
Ġ1 1
)) [
eg gs
clo ser
Ġcharset s
O ptions
S ocket
de dent
um l
comp il
m time
t od
Ġp ut
ĠM achine
22 8
prefix es
> ',<
F atal
in crement
ĠĠĠĠĠĠĠĠĠĠĠĠĠĠĠĠĠĠĠĠĠĠĠĠĠĠĠĠĠĠĠĠ ĠĠĠĠĠĠĠĠĠĠĠĠ
ĠL ine
({ '
pri mary
a ut
Ġ" ",
Ġt ake
ex pires
ST ICK
ob soletes
Ġtrail ing
: :
M achine
v en
list ener
vi a
bo ot
SH ORT
ĠConfig uration
Line ar
Ġweight s
Det ail
Basic Auth
Active FormattingElements
5 00
T k
X ML
w ay
Ġr ules
Ġco uld
sc alar
ĠM ark
') )
hex digest
Ġproble m
C ert
Ġ dat
user site
log o
ise ct
LOB AL
i ou
ok e
int o
import lib
Ġe ither
ĠS O
word Chars
quote Char
body CharsOrig
Ġtmp loc
CON N
MO DU
Ġtokens Start
white Chars
Resol ver
cal c
trig ger
limited List
MODU LE
' "<
X X
m ust
cy gwin
Date Time
W A
Î ¼
Ġ 96
ĠS er
Ar ray
Install Dir
Ġfs path
3 19
] "),<
=' ',
fe rences
DO CUMENT
cond ition
stack trace
t z
Ġ ))<
Ġp hoto
Ġtime s
hash cmp
Author ization
B LUE
P ost
Ġ Tr
in dices
de lay
Ġcon trol
attr getter
user base
replace ment
Ġcount er
ĠID NAError
O M
Ġc red
ke t
la Robot
' ",
P ES
R aw
â ļ
ser ialize
All Matches
Pa rent
3 32
3 17
Z ip
p str
Ġstr g
Ġpro c
Ġ5 12
AB I
8 00
i ent
lo or
Ġc rypt
Ġun quote
AB C
argument s
Ġper missions
non ce
plot lib
Ġcookie jar
tagFormat Simple
T itle
Ö ¼'),<
Ġ lineno
Ġwith out
win reg
={ '
" }
G I
Ġin v
Ġn egative
ist ent
ĠN egativeInfinity
OS IT
OP EN
Ä ±
st orage
(' \\
Ġa m
so me
LI B
FO UND
istr ator
âĶ ĥ
Bytes IO
ĠMachine State
= ["
D lg
O pt
] '
Ġ Element
or n
ĠO WNER
J SON
] ]:<
d u
h its
me th
Ġn ormalized
ĠU se
col group
HO ST
e ager
m id
Ù Ĥ
Ġ nt
link er
DO CTYPE
ĠUnsupported Wheel
Sdk Dir
U sage
Ġ" @
Ġf allback
set item
th reshold
per missions
FF F
cre ator
Ġchar Stack
ĠR em
Ġprocess Characters
Ġper form
Ġnull able
Let ters
logg able
Â ´
Ġ" ":<
an cy
Ġint Expr
Ġca seless
work ers
Call State
N on
T A
un iform
ĠM ult
Ġpro vider
ĠN et
ast ype
={ <
card s
manage d
C ase
p ie
count ry
NO DE
trans action
ident Chars
VAL ID
C UR
Ġ' '
rom ote
Ġfile path
Ġ2 56
iter values
Ġtest s
ea ch
: `
T otal
b io
Ù Ī
Ġret Tokens
ls b
Ac ct
tele gra
ane se
U pdate
AD D
ne ed
select ed
WAR N
at in
Ġ( {
ut or
Ġse q
iltin s
D F
I f
z y
ª ï¸ı
re nc
an im
Ġp assed
li ef
ap anese
Ġ[ ('
Ġh our
Re direct
In sensitive
Pro vides
Ġad jacent
Ġro aming
âłĦ âłĦ
list s
pre tty
info s
22 3
pa use
ĠInvalid Specifier
Ġquote Char
trust ed
Ġrm tree
G reater
U RE
l p
in de
re c
al gorithm
us ing
22 9
son g
ĠK an
mem ory
ĠLay laRobot
' %
C ell
b os
d ition
l ongest
key stone
ĠUn defined
Ġstat s
Ġfl ask
Ġcor rect
cen tr
C mp
S PA
u dent
Ġ embed
Ġr and
parse String
18 0
Object Identifier
ĠSU DO
N UM
in ct
Ġu sage
pre sent
ĠM utableMapping
ree ze
UN T
Ġinit ial
So ft
Ġmer ge
7 00000
} /{
ab is
ãĥ Ī
Sh ort
âĹ»ï¸ı âĹ»ï¸ı
Insensitive Dict
h id
u do
â ³
ro y
Ġf rag
app engine
cert ificate
Ġcall smusic
oc ument
Up load
FD ATA
OP TIONS
get Chat
od ingState
et ree
20 1
author ized
Ġfl ush
Ġrel ative
odingState Machine
å Ĳ
ip her
ag ers
11 1
ĠF orm
sh ip
Ġparent s
ĠHTTP Error
MES SAGE
+- ]
beg in
L egacyVersion
S ecurity
Z eroOrMore
d n
Ġ Resource
de pendency
Ġch r
Ġtag Str
ĠPro xy
at ty
Ġget fed
"] )
Ġprocess EOF
Ġsuffix ed
! ",
g ent
Ð ´
Ġ }
ve ct
pre pared
pre trained
âĸ ªï¸ı
ek i
For ward
f k
g ers
st ickers
Ro le
3 000
g pu
t tl
LO CAL
vis ual
t or
ĠD ocument
Value Size
Ġspec ifiers
digest s
ĠUnicode DecodeError
compatibil ities
ValueSize Constraint
e rence
Û Į
an ums
str ide
([ ])<
AL LOW
Ġle g
... "<
aris on
+ =
Ï Ĩ
de cay
Ġre cursive
et f
pro perties
'] ))<
ĠT O
LE G
Ġ: :
Ġchar det
DEF INE
âĸĴâĸĴâĸĴâĸĴ âĸĴâĸĴâĸĴâĸĴ
_ <
` {
ä »
de s
Ġex e
tain er
ĠKey word
Ġdoes n
Th read
Ġbuffer ing
CI I
) +
Ġs lice
Ġb anned
is link
Ġd ropout
Ġbuild ing
ific ates
6 86
Ġ' ':<
Ġ" ").
Ġlog in
ĠPip Session
g l
h r
Ġ database
di vid
__ :<
Ġa ccess
Ġco mm
Ġuser id
Ġpre p
ĠL egacy
{} .
MA G
resol ver
Success fully
g ui
Ï Ģ
Ġ" ))<
pe er
": "
Ġ6 4
ont al
File name
ĠCon verting
Class ifier
CF Release
ĠDi rect
oriz ontal
G HT
T MP
ĉĉĉĉ ĉĉĉ
ĠParse Mode
Ġelement s
ĠR PM
Ġdecode d
ĠFil ter
Ġmat plotlib
mal loc
bos ity
5 00000
W HEEL
c lib
v g
de compress
ĠC ase
act ual
ash a
zip info
Pro gram
Ġ: ,
Ġlock ed
Cursor Position
A CT
G ui
I Z
p ickle
10 24
Ġlist AllMatches
encoding s
LI GHT
Ġsend er
Ġhand lers
) /
) '<
/ '<
G R
L INE
l hs
or ph
nt ity
il y
(' ')<
ĠM ax
istr ators
Ġadmin s
ĠBase Exception
Ġeval uate
Ġexclude Chars
criter ion
T RA
Ġ ^
Ġ à¶
ag r
DE V
work ing
Ġhttp lib
ĠSU PPORT
alw idget
nexia Bot
centr alwidget
6 00000
M aint
w orld
Ġpre pared
CK R
SE LECT
âľ ł
âģ Ħ
` \
a fe
w ind
Ø «
Ġimport ed
pr une
CK S
UT E
SC RI
Ġurl s
Loc ation
Frame set
ãĢ Ģ
ĠSe ssion
UL L
frameset OK
B anned
D on
L IN
Ġp in
Ġo ptional
id er
wh itespace
OS Error
Ġresol ver
Ġdirect ories
conflict s
divid ual
S DK
ar i
ĠS ystem
Ġdo ct
i etf
on ce
pt ime
Ġu s
Ġ[ '.
ĠA l
ðŁ ļ
sub scri
Ġj ust
Ġinsert Before
Ġcrypt ography
B ig
F inish
T oo
Ġex ceeds
ĠDistutils FileError
Ġig nored
âĢİðŁĵ¶ â¬Ľ
/ '
: (%
M oved
M ismatches
Ġself Tag
us r
Ġend QuoteChar
old ers
esc Quote
convert To
Ġident Chars
Ġcp u
velop ment
1 32
6 00
r f
Ï ģ
Ø ·
di gits
Ġma ker
ĠA bstract
space Characters
ep s
ID L
Ġ'. '
Ġz lib
]+ )\
p c
Ġo ff
un n
ĠĠĠĠĠĠĠĠĠĠĠĠĠĠĠĠĠĠĠĠĠĠĠĠĠĠĠĠĠĠĠĠ ĠĠĠĠĠĠĠĠĠĠĠĠĠĠĠĠ
Ġde que
Ch ange
Ġdefault s
ĠE gg
Set Console
ĠCon nect
play ers
clo sing
VAL UE
Add ress
Argument Parser
Ġappro pri
H ook
R em
Z a
l locator
m igrate
é »
al s
Ġ( [
Ġr a
Ġ"\ \
CS IDL
> ',
h p
ate st
project s
ĠDE V
Install ation
unpack ed
Ġchange d
Ġquot es
p adding
Ø ¯
in ing
ath er
Ġw rong
pre p
Ġpre dict
su ite
CF String
change d
ĠCase InsensitiveDict
> =
=' '):<
pol l
Ġf atal
get value
Ġpre fer
34 56
ow er
('/ ')<
! !
D J
W idth
l ask
Ñ ĩ
Ġ' âĸ
ep ar
kind s
Ġtransform s
T ABLE
t t
u fe
Ġs creen
Ġde lim
del item
Quot ed
o se
de cor
set Filter
Ġex pect
(' ',
lic able
Ġal gorithm
('. ')
conflict ing
ĠInt eger
HEAD ERS
A M
w idget
at tention
ce ph
ser v
id l
ap er
Ġ1 28
ĠĠĠĠĠĠĠĠĠĠĠĠĠĠĠĠĠĠĠĠĠĠĠĠĠĠĠĠĠĠĠĠ ĠĠĠĠĠĠĠĠĠĠĠĠĠĠĠĠĠĠĠ
Ġident ifier
SSLContext Ref
Ġleg acy
M at
q dm
u ally
y y
st e
al ert
un bound
Ġ[ %
match ing
Ġmin utes
Ġrow s
Ġtrans late
CONN ECT
J K
O per
i um
Ñ ĭ
Ø º
Ġex pires
LE TE
Ġle ave
select able
rel path
ĠAnsi Fore
thumb nail
Lazy Module
Ġ|$ )(.*
âľł âľł
: ',
A bstract
P ER
T ilde
g zip
on s
Ġp th
pro j
pre process
add ParseAction
Ġthe y
CH ANNEL
Ar gs
Empty Tag
control ler
Al gorithm
ĠAnsi Back
TY PES
Es cape
Quoted State
D raw
D ATE
L ES
N ED
h d
v ance
Ġc alc
pe ak
nam ic
P C
Ð ¼
Parse Exception
test ing
select ion
sa ved
Ġkind s
Ġascii Letters
reco gn
: ]:<
e uc
t x
Ġ' ',<
is atty
Ġ2 4
call er
Ġerr SSL
Ġ& =
Ġmult ip
Fatal Exception
(" *
Ġh ide
Ġ: **
db l
com ing
ĠPro tocol
Ġoptim izer
ĠAs sertionError
Ġsk learn
P ORT
g h
å ¾
Ġin nexiaBot
Ġb ias
key chain
10 9
ĠIn finity
Ġ'- '
leg al
ĠMark er
s hebang
u ation
Î º
ur len
Ġp ol
Ġm ismatches
and as
Ġ[ {
ma ker
RE SS
Ġlog its
ãĥ »
fr ac
ĠChar acter
Ġborder width
urlen code
L ock
\ '
l ab
Ġnum s
seg ment
ug h
Call Back
icip ants
Ġseg ment
CallBack s
. ',
N E
é ĩ
en ces
ge ometry
ild cards
AS CII
Ġ<< =
Ġter m
ano seconds
F actory
app author
res ize
ĠS ub
Re quire
ĠP os
"] ))<
Con struct
match er
ĠF rozen
ph one
cr untime
Ro Bot
(". /
ðŁİ ĩ
C ls
M usic
N e
m ut
re r
fi er
Ġa io
In clude
ĠI t
)) ):<
Lo ss
AC Y
DOWNLOAD S
eki Robot
N umeric
g id
å Ĩ
link ed
assert Select
Ġback up
anch or
Ġcolor ama
protocol s
el y
=" ",
ĠA L
ac le
Ġ{} \
IT S
Ġprefix es
Ġmult iline
go od
Ġtar file
clo sure
B LOCK
Q P
an el
un def
iz es
am l
code cs
Ġurl join
ĠN O
Ġ{} ,
PE P
Ġser vice
eval uator
TLS Protocol
asha RoBot
D ENT
G LOBAL
å Ī
Ġ" ]
(" ")<
Ġch oices
bl ank
ĠCh annel
Soft ware
V ideo
b all
} |
mp eg
di l
Ġe ach
Re ader
head s
22 0
ĠL ib
Ġloc ator
AN GO
CA CHE
ĠInvalid Requirement
Ġexp licit
Ġappropri ate
Ġre gex
Ġb tn
Ġy outube
Ġtag name
BAN NED
Ġover ride
} ]
me mo
Ġf riend
25 3
sub directory
iv ersal
Data set
Int ernal
As Int
Ġhttp s
Mult iple
LAY ERS
REC ORD
4 01
: ],
M I
W elcome
Ġs pawn
id ay
pro ps
ĠU p
index es
let ters
Or der
LS B
ĠTh read
5 37
7 00
Ġ' +
ys ql
ðŁ ĳ
egg dir
thing El
prob ers
Ġpair s
Escaped State
unn el
thingEl se
a le
u ck
ç Ķ
ser ved
pl an
Ġthe re
wr itel
ĠF ollowedBy
Ġtag Attr
rel la
Ġsdk dir
+-] ?\
DJ ANGO
g d
t up
Ġ' ;
Ġcon f
bu ilt
ĠT oken
direct ive
CK ET
IT Y
chars Until
Skip ping
FORMAT S
, )
G H
T F
X Y
é Ľ
ĠI f
Ġun install
sh adow
Ġtime d
epoch s
Ġprepare r
Ġmon th
Ġlay er
inde rella
N orm
up dated
sub s
ðŁĶ ²
Ġvariable s
ðŁİ Ĩ
Detail s
t unnel
Ġt d
lin ed
am ma
gr ay
= ="
] ])<
_ '
g gs
er c
Ġurl fetch
ac curacy
so lid
Ġchar Encoding
Ġsql types
Ġac cept
inv ite
writ ten
Auto Field
' (?
o ci
in place
pro mpt
ber t
EL LOW
std lib
tuple s
leave Whitespace
( (<
A li
A GE
O WNER
c red
j p
Ġre lief
edit ed
la zy
ĠMessage Handler
Ġmor ning
Report er
ĠKan ekiRobot
J IS
Ġs on
Ġun expected
Ġopen Tag
db api
Ġmin imum
Ġcre ating
Ġser ializer
ĠHTTP SConnection
Ġne eds
Ident ity
Ġmap s
crypt ed
Ġunit test
àµ į
ĠAd min
orph ic
C Y
O b
P hoto
] /
d temp
un ic
Ġex clus
ĠP IL
iter ator
Ġthe se
Ġnew line
ne utron
ORD ER
BUT TON
ym orphic
ĠMult i
h g
Ġre peat
co uld
__ "<
pt ure
Ġb isect
(" ".
Ġst andard
âĸ Ģ
async io
ĠType s
ĠY our
abil ities
' '<
O ID
_ %
k s
t re
Ġ VER
de tach
Ġ" "),<
Ġg o
Ġen c
Ġme tric
Ġ3 00
Ġhas her
admin s
CO MP
Ġtemp dir
Frame work
ĠCallback Query
IF Y
ĠName Error
> ):<
l xml
m icro
re p
Ġd ot
Ġen ter
Ġout files
Ġspec ific
Ġab out
non zero
STR ING
Ġserialize Element
Ñģ ÑĤ
Ġ( {})
Ġco okies
RE NT
Ġ". /
CA S
Ar r
Get opt
sm all
G TH
m agic
r gb
} _{
Ġn one
pro d
ON G
EXT RA
Ġsha pe
FED ID
BY FEDID
Ġcomponent Type
B alance
_ =
ap ply
do uble
Ġde cl
Ġto ols
ĠA uth
ĠB OT
AR CH
Ġmatch ed
ne trc
Ġper cent
SU B
Config Parser
ĠForm at
D ec
f ns
re map
di f
un patched
Ġh o
Ġde ps
Co mbine
cur rences
win inst
ne k
ðĿ ķ
â¬Ľâ¬Ľâ¬Ľâ¬Ľ â¬Ľ
æľ Ī
E val
S epar
U ID
W eb
r v
Ġ urlopen
it or
Ġt qdm
ex act
Ġs peed
Ġde sc
'] ):<
Ġal tern
initial ized
sur ro
se udo
Ġ" ==
ce dil
DE X
process EndTag
DO UT
Ġcurrent Node
Ġignore EndTag
Info Distribution
ðĿ Ĳ
Resolution Error
SOUR CE
g uild
Ġp andas
ĠC odingStateMachine
ĠS u
BA S
Ġcode s
â¬ľâ¬ľ â¬ľâ¬ľ
Child ren
Ġcs bi
Ġdiv mod
b anned
q q
r split
re initialize
col on
Ġval s
sha ke
oper ations
A I
H el
I DE
v n
ad a
(" @
qu ential
ic le
St icker
right s
R GB
S um
T abs
U CT
e qui
Ð ²
ð £
co ord
__ ):<
str s
Ġ[ ],<
ĠC Compiler
RE DIRECT
AN G
00000 5
86 01
mit ted
! ')<
/ $
t wo
Ġ( -
Ġpre tty
ĠO P
ĠF LAGS
The re
Lib rary
âĶģ âĶģ
assertRaises Regex
crit ical
F ill
h one
Ġp g
li er
Ġres name
Ġ2 1
base string
assert Regex
ush Button
HEAD ER
âķĲâķĲ âķĲâķĲ
); \
B I
F ail
T oks
m ot
s k
Ġin d
set WhitespaceChars
Ġe st
Ġres Tag
Ġd ns
ĠM ashaRoBot
20 22
Type ID
Parse Next
ĠF ound
LO GGER
Token Converter
(_ ,
stream lined
Ġle ast
Ġcheck Recursion
not Chars
Ġcurrent ly
has keys
Ġtmp Req
Ġbody Chars
Ġtar info
Ġencode d
seless Literal
sample s
MLT ags
modal Results
ĠtmpReq d
c am
ar ge
en ded
Ġ[ ]:<
Ġ8 0
play list
={ "
br acket
**** ****
Sp inner
" %
æ ķ
(" |%
Ġh idden
am mit
Ġd t
pack et
ĠA dd
ore set
Ġ5 00
Ġpost Parse
ĠBuild Environment
assertSelect s
M y
] .__
} %
no script
fil t
Ġpackage Name
DIR S
Gener ator
vol ume
B LE
s un
al ign
it ude
ro le
Ġt xt
Ġc inderella
dat er
Ġe ps
pre dicate
ĠP M
ĠA c
inal Balance
CO UNT
parent s
78 9
oo se
lect ed
Ġimp licitTag
IP v
Ġoptim ize
W arn
~ /
at ic
en ame
Ġn l
20 20
Ġ3 5
ĠF rame
CF LAGS
F n
P N
f ault
Ġ ,<
se c
er oku
Ġex ceptions
") [
23 0
arm up
REQUI RED
METH OD
B al
ch dir
ut c
set state
os x
ĠIn st
fore ign
const ant
ï½ ¥
B l
J P
c ity
ce eded
Ġb et
Ġis dir
ĠC mdHelp
"] [-
edit or
block s
Ġrecord s
ĠPRO TOCOL
D es
os h
Ġbe ing
Ġ[" --
xml rpc
ingle ByteCharSetProber
Ġac count
Trans form
Ġp print
Ġc lo
ss h
if lags
() }<
** \
Lo wer
callback s
Ġconstraint s
Ġsock s
NA MES
Ġdecor ator
0 10
V er
} -
Ï ĥ
Ġ 98
st ar
st mt
end point
Ġh uman
ĠL IGHT
12 54
EL FDATA
Ġapp lication
Int egr
Ġmethod s
Ġcert ificate
cli p
FC LASS
SCHE ME
Ġ?(.* )",
ĠLoc ation
ĠTelegram Error
) ==
B inary
T ee
c lock
f loor
s heet
t urn
Ġ que
st em
en u
Ġf ore
iz ers
ĠĠĠĠĠĠĠĠĠĠĠĠĠĠĠĠĠĠĠĠĠĠĠĠĠĠĠĠĠĠĠĠ ĠĠĠĠĠĠĠĠĠĠĠĠĠĠĠĠĠĠĠĠĠ
char Stack
lock s
ĉĉĉĉ ĉĉ
Ġscript Data
gener ated
Tree Walker
REG EX
construct ActiveFormattingElements
ĠDO CTYPE
QP ushButton
s cheduler
al tern
Ġre mainder
Ġw ho
Re ason
Ġ> >
log ical
warn s
Ġconfig uration
RA Y
OK U
Ġclose d
Open Key
Ġcell s
Ġtensor flow
ĠFrozen Set
" /
er Acct
st it
le ting
li f
il li
no logo
parse Impl
Ġtoken izer
est s
Pro perty
process SpaceCharacters
End Dialog
Ġsy mbol
Group Prober
buff ered
erAcct Bal
A fter
d ummy
p ub
æ Ī
ro ke
fi fo
Ġ'/ ')<
Iter able
Mult i
WR ITE
__ ('
Ġlo ok
code name
mo re
dist ance
ĠF ore
ST DOUT
Ġ{} )
ĠH e
regex p
Part icipant
) }\
) ;<
R a
f ri
p id
di rection
Ġret Toks
Ġn ormal
get state
Ġ1 8
ĠS ec
10 40
fix t
Ġcheck point
Ġ"- ":<
ĠHTTP S
resol ution
diff erence
â °
ð ¥
ð ¦
Ġ âĢ¢
Ġ" â
pro c
xF FA
inter face
000 10
Ùħ Ùħ
KEY WORD
ðĲ ĳ
FIEL D
Import er
ELE MENT
Ġbo ard
, %
d ays
r il
co ords
__ "):<
lib name
Ġpro b
cmd class
Ġpl ot
inter p
okup Error
ĠSSL Context
finish ed
b old
sh are
prefix len
ID ENTIFIER
cro ss
Test Case
quot ed
confi rm
FILT ERS
Ġevery thing
PASS WORD
$ ')<
* .
e am
k p
Ġin line
il on
() :
Ġde bugging
22 1
22 5
Ġkey ring
ĠF lask
Ġtime delta
Ġpar ameters
Ġdb api
C MD
P r
[ _
b at
t le
Ã ¡
in c
le ader
all p
Ġa udio
ĠP er
Ġy ear
Ġset type
read able
12 7
Ġth row
cre ating
Ġarch es
âķ ±
fs path
S heet
S creen
s NotIn
al ive
Ġ1 3
ĠC heck
12 51
sh ot
method caller
UN I
change log
Ġmulti path
ĠChar sNotIn
Ġdep ends
' ll
O ctet
S cheme
m or
} .",<
lo gs
Ġg ui
build ing
AR GET
err SSL
ra di
He ight
=[ ]<
Ġclose Tag
Retry CallState
App lication
ĠProtocol Error
' }
+ )
c compiler
v es
me di
RE SET
ĠL og
Ġdefault dict
tag Str
print ables
Ġabs path
Ġinter pre
Ġvc varsall
GRE EN
D HE
J ar
P H
Ġ END
ur al
Ġpro cessed
") ]<
DE LETE
âĢ Ļ
Request Exception
Qt Widgets
âĸĳâĸĳ âĸĳâĸĳ
cip hers
Ġdns names
P T
r ule
Ġ" !
In dividual
0000 000
)) ]<
Ġ[' /
dest roy
Ġjoin ed
Ġsuccess fully
crypt ography
SPA CE
âĸªï¸ı âĸªï¸ı
Require d
Î ·
re ward
Ġ" )
Ġp list
str ate
to bool
ĠD IS
not es
cr t
CF Data
}) >".
web p
Code point
Temp late
ðŁİĨ ðŁİĩ
W ork
Ġp erson
Ġs imple
Ġo c
app ers
Ġh it
Ġcon struct
RE MENT
Ġal iases
LO P
Ġcan vas
Ġsu ch
Ġ'/ '
ITE M
Ġ[] ).
raise d
uplic ate
M em
P LAT
S how
V S
ä ½
Ġb its
Ġpath list
act ivate
pen dent
Ġen abled
12 50
ang er
ĠIn cremental
cmd help
ĠstartTag Table
Comp onent
Ġsign ed
âĿ Į
DateTime Field
? "<
N L
h ard
r arr
re constructActiveFormattingElements
ur ator
ðŁ ¤
python path
13 5
ak es
Version Error
HTTP Connection
ĠĠĠĠĠĠĠĠĠĠĠĠĠĠĠĠĠĠĠĠĠĠĠĠĠĠĠĠĠĠĠĠĠĠĠĠĠĠĠĠĠĠĠĠĠĠĠĠĠĠĠĠĠĠĠĠĠĠĠĠĠĠĠĠ ĠĠĠĠĠĠĠĠĠĠĠĠĠĠĠĠĠĠĠĠĠĠĠĠĠĠĠĠĠĠĠ
trie ve
* ')<
. ]+
A gent
F x
æ Ń
ê ľ
Ġ Ù
Ġ 95
Ġ under
re load
pe m
Ġstr tobool
Ġd n
Th an
product s
Ġoper ations
Ġfix ed
t w
in str
an ded
Ġc ase
set Style
Ġa mount
Ġma cos
op Expr
EL IST
struct ures
Ġar cname
embedding s
? [
e ch
u ch
en ium
Ġo d
am ily
Ġget mode
Ġurl unparse
ĠA r
ME M
De v
Ġ". ".
Ġfil t
vali dator
Console Output
hour s
Run ning
W EL
] :
c as
e ck
e men
en ance
res ume
CH A
session s
tmp dir
, (
C LEAN
Q Label
S core
Ġst mt
fig ure
Ch unk
Val id
State ment
Ġsub class
net mask
â¬Ľâ¬Ľ â¬Ľ
Ġid na
cei ved
Ġdisc ord
LIN K
setStyle Sheet
H KEY
J apanese
P ip
S uppress
] "
k r
å ĩ
get files
Ġm is
yst emen
Ġpar allel
Ġcount ry
ĠInvalid Version
Ġtrain ing
renc y
getfiles ystemen
getfilesystemen coding
G A
b org
h uman
w ays
å ·
Ġ' ').
Ġc f
Ġw ind
ag ainst
pro cessed
12 4
20 10
http lib
IT ELIST
ĠR ange
=[ ],<
ĠLO G
percent age
$ ',
, -
B atch
C LASS
s ol
Ġp ats
th n
Ġas n
xF AB
Ġk ick
xA BA
00000 3
pp ed
finit e
HO ME
Ġconst ants
Individual Specifier
G T
V ES
e rent
| \
re at
nt h
Ġs can
Ġs cores
ok iel
ack er
im er
fix ers
** ")<
xy z
En codeError
HTTP SConnection
Ġunicode data
Retry Error
gin i
okiel ib
] ))
f ast
Î ±
Î ²
Î ³
Ġu id
Ġattr Value
Wh at
Ġmark down
Ġpri vate
ĠZ ip
alo ader
F ragment
el low
11 2
Ġopt Elements
HTTP Server
Ġwheel s
prec ision
Ġstream line
Remo ving
ĠMax RetryError
memo ized
P LAYERS
V ED
ue st
Ġs atis
str i
Ġg t
ĠW ork
86 6
RO M
std in
Ġlay ers
CONT ENT
ĠRem ote
â ī
Ġf older
di ction
un supported
). ",<
Ġe ggs
ca seless
sub set
lay out
skip ping
sql ite
Ġ`{}` ".
Ġsel enium
Fun ction
Ġlo op
ĠP ost
Ġg oogle
ĠM y
Ġca use
Ġ{} "<
Ġhash ed
rel ation
(', ')<
Custom Filters
INST AL
/ {}
S quare
m igrations
Ġ à´
Ġp ur
code c
ĠM atch
') ))<
Ġal ways
ĠSocket Error
Y ELLOW
h int
k es
ç Ľ
in ate
ĠS imple
ĠP age
init ializer
Di gest
src dir
pi pe
child Nodes
ĠSt ream
ĠQt Gui
dep loy
BACK END
? ",<
T EST
b roadcast
h y
al iases
str ptime
pl ain
Ġde termine
Ġl iteral
dist info
Ġma cro
read lines
ĠW AR
Ġreg istry
ï¼ Į
}` \
ECD SA
Ġconfi dence
decl are
Construct ed
9 00
O B
a u
b zip
c data
g iven
t ell
Î »
ch es
el apsed
ser vices
get opt
ĠS ingleByteCharSetProber
Ġde leted
Ġresult list
Ġmax split
we en
ĠH AS
Ġnon ce
Process or
Ġred uce
Ġwrap s
$ ")<
C lause
F T
M ONS
f raction
i di
in s
Ġs an
from keys
Ġr pm
ĠĠĠĠĠĠĠĠĠĠĠĠĠĠĠĠĠĠĠĠĠĠĠĠĠĠĠĠĠĠĠĠ ĠĠĠĠĠĠĠĠĠĠĠĠĠĠĠĠĠĠ
form s
ĠC lose
Ġ2 8
ĠM S
Ġkey store
Ġ(' .
find iter
SE CRE
ou gh
ref resh
Ġcache able
Ġcre ator
trans pose
Pre vious
Ġexec ution
any thingElse
RI BUT
Ġstop On
ĠSe arch
Vali dation
From Table
SUPPORT ED
ĠRead TimeoutError
Dash State
Cookie Jar
OSIT ORY
' ve
D RI
j s
æ ĸ
il ar
Ġpro mpt
11 6
build s
num bers
ak ref
ĠParse d
ces ses
ĠCommand Info
CA DE
HTML Elements
)} :</
pol ymorphic
LEN GTH
Ignor ing
B RA
s quare
ä ¹
ro id
Ġu uid
Ġlo cale
() ]
Ġde pendency
mo use
Ġ"< /
build ers
ree Builder
Ser vice
REP OSITORY
Ġpoint s
DAT AB
ðŁĶ² ðŁĶ²
m usic
re ference
re versed
en ate
art ist
mm utable
Ġpre cedence
ix el
DI S
ENT A
Ġ"{ "
Ġwe re
OL VES
ĠNet work
$ "))<
M igration
w f
one s
00 1
Ġ) ),<
Ġcode c
annot ations
ĠHTTP Response
now led
Ġsite dirs
âĢİðŁĵ¶âĢİðŁĵ¶ âĢİðŁĵ¶âĢİðŁĵ¶
Ġfail ure
Moved Items
! --
L egacy
y ield
Ġ ge
Ġf h
ho p
dist inct
Str ict
15 0
Ġz ero
trans fer
thread s
canonical ize
ĠDIS ABLE
+ )\
H ome
I MP
c python
g cc
i ces
m n
p at
u k
y outube
Ġin compatibilities
ma o
Ġd ays
Ġpro vide
L F
w t
Ġ answer
st age
Ġ" }"<
ch oices
el c
Ġ< /
Ġm one
Ġen coder
11 4
ĠI g
34 5
... ')<
ĠĠĠĠĠĠĠĠĠĠĠĠĠĠĠĠĠĠĠĠĠĠĠĠĠĠĠĠĠĠĠĠĠĠĠĠĠĠĠĠĠĠĠĠĠĠĠĠĠĠĠĠĠĠĠĠĠĠĠĠĠĠĠĠ ĠĠĠĠĠĠĠĠĠĠĠĠĠĠĠĠĠĠĠ
sent ence
SECRE T
L ong
å Ĭ
in ception
me ss
Ġ" ["
ser vers
is y
min utes
20 21
default Value
ĠVersion Conflict
ir th
ĠVar iable
i key
· '),<
Î ¶
de cimal
Ġ' ))<
Ġc py
pre Parse
py o
Ġde limitedList
Ġtoken Map
match White
Ġdo uble
19 2
Ġmax Matches
Expr s
Text For
Ġexpr tokens
Ġnext Loc
Ġnext Level
Ġtmp Opt
can ParseNext
Ġmake Optional
Ġbody chars
Ġinit Chars
keep Tabs
fail Action
Line End
ĠPip Error
======== ========
Syntax Exception
consu me
FLO OD
ĠnamedItems Only
Ġdoct ag
convertTo Float
CAS CADE
Ġthrow Exception
ĠnextLevel Indent
ĠmakeOptional List
8 000001
> ')<
k ar
ê ļ
ģ '),<
Ġre strict
__ '
ab lo
qu o
list en
Ġ4 00
Pro file
Ġiter items
ãĥ İ
Invalid ELFFileHeader
ĠInvalid Header
TE CT
pypi rc
Oper ation
m ing
u ction
in ux
en coder
ĠC FA
ca de
ĠM igration
fix ed
ly ph
exec ution
Ġne trc
resh ness
fail ures
Wr ite
Ġlong er
( {}
D G
n ers
li s
Ġse ctions
cur ity
var i
can vas
Pre pare
color s
Ro ot
ĠÐ ²
Download ing
Ġwrit ing
I AN
O ne
T ools
c m
g pg
i rror
st roke
ex change
as gi
ce ed
Ġh igh
append Child
bot tom
Ġit s
ĠN AME
mb cs
Ġcode name
Ġfun ctions
ĠDistribution NotFound
Ġro t
Ġ?(.* )"))<
ĠElement Tree
Ï ĩ
__ '):<
il ing
Re cord
comp ute
Ġpro g
char ref
op le
Ġcol umns
mb ed
Ġtest ing
ĠG ood
ne eds
IG ERS
Ġtod ay
sq rt
Per missions
3 50
â ı
ro ss
ve red
Tr i
Re LU
Key chain
ph ot
tag Set
select or
TR AN
âĸĪâĸĪâĸĪâĸĪ âĸĪâĸĪâĸĪâĸĪ
ĠCache Control
M is
p n
Ġ license
de precation
li g
Ġw ildcards
app s
ic ense
match ed
DE TECT
{} *
LI ENT
RA W
Ġchunk ed
ĠendTag Table
Call er
Al t
ĠCF String
Hook Caller
S ome
U UID
Ġ ans
de leted
pre dictions
() }
Ġun set
Ġun ichr
gr ave
quot edString
PA CK
}. {
oper ation
iase d
) ',<
N ORMAL
c xx
l and
Ã ³
å ĭ
er ase
Ġin c
Ġe q
Ġse d
EN COD
pa ste
ele ction
('. ',
gb anned
Par sing
SecTrust Result
MAN Y
I CE
T U
Ġdi d
to ur
ew alker
ting Element
]) ):<
doc info
Col group
Ca ption
Ġfn match
Ġselect ed
ĠFile NotFoundError
ĠEx tension
System Identifier
scriptData Double
Progress Bar
.+ ?
Cmp Key
Ra dio
ril lic
/ <
M ath
R AT
p x
Ġp ing
Ġin correct
(' ;
url split
em it
Ġset Up
Ġmax size
SSL Get
encode d
Ġut s
+ \
C P
N ET
_ (<
Ġ Trans
er a
Ġin tern
Ġreturn ed
py ver
IN AL
cmd s
inter section
IO Error
Ùħ ØŃ
Ġoperator s
ĉĉĉĉĉĉĉĉ ĉ
cause s
ĠTo ml
PYTHON PATH
Br acket
"^ \
Ġmem ory
OPEN SSL
b ro
l ag
n v
æ ł
st andard
or dered
en ums
Ġt x
Ġf d
di ctionary
Ġw ould
am mar
('/ ')
ĠUnicode Error
Wheel Filename
CR T
New Message
FILT ER
anim ate
0 40
S ingle
g m
Ġf mt
Ġdef ine
tr unc
ip s
Ġh i
Ġv cruntime
Do main
lat es
Size Policy
Ð½ Ð¸
heb rew
MATCH ER
NUM BER
BAS EN
* '<
C JP
k TLSProtocol
re wards
Ġb asic
(" __
SSL Protocol
charset prober
ĠEU CKR
STAT US
Distutils Error
012 3456
Over ride
Fill ConsoleOutput
I con
O FF
v v
de termine
(" ",
Ġr ank
ver bosity
ĠS CHE
Ġcl asses
Ġcomp iled
Table Widget
COM MENT
phot os
/ "<
H andle
I AL
] ],
n l
ad ded
Ġa cc
ist ered
ĠM eta
12 5
Ġme mbers
") ))<
64 7
Ġ4 1
Ġpy version
FI LES
ĠParse FatalException
Chars NotIn
Ġz one
Ġignore Expr
patch es
long opt
("/ ",
roll back
recogn ized
illi seconds
L ast
c up
or ry
Ġf ace
Ġs ol
ab iflags
file no
Ġa mt
Tr ain
py plot
[' __
ĠO n
Type Error
ãĥ Ń
Ġread ing
Option Parser
Foreign Key
f x
h older
r path
Ġn est
"] ',
loc s
ĠM e
token Map
Ġsh lex
fed log
df weekdata
Ġglob ally
RC Command
adapt ers
Ġfollow ing
ĠInst alled
ĠWAR N
: ')<
p ers
è ½
Ġ" |
ch al
qu ant
Ġlevel s
cla red
Ġchild ren
VC InstallDir
Ġpad ded
ĠDirect Url
RAT IO
ĠSCHE ME
H ex
x z
x path
y td
al ready
Ġp hone
lo cale
str ap
dat ing
Ġis file
ĠT able
11 35
ang ing
EN ER
CH UNK
Lo op
ci r
ĠStr ict
CFA llocator
tele gram
Ġdetect or
Alt Name
" ',
V isual
Z IP
m ro
n sp
à ½
ĳ '),<
ar ator
ex pon
Ġe agers
Ġse c
module Or
Token izer
Ġinfo s
Request Error
Ùħ ÙĬ
Ġskip ped
(". ",
ï½ ¡
ðĿħ ¥
moduleOr Req
, ),
s andbox
Ġ' âĪ
ar s
ed ata
Ġco st
ig nored
Ġl arge
group dict
ĠRe quires
Ġcol lection
iv ity
send Message
Ġbot h
scri be
ĠDe fault
prob s
Could n
ĠDESTROYER bot
ĠCOSMIC bot
ãħ ¤
compil ers
ĠFormat Control
âķ± âķ±
0123456 789
' ',
8 40
B old
b roken
Î ´
Ï ħ
ç ¥
um ask
0000 16
12 0
Ġattr name
ĠCon text
Ġdel ta
ĠstartTag Html
extract ed
the ta
subtype Spec
A b
B Z
[ %
b eta
e i
re trieve
res iz
os cript
Ġv endor
IN DEX
ĠA N
EN ABLE
Ġspec ification
Ġinfo setFilter
Group s
DIST RIBUT
MS G
car on
tagFormat Constructed
SUFFIX ES
Cho ice
' '.
R U
t tf
Ġc ap
li p
Ġu b
Ġu ow
pre cedence
Ġpy compile
Ġiter values
ĠG N
ign ed
Ġso ft
sign ature
appro x
Less Than
ĠSer ver
Ġson gs
0 39
h ist
w ant
Ġ" ,<
Ġre ader
Ġt l
Ġb ook
Ġl atest
20 19
ac r
ĠN ORMAL
su cc
Ġ". "
77 7
Header Dict
Î ½
in formation
Ġre c
ing Set
Ġnot done
opt group
ĠN ull
)) )
ong o
cy cle
Ġtele thn
Ġback ground
ĠInvalid WheelFilename
separ ated
STICK ER
Ġcomm it
ðŁļ ĥ
surro gate
ENCOD ING
A G
b reak
o ssible
s ync
in Head
de tail
Ġdef ined
Ġc at
app licable
ĠP ep
out name
ĠA R
req ts
ĠB oolean
ree k
ele m
ĠHTTP Connection
AS ES
Ġframe set
INTER PRE
STR UCT
Open State
Iter ator
ĠCom ment
Right Arrow
Ġiss ub
Foreign Attributes
Sign State
LessThan SignState
E U
M ock
S a
b on
j k
y cle
å ¹
Ġ emoji
on ic
Ġ' ?
tr ansport
py malloc
loc ate
Ġend point
skip ped
Ac cept
Ġpk gs
INTERPRE TER
k v
p romote
Ø ²
ur o
ut ing
url fetch
ag ate
len dar
Ġe qual
Ex ists
AN CE
Col lect
Get TypeID
Ġinter p
original Phase
Pool Error
GO O
ĠHash es
COMM AND
ĠSO CKS
Ġwind ll
F REQ
M Y
S chema
in et
Ġ' â
Ġp ower
Ġp ablo
Ġin place
up dates
url join
ay ment
Ġpre c
ĠW HEEL
ĠG B
Comp arison
record s
ker as
ĠSt art
Mix ed
Ġmulti ply
modi fier
sn ap
DISTRIBUT ION
( ~
Ã §
Ġ" ~
(' __
attr Name
() ])<
11 5
cess ing
ta ke
20 14
ME DI
USER NAME
Ġnamed tuple
gra dient
CF Dictionary
IP V
IF EST
same file
) (*
Ð ·
è ¯
Ġ RLock
Ġp ipe
ct ime
ce il
Tr av
able String
loc n
ac ing
ĠType Var
Par ameter
Ġmention s
Ġdiff erent
Ġexclus ions
ĠStrict Version
+ ',
B ad
N ormalizedName
a isy
b ul
f ake
g a
p ull
re m
Ġm ar
un squeeze
Ġ[ _
Ġ[ ])
ĠC SV
ON LY
Ġkey words
by ref
Ġsh uffle
ĠDistutils Arg
PI CAL
Ġsize Policy
('/ ',
â¬ľâ¬ľ â¬ľ
TY PICAL
Validation Error
ĠDistutilsArg Error
) }<
] '<
u v
re qu
el f
Ġm time
un seen
pre f
Ġme th
ac er
lock ed
Ġiter keys
Ġadd r
âľ ħ
REQU EST
ĠST ART
ĠCustom Filters
Big AutoField
Ġ|$)(.* )",
UNI CODE
D ot
S ESSION
p ot
Ġf ig
un split
set Font
bu cket
[" _
Ġtry ing
Ġ2 24
Ġl mao
ty p
Ġbase s
Ġmax len
Ġcomp letion
copy right
Ġformat ter
Ġpri ce
tg calls
("- ",
Ġgreen let
C irc
M UTE
` .
r u
ry ption
10 2
12 3
AT ED
ĠW OLVES
ĠUn install
LI C
CON F
dd d
ĠDE MONS
Windows SdkDir
writ ing
Ġsl ots
boot strap
Ġhour s
\ *
n x
Ñ Ī
Ġ" "
an on
ot onic
get size
url y
is ol
pre ference
out dated
Ġpre sent
11 28
check ed
la uncher
LE FT
AD MIN
iterable s
âĹ¼ï¸ıâĹ¼ï¸ıâĹ¼ï¸ıâĹ¼ï¸ı âĹ¼ï¸ı
{}) ".
BIN ARY
BRA CKET
I LS
n ight
Ï Ī
å ®
ur istic
Ġn path
Ġm ost
(" ;
po licy
ĠS up
Ġl ater
St d
check out
tp u
Ġsub strate
chunk Offset
Call back
ĠLink Error
ear ly
Process Error
('- ',
Ġsw ig
____ ____
Ġmodi fied
Product Name
peri od
tod ay
erc ions
DRI VE
. '
B lue
C UT
F older
m icrosoft
Ġ' |
Ġ' ['
al ity
Ġre ward
all files
Ġas Keyword
back up
Ġx range
err ing
Ġform s
first Match
Equal s
Ġchannel s
pk cs
Ġalph a
ĠInt ernal
Installation Candidate
" (
8 74
É Ļ
Ġ' ^
ur se
qu ences
ĠP AT
init Chars
ĠA fter
ĠF ROM
HT M
Ġcol s
55 5
local host
Ġat t
dataset s
Count Equal
\" "
Inst ance
é» ĳ
Multiple Match
Trav ersal
firstMatch Char
1 00000
S pace
] ',
h ide
Ë ĺ
à ¨
å ¼
Ĥ '),<
ķ '),<
er red
Ġf lood
', )<
Ġn ight
dir path
int osh
Ġh eroku
ig u
ĠP hase
xF AD
10 80
Ġg ive
12 55
ĠI S
)) ).
spec ial
Pre dicate
Ġright s
Quot es
bz r
ï¾ Ł
CY AN
Prepare r
m g
} &
} ').
Ġ 97
de letion
Ġm ixed
set Item
ĠC re
RE MO
Ġkey stone
ĠN ormalizedName
De lete
vert ices
rag ged
Spec ify
ĠDi rectory
Auth entication
eof s
Check ing
ĠFED S
Ġref erring
\" %
Ġ': '
vect or
ALLOW ED
Ali gn
' -
B RE
M IME
X DG
z il
Ġ Value
Ġ via
un ion
url unparse
res pon
Ġst ark
RE S
ĠB LOCK
ĠF inalBalance
Ġan other
ĠCo unt
Ġstat es
real m
byte code
ĠInput State
Fe atures
} ](
Ñ Ĩ
Ġst ick
ic s
Ġme nu
Ġ'. '<
99 9
ĠCo ords
Ġtarget s
EE B
ĠCO M
Ġmk path
CUR RENT
G BAN
T ARGET
] ],<
a ug
s ider
Î ¿
Ï Ħ
le arning
list ing
10 5
ĠT IGERS
Ġse ek
ĠIn dex
âĸ Ħ
DO T
Data Frame
insert Text
(?: %(
COL OR
ðŁĶµ ðŁĶµ
ï¾ ī
ĠIg nored
N oscript
T ool
V ert
g re
g an
s ince
Î ¾
Ġre ct
Ġn ested
Ġb f
do ct
Ex p
In s
AT OR
Ġout name
Co m
33 3
default Namespace
Ġ4 04
Imp lied
End Tags
Se quential
Ġprocess SpaceCharacters
ascii Upper
[^ \
Ġns match
idden Text
Ġtree Type
Ġpe ople
stub s
prefer red
Current Token
Ġmany linux
disc ard
solid us
Implied EndTags
L PAREN
O LS
] [-
class ifier
ff ff
bl it
ret ch
Pre ferences
Ġpe er
Ġcriter ia
Ġqueue s
concat enate
cons istent
Octet String
M utable
M agic
Q Font
se curity
in ject
de pendent
ro ugh
Ġh its
__( **
() :]<
Ġattr Name
ĠG ot
EL FCLASS
Ġconfig ure
ĠH A
): ]<
]+ ))
Ġ'_ ')<
clause s
Ġbl ank
ĠRequest s
BY TE
ĠEX T
LEG ACY
fri ca
WEL CO
Ġissub class
" [{
D river
W OR
h k
m ag
m ysql
me mes
ut ures
str g
Error s
if o
ĠS o
sp am
comp any
Ġpro v
Ġch rome
admin istrator
ĠG ener
ren gth
"\ \
Ġap ply
Ġ(.* )",
BasicAuth Handler
Rem oved
A SS
B M
B UND
E nc
G IN
S m
T ar
p ur
} ({
se mi
st udent
Ġre present
Ġc iphers
Ġm iddle
(" =
pro vided
comp letion
Ġnum bers
Ġpar ameter
Ġ'/ '<
Ġlib dir
tri angle
uplic ates
ADD R
Ob soletes
) {
A U
C iphers
I mportError
M enu
y aml
de ep
de lim
Ġn sp
get frame
(" ["
Ġr kp
ĠP K
cs idl
Ġ7 0
... `")<
(". "):<
Method s
Ġpred s
SK IP
Inter face
Ġsettype blacklist
A MP
C ipher
N ONE
P air
Q TableWidget
Ġ qual
re start
Ġ" ).
Ġt urn
ut down
ad or
Ġm apped
(" **
url patterns
do es
to list
12 57
Ġpy pi
Ġ) :
Ġcode point
Button s
editable s
Ġcli ck
REQUI REMENT
plan es
T ele
\ ((
r aries
å Į
Ġp m
Ġb box
Ġ"\ "
ĠC ode
Ġkey file
ĠF ed
ore an
spec ified
compile d
db m
CT W
Ġ[' -
To Re
Install ationError
Sec Certificate
Sec Keychain
show warning
raise s
ĠImage Font
ĠUnicode EncodeError
Ġident ity
conf str
Console Screen
Buffer Info
ĠEU CTW
rot li
dw CursorPosition
ĠNew ConnectionError
PH AN
ConsoleScreen BufferInfo
' ãĢ
7 0000
K e
M ake
U B
h es
i os
t ick
â ŀ
å »
id na
(" :
Ġ* {}*
vi e
Ġv oid
ĠU FD
Ġth reshold
)) ?
client s
Ġjson ify
ãĤ ¤
fail ure
named tuple
Remo ve
EXTRA S
Sum mary
lif etime
doct ests
E gg
d ark
e ue
k CFType
ar ative
co ver
__ ))<
Ġc ar
Ġc losing
qu ad
Re cursive
Ġget Logger
Ġv ol
Ġma ster
split drive
ĠB e
". /
HTTP S
dis position
Ġfin ish
\\ ]|
Ġlookup Encoding
push button
Py PI
gz tar
Password Validator
plugin s
3000 3
Ġaio http
ĠCallbackQuery Handler
PHAN UM
. `")<
C mdHelp
O perator
i loc
z lib
Ð Ķ
out er
20 3
âĸ ĵ
Set ting
Un defined
mk dtemp
WS GI
Ġip address
IST ORY
Gr ammar
Ġla uncher
unic ate
ĠNetwork ConnectionError
ĠCOM MENT
) ._
2 64
L ines
M on
b slash
k ref
p item
y ou
Ġ QuotedString
in x
ro pped
Ġf reshness
pe ater
up caseTokens
un ban
Ġw kref
Error Stop
ase pitem
Ġco okielib
string loc
Ġl azy
Name List
ash Comment
dict value
sh i
HT MLTags
Ġnew self
Ġmatch Order
op Assoc
Ġmax Mismatches
LE ntity
Ġend loc
Token ToRe
Ġan ame
FA IL
ĠParse SyntaxException
ĠUn authorized
Ġcall DuringTry
Ġstring End
Ġstring Start
post release
body Chars
skip Ignor
Ġup dater
comm asepitem
Ġtmp tokens
Bu iltins
\\ (?:[^
Match ed
ĠV isual
Ġper mitted
As Str
Ġconvert To
Whitespace Escape
Ġcv t
web driver
ĠBad Command
dep ends
Arg Builtins
Ġcontain er
Ġoriginal TextFor
Stream Handler
Ġexprs Found
single Char
cmp key
ĠCa selessLiteral
Ġsingle ArgBuiltins
CFType Ref
Sl ashComment
|(?: \\(?:[^
pie ce
Ġleave Whitespace
ĠtagAttr Value
Fail ure
Statement Expr
ĠMatch First
HTM LEntity
zil la
]+)) )*
\\]| (?:
Grammar Exception
TokenToRe peater
skipIgnor ables
WhitespaceEscape s
' (\
* $",
F M
e verse
p d
r r
æ ī
Ġ ),
Ġt gt
Ġn args
et ags
for med
zip import
Ġ5 6
Ġare a
Ġ"' ":<
UR ATION
Code c
Det ector
appro ve
Fed eration
everse en
L icense
s ampler
str ong
con tinue
Ġlo aded
Ġor dered
add Widget
Ġv ault
Ġ"< ",
ĠIn secure
ey e
Version String
Ġpy ver
comm unicate
Ġdf weekdata
Cre ating
multip lier
ðŁĶ´ ðŁĶ´
cookie jar
Lib raries
Lay er
Me dia
ĠConnection Error
Maint enance
aisy X
> [
S Y
e led
h orizontal
Ġ !
ro py
Ġt wo
ad vance
Ġco mb
() [-
out files
time delta
ĠB UT
state file
alled ProcessError
ĠH t
Ġ"% (
Ġat tention
ãĤ ¯
SU DO
Ġbl ue
Ġip v
Ġsepar ator
Ġproduct dir
"} :<
å¾ ®
Integr ation
Radio button
C LIENT
Y es
k oi
p w
me ns
Ġt ile
Ġt ho
Ġm ute
ĠP ool
min al
ans i
Ġon error
sl ug
Not Regex
Ġser ial
Match ing
Ġad apt
sign ed
pk gs
Sequence Of
ĠCON FIG
Ġmetric s
Tri angle
% \
2 80
2 000
3 0000
5 000001
t i
á ĩ
in ations
st re
st rength
Ġ' @
Ġ' [
ar win
Ġ" ;
Ġt s
co vered
Ġco re
ĠS cript
Ġd er
10 7
=' ')<
ĠN OT
00000 2
assert Is
xFC D
xFC E
xFA C
xFD B
PP RESS
}) ".
ĠInvalid URL
fetch all
ĠJ SON
AF K
Ġphase s
ĠIN ST
Ġass oci
mor sel
WELCO ME
" ".
H i
H ost
S upported
Ġ virtualenv
Ġre m
Ġre init
Ġ( ))<
di stribut
po ols
ĠP ar
fix er
17 0
âĸ ½
Ġresource s
Ġwarn ed
unit test
Ġleft most
Ġalph anums
ĠWheel Cache
C ESS
o in
å ľ
Ġ Queue
le f
Ġ" ")
Ġp w
get root
is lice
ĠC an
tern al
Ġl ongest
Ġdist ance
sub path
Lo g
Ġcomp ute
dis k
sql types
Ġ', '.
indent ation
Ġpad y
Ġtrack er
Sup port
ĠConfiguration Error
ĠPAT H
P AR
_ ):<
j am
r find
me sh
ce k
val s
Ġlo oks
10 3
0000 30
Ġv list
Ġv ocab
Ġpro file
AT TR
sh uffle
parser s
SE CU
Ġchar AsInt
ci ent
Attribute NameState
encode Strict
ĠH iddenText
pi ed
To Table
DEFAULT USER
Stack ToTable
Ġhead ing
Al ready
generate ImpliedEndTags
Ġxml rpc
FED ERATION
ĠUnsupported VersionError
trig gers
account s
MAN IFEST
bet ter
FLO AT
Program Files
IZ ED
emit CurrentToken
Integration Point
C L
R AN
c er
Ñ ħ
Ġ ve
de velop
Ġt ek
Ġp i
Ġp ure
co st
ol f
Ġ1 50
In sert
24 6
Ġ7 5
âĢ ¿
ateg ories
abc def
MAG ENTA
SECU RE
> >
A V
~ ~
Ã ¼
ç Ī
Ġ question
in coming
at ives
is ode
format ted
comp ressed
ĠU TF
ES E
EN G
op s
ĠE vent
Un its
40 4
imp lies
Ġsub type
ps is
sy n
ĠÐ ½
ĠðŁ ĺ
}: {
Local Type
Post Dev
PostDev Type
. "),<
b rowser
m ixed
å ½
en g
ro uter
(' (
ack ing
ig lob
ĠS kip
ff ered
Ġg nu
om atic
([ \
ak en
ra dient
inter active
ched ule
Invalid RequestError
Ġ32 0
Ġsign al
ĠHTML Parser
SUB SCRI
Batch Norm
Std Handle
) +"
= ='
A P
I ZE
R andom
V is
d r
v gg
at abase
Ġt re
ex pi
ch a
Ġ[ -
red act
Ġtime zone
Ġon ce
Ġencoding s
Ġab c
ĠHTTP HeaderDict
ĠMessage Entity
glob s
ĠApp Engine
Create Model
à· Ĭ
Ġmime types
E MP
Ġ age
ex clus
el ine
__ [
(" </
Ex ternal
time zone
arget Python
AR D
LE ASE
vel ib
Ġnamespace HTMLElements
mi rror
Ġwe akref
resol velib
Ġ"/ ":<
Dir s
ĉĉĉĉĉĉĉĉ ĉĉ
Ġsp am
Ġmask s
ĠY outube
Ġtrust ed
Ġthumb nail
HER OKU
We ight
* (
* ([
; \
@ {
g y
an ish
Ġt ell
Ġm id
Ġ1 9
art icle
() [:
os name
Ġlist ener
dis connect
vid ers
ĠV CS
âķ ¯
Get StdHandle
ERROR S
Ġgener ic
FB F
sign al
EXP ORT
Ġproble ms
Gr aph
ĠPyPI RCCommand
BLACKLIST S
Collect or
G N
H as
a es
g uest
n anoseconds
â Į
Ġa verage
ĠD B
Ġv string
Ġca pt
ãĥ ª
has attr
ĠCol or
Ġq eue
rm dir
soft max
OpenKey Ex
uro pe
P ipe
_ "
g ar
i re
è ĩ
Ġ1 20
Ex port
Ġd rive
no va
Ġse cret
im ated
Ġopen er
Ġ: ]<
ID TH
av ig
mov ing
return ing
Ġne eded
Sec Identity
face book
agent s
ĠCF Index
ĠIN SERTION
Ġmer ged
ĠÍ ¡
good bye
3 90
T G
j a
æ µ
Ġp s
(" ^
Ġr ate
ĠS p
In cremental
read only
ĠB roken
opt Elements
ak er
De leting
Ġnum ero
Ġro ll
Ġchars AsStr
CRE EN
disc ord
Ġrand int
ĠTO ML
ĠSystem Exit
ĠEXT ENSION
* :
X ml
à ²
å ¯
er ature
st emp
al g
Ġt ls
Ġf ast
ot i
(' {}
Ġa fk
len ge
init ion
ON T
ĠI MP
EN O
Ġcomp lete
Distribution s
Ġcert ificates
Ġimp lement
Po inter
`` `
ÑĤ Ðµ
modi fy
normal izer
sur face
ĠConnect TimeoutError
éĽ ħ
cred s
è½ ¯
Magic Mock
+ )?
. '.
Ð ³
re moved
Ġre wind
ĠS election
py tgcalls
[' _
loc ity
Ġg it
Ġy et
Con dition
Con tainer
ann er
Ġal go
Pro ject
ĠUn known
ĠðŁ ĳ
Ð¾Ð ²
sym links
equi v
Ġinterpre t
aisyX Music
SUBSCRI BER
' },<
. `",<
B o
G o
M ust
å ±
Ġ answers
le nt
al pn
lo bj
Ġin ception
ss lobj
Ġb boxes
un set
Ġco ercions
util ities
tra iling
err upt
run Tests
ci pe
52 80
Ġzip import
ĠRequirement Set
ĠIP V
complete Read
ĠPre PostDevType
Ġmk dir
ĠDownload Progress
pf x
â¬Ľâ¬Ľâ¬Ľ \
expon ential
ðŁļĥ ðŁļĥ
å¾® è½¯
éĽħ é»ĳ
å¾®è½¯ éĽħé»ĳ
A CK
F P
m ix
r iday
Ġ 94
Ġ' '),<
as ide
Ġb le
ect s
14 8
23 1
LO GS
man ent
Ġimp l
tar ball
000000 1
Ġxml charref
satis fy
Ġ'{} '
Pr int
igu ous
" [
* "
/ ')<
B RIGHT
O bj
b box
f reeze
Ñ İ
à ¼
ç ļ
ot ion
il legal
file object
em on
jo int
ca ches
Command s
As n
gb k
ir d
lm no
Close d
("' %
Ġcred s
ĠHt tp
' ")<
B IT
E mo
æ ¯
er set
Ġ' ..
Ġin file
Ġs im
Ġm icro
un safe
xF FFFF
ĠD aisyXMusic
Ġ2 2
RE AM
Ġbu iltins
Di alect
ĠE M
ĠCon tainer
76 8
\\ \
ĠID ENTIFIER
univ ersal
xE F
Ġmon otonic
Mem ber
B in
F lag
G lobal
k CFAllocator
n ed
Ġ" ",<
ur tle
it ize
ge red
Ġb om
Ġu ntil
ĠC LEAN
char Encoding
Ġ6 55
min us
Ġsub dir
pool manager
RI CT
Back end
}| {
Ġsubtype Spec
kCFAllocator Default
= "<
Q SizePolicy
] -
å °
in ion
in spect
an script
Ġp url
Ġr ule
In formation
us l
32 0
Ġend er
00000 11
âĹ¼ï¸ıâĹ¼ï¸ı \
Ġcurrent level
wh en
xFD F
ĠV cs
Ġadmin istrators
RI V
domain s
CU ST
Ġ"[ %
ĠAs ync
packrat Enabled
" >
, '),<
, ('
V O
` \<
l n
w ill
Ñ ĸ
è ¡
in i
Ġf actor
ck nowled
Ġb old
file dialog
gg le
ĠM ock
plit s
Ġ3 6
ĠE L
xFC A
xFC B
xFC C
xFC F
EE A
xFF B
xFF E
node Type
xFA A
xFD A
Ġab stract
ØŃ ÙĬ
Ø¬ Ùħ
xAB B
ãĢ ķ'),<
Ġac curacy
Ġ'* (
SecTrust Ref
à¾ ·'),<
aut oreset
ĠProxy Error
nek os
ðŁİĨðŁİĩ ðŁİĨðŁİĩ
Vert ical
' })<
/ ")<
A cknowled
g amma
l arr
r ase
st ark
Ġin dices
pe g
file op
do cs
Ġst ock
Ġfile op
Ġl st
im gs
12 53
ĠO ut
start ed
Ġx y
Ġun installed
Ġnew Parent
sub net
Ġcol lected
cs isol
vert ical
ignore EndTag
insert FromTable
CON STRUCT
ĠInstall er
dered Set
OUT PUT
preview s
Doctype Public
selfClosing Acknowled
BASEN AME
Ġvoid Elements
ĠINST ALL
selfClosingAcknowled ged
) ['
0 11
1 000001
> ])<
\ ",
b its
g ing
æ ħ
Ġre vision
an ime
(" {}
path set
Ġnot es
Ġ* =
ord ers
min ute
ange s
18 4
ĠF ancy
arg max
Ġcol type
ĠH as
ĠKey board
igr am
Ġconnection s
ĠRequirement s
Temp orary
consu med
lar ge
fic ult
Ġpol l
ĠFancy Getopt
" `
1 33
> {}
? :
F OR
M utableMapping
W ould
re raise
Ġ' '}<
Ġe ven
sc roll
Ġ2 6
RE LEASE
Ġx x
Un it
part icipant
ĠSt atus
equal s
ĠUnicode Text
virt ual
writ able
Algorithm Identifier
} **
Ð ¹
ç ©
Ġ' !
Ġ" >"
Ġp ush
__ ).
Ġst ub
St udio
start up
20 8
xA A
Ġ{} "
work er
ĠCon straint
Ġ", ".
Ġ[] ):<
Check er
([' --
Ġpad x
ĠLoc al
writel ines
typ ical
stre rror
d umb
f ree
p list
u er
w atch
w armup
ro les
(' [^
Ġde lay
Ġg id
), )<
18 5
Ġk er
ttr ibutes
Module Type
part icipants
HE BRE
UL ES
CM DS
Ġweb driver
Ġexample s
ĠLib rary
radi us
HEBRE W
" [\
3 56
9 49
R PM
U I
_ )
m apped
r d
t ilde
Ù Ģ
Ġ Res
Ġre name
Ġp seudo
ad os
Ġo ur
ect ion
() ),
ĠL E
Ġtag Set
Ġid s
oc currences
Get ting
Ġextract ed
Ġro les
pair wise
Ġgr id
Ġmajor Version
Ġdomain s
startTag Html
ĠReg Error
READ ME
Ġstatic method
Reg istry
dy namic
Ġprec ision
+ ",
E mbed
f users
Ġt p
ch anging
il arity
(" !
Ġel apsed
Ġh app
po wer
ĠS M
Ex t
out going
Ġ2 3
ðŁ Ł
Ġun known
token ize
intern et
Di rect
cs rf
assert CountEqual
assert NotRegex
not ification
not hing
Ġtr ue
ĠUn pack
gra ft
fer red
ĠPY THON
Ġ"> ":
à´ ¿
Ġrel ation
LAT ES
cei pt
LD SHARED
ĠVER IFY
Visual Studio
\ %
p un
s li
Ã ¶
Ð ¿
å ĸ
Ġp ub
lo ur
Ġc nt
tr uth
mo ot
im read
ST REAM
ï¸ı â
stream ing
Ġcontext manager
av es
ĠImage Draw
alph anums
Ð½ Ð°
}` "<
Ġquot edString
sim ilar
xxxx xxxx
Entry Point
'[ +-]?\
Min imum
peri ment
CLASS ES
ãħ¤ ãħ¤
ĠInternal Traversal
* ")<
D WORD
H istory
Y E
i ed
r fc
ç ī
è «
Ġ $
Ġ es
Ġp ie
name list
tr anges
ck pt
wa ve
ĠT EL
mo id
im it
Ġpre process
AR RAY
Ġca file
ĠH ELP
MA GE
Ġcert file
Ġskip ping
VE LOP
hand shake
extern ally
Ġdirect ive
simple dialog
(': ')<
Hel lo
WOR K
ENG INE
: ){
C ES
L ANG
o lo
w elc
} %(
ð ł
me t
Ġb io
ĠS JIS
Ġst ickers
ĠP layer
Ġg ban
ĠM issing
ĠF lood
Ġth en
)) ],<
Attribute Error
Attribute Value
Ġadd ing
Context Analysis
Get ConsoleScreenBufferInfo
Ġtrans itional
game s
ĠLink Collector
ĠÐ ¿
Integer Field
ĠEU CJP
ĠCustom erAcctBal
dy lib
ĠMAX SIZE
Raw ConfigParser
ĠCFString Ref
nsp kg
Ġtek s
ĠTEL SA
/ ?
C lean
P open
S ur
W IDTH
e cho
{ \
or ity
Ġ" $
Ġo wn
is alpha
Ġd p
out come
ite e
Con nect
!= ":
ĠF e
Ġ5 17
mark s
seg ments
Ġmod name
WH ITELIST
Help Formatter
Ġgood bye
fixt ure
ĠRemote NotFoundError
jk lmno
4 26
= (),
= ()):<
A RE
A cc
D ists
I ABLE
s b
v endored
Ã º
å ¥
sp in
ĠI s
Ġ3 4
sub mit
find ers
Ġca path
vert ed
Ġapp dirs
âĹ¼ï¸ıâĹ¼ï¸ı âĹ¼ï¸ı
ĠCon v
Ġ/ =
=[ ]
Ġinter val
ðĿ ļ
true type
ĠBase SSLError
cap abilities
Ġclean up
â¡ Ģ
ĠSocket Timeout
HTTPS Handler
f tp
f ollow
j peg
at tn
Ġ" !=":
ce ler
et c
), ]<
Ġen um
tra verse
Ġbu cket
ix in
vis ible
CA CERT
return codes
(\ .\
rat ing
Ġblock s
TEMP LATES
dns name
Distutils PlatformError
Ġsn ip
Ġ"== ":
x range
é Ģ
re lay
Ġt z
Ġf latten
Ġc rop
un ichr
Ġw alk
vi ct
parse No
Ġ"< =":
18 8
ign ment
File Handler
PY OPENSSL
PP ER
Ġat tempt
Ġop inion
sql alchemy
Ġne utron
tmp nam
Ġ"> =":
ĠString End
Protocol Version
ĠNegativeInfinity Type
Ġfailure Tests
parseNo Cache
C l
a ched
at tach
al iased
Ġn or
Ġc flags
int el
ĠĠĠĠĠĠĠĠĠĠĠĠĠĠĠĠĠĠĠĠĠĠĠĠĠĠĠĠĠĠĠĠ ĠĠĠĠĠĠĠĠĠĠĠĠĠĠĠĠĠĠĠĠĠĠĠĠĠĠĠĠĠĠĠĠĠĠĠ
Ġcon dition
Ġstr s
sp h
ĠT ools
Ġen ough
dist map
sub stit
Ġreq Mac
Ġsub item
ĠUn iversal
Ġindex es
Named Tuple
hel lo
OK EN
emo jis
alph abet
Ġmask ed
ĠApp Dirs
prop agate
ãĥ¼ ãĥ
ju ju
Ġem it
REMO VE
= ':
C y
C String
D ig
M gr
f fi
s amp
Ã Ń
æ İ
as Keyword
Ġret String
Ġs ilent
url unsplit
Ġ1 80
am t
Ġres net
per f
parse Element
Ġkey b
ĠB u
ĠB inary
Ġpy test
ĠW H
ĠG oogle
ĠHTTP Exception
exp licit
top ic
Ġtrans action
tar file
Chat s
(\ .
Ġone Of
ĠSt ate
âĢİðŁĵ¶ â¬Ľâ¬Ľ
seless Keyword
Create With
ha vi
Ġsm Expr
Password Mgr
ĠCON T
âļ ¡
decor ators
Dec imal
altern ate
pub lish
INSTAL LED
QTableWidget Item
RIV ATE
9 80
H ow
R ST
] "<
æ į
Ġ job
ex cp
Ġb roadcast
he m
url retrieve
ff mpeg
ĠP RE
her oku
Ġdist info
Ġ4 01
ĠW eb
Ġmin ute
ðŁĮ ĳ
Header Error
product dir
ĠLo okupError
Mo di
Mo zilla
restr i
WA RE
ĠAdd ress
BUND LE
sph inx
" (?:
D arwin
b rew
Ê ĸ
Ú ©
è ·
è Ģ
Ġ ke
Ġ âĸĴ
re served
Ġc words
li ck
Ġnot edata
Ġget ter
11 30
AT ORS
ĠB ar
25 0
** ",<
Ġtemp o
dis pose
iss ues
Ġper ms
xml ns
ble m
xB B
Ġcr it
Argument Error
loy ee
: {
D N
[ @
e E
w ar
ä ¼
è ¾
le a
ch r
ch rome
ct rl
00 2
dat aloader
ĠĠĠĠĠĠĠĠĠĠĠĠĠĠĠĠĠĠĠĠĠĠĠĠĠĠĠĠĠĠĠĠ ĠĠĠĠĠĠĠĠĠĠĠĠĠĠĠĠĠĠĠĠĠĠ
Ġcon verter
fo c
Ġde cimal
Ġ"< ":<
01 7
24 7
Ġal ert
Ġstart ing
]) [
ãĥ ĥ
ref count
ãĤ ¢
resol ved
Ġconvert ed
pared Request
(", ")
DL L
ĠBack end
MI SS
5 15
M any
R ITE
_ -
_ :
Ġ" âĶ
ro cessing
name Tuple
lo oks
data Elements
ĠT OKEN
RE F
ĠA F
wr appers
bot s
config urator
sub commands
process Characters
UT YPE
abs olute
ne qq
db s
MA IN
Implement ation
place holder
StartTag State
Dis able
DIST RO
Left Arrow
termin al
scriptData EscapedState
Ġfs decode
Ġreport er
Enum Value
Enum Key
LM NO
Raw text
Mat rix
csisol atin
2 000001
7 96
G ot
S y
s peak
{ '
Ù ĳ'),<
ð ¤
Ġ er
Ġ utf
Ģ '),<
or acle
al th
ge s
Ġs re
Ġb ank
Ġb roken
Ġb rowser
ab ic
py pa
Ġ6 3
Ġ3 01
25 2
00000 10
Ġpack name
ãĥ ©
âĢ ²
Ġscheme s
Ġ"- "
include d
xFD C
ateg ies
Ġwarn er
Ø¬ ÙĬ
ï¼ ļ
ĠApp end
Ġoptim ization
SP ORT
HER E
........ ........
Ġmultiline str
allp aper
ðĿħ¥ ðĿħ
4 13
h it
p erson
Ø ¸
å Ń
Ġ' âĹ
le ad
Ġt weet
he st
pre serve
() ")<
her it
ho use
85 5
Ġmake file
]+ )
ðŁĮ İ
Message Entity
Core Foundation
iel ded
Redirect Handler
TRAN SPORT
ĠBUT TON
) >
: "<
W IN
c inder
i ator
l bl
p ressed
re dist
de clared
he ther
ip art
em a
Ġst ar
Ġl df
ĠM IN
11 33
20 2
Ġprint ables
Lo okup
Ġlink er
Un iversal
UT ABLE
exec utor
raw Stream
NO W
He re
ustr y
Ġadmin istrator
fr ules
pk i
Ġld shared
Ġstep s
COM MA
Maintenance Form
Ġldf lags
) }"<
= \
S end
f rozenset
i add
k ing
m v
t u
t an
æ ĺ
Ġre named
Ġre cv
Ġf raction
Ġn bytes
Ġis n
ĠC ERT
py test
ĠA BI
20 7
back track
Ġpass ive
24 9
AN Y
14 0
Ġal so
Ġ{} }<
Ġcur ses
admin istrators
Ġcomp are
Start ing
To ml
Ġ", "
dev null
thread ing
ĠDis aster
ĠEx it
éĩ ı
ĠBOT LOG
~/ .
ĠLocation ParseError
Parsing Error
Com bo
% %
A p
M ar
N ote
O id
a o
b en
m uted
r ang
t ile
Ð ¶
é ł
ĥ £
Ġ' ==
fi rm
Ġc ancel
(" ~
(" :",
text area
Ġraise d
line Query
ĠM ixin
Ġma de
Ġ"< ":
back slash
18 3
Ġca lendar
ign or
Ġclass ifiers
IG H
Ġmy self
Ġframe s
cal ar
pendency Warning
Ġent ered
va lent
Ġprotocol s
Transform er
Pip Error
Ġstick y
N ormal
V ENT
] ])
e v
at ely
Ġp str
Ġin s
Ġs ide
Ġm ut
", )<
Ġw bb
In it
Ġk r
ann ing
SS IAN
Ġsub s
Ġsub scri
ãĥ ŀ
play ing
level name
Ġpart ition
ĠV AL
case s
emb ers
ĠUser s
Ser ial
Th at
Var iable
Block ed
forward s
Ġtop ic
Ġ"ðŁ ĺ
ibil ity
Ne ed
CUST OM
5 0000
v ac
ç İ
ar io
li fy
get default
Ġb alance
ap s
Ġa st
fo x
Ġco pied
ĠS ET
ĠT argetPython
Ġv oice
log y
iv ated
scheme s
Ġtemp orary
MA IL
ãĤ ³
buf size
Ġrel ated
confi gs
igh b
Ġcontain ing
Ġfill value
take while
- (?
S ibling
g tr
l u
v ary
Ġ angle
Ġ' )
Ġ" (?:
Ġin sp
get attribute
ul ator
ve e
Ġ% {
ĠM ake
Ġlist a
ak ing
Lo gs
29 0
Ġcomp ression
UT ILS
Text IO
ĠR o
MA C
Ġser vices
To Win
meta var
mk stemp
Su ite
ĠTime stamp
Man ifest
Ht tp
serv ation
want ed
ĠCLEAN ER
s an
å Ľ
Ġ lim
Ġ' `
fi d
Ġo dist
Ġm box
set Point
pro vision
char det
Ġthe ir
Ġ** {
ĠB est
ron t
om b
hash lib
---- --
oi r
âķ Ń
Ġmeta class
Ġsuccess ful
seq s
(.* )")<
dic al
Trans fer
AUT O
mar ket
Ġcontrol ler
Maint ainer
RU SSIAN
DOT ALL
setPoint Size
" ')<
C ATE
K it
S W
T ask
c urly
d uplicates
g res
v ailable
y label
Ġp unch
def s
el i
Ġm igrate
Ġb z
Ġex pi
py w
im ag
=' /
AT IVE
Ġ(' %
state machine
coding statemachine
ĠF rom
ph a
([ ],
Set GroupProber
ĠG eck
vert ex
ref lection
ĠstartTag Head
âķ ®
ĠendTag Html
ĠendTag Ignore
Path Metadata
ĠImage Tk
Ġfilter false
emo ized
Ġvali dation
APP S
Net Fx
Ġauthor ity
ĠCO ORD
appro ved
ĠData Loader
Ġredact ed
MMMM MMMM
SHORT CUT
tor rent
âľłâľł âľłâľł
Multi ByteCharSetProber
Digest Auth
bro wn
requ ency
ADDR Z
ĠGeck o
A pi
F UN
O W
P layers
m u
t weet
se qual
re ve
Ġ' &
Ġt ab
Ġin compatible
from s
Ġ2 99
Ġl at
ĠB LACK
ĠN um
find All
files ystem
ĠW RITE
56 6
cert file
LI VE
Pre fix
Ġ` .
Bu ffered
No Match
exp anded
}) \
Ġtable s
BC S
ĠBase Distribution
Admin s
basic Config
Ġcustom ize
Ġra di
ĠWork ingSet
ĠSelection Preferences
P U
P lay
_ ,<
f old
f olders
g nu
u ss
Ġ edge
in file
Ġp join
Ġs izes
Ġc ipher
Ġb ig
set Level
Ġr t
Ġu i
Ġ1 08
Ġy ielded
ĠT otal
ĠA re
20 18
sh utdown
find var
Ġ8 4
Ġsub command
Not ation
IC AL
ĠRequirement Preparer
Build ing
ĠURL Error
task s
ĠPath Metadata
Soup Equals
---------------- ----------------
Separ ated
DATAB ASE
> ))<
D ump
F ifo
I BM
L L
c StyleComment
d type
e ffect
g us
k ze
l name
ç ¤
Ġ escChar
Ġ escQuote
de limitedList
Ġi sequal
ar ange
al i
Ġ" âĹ¼ï¸ıâĹ¼ï¸ıâĹ¼ï¸ıâĹ¼ï¸ıâĹ¼ï¸ı\
Ġ( ':'
as c
as String
Ġret obj
el s
Ġs i
Ġs range
Ġc lause
set Up
do init
ation al
ib m
po w
ig er
te am
Ġd c
init Expr
string End
line End
line Start
parse Method
parse Fn
Ġpre parseFn
fix Notation
Ġloc Marker
12 58
Ġwith Attribute
ĠA n
ĠU RI
Exception DebugAction
cur rency
Parse Method
Parse BaseException
default Start
default Success
default ExceptionDebugAction
pa Args
Ġnew loc
lic ations
lob ally
html Entity
max Mismatches
Ġpack rat
ĠG zip
ĠParse Expression
new s
Ġbreak er
copy Default
Ġthis col
Ġthis Func
][ +-]?\
Not Matched
Ġdict value
Ġfound Ar
Ġdir names
make Tags
Ġall Results
Ġerror Stop
Ġtmp Loc
USER ID
down caseTokens
block StatementExpr
To Column
Ġact ivate
return String
Ġskip result
original ParseMethod
Ġwarn s
Ġjoin String
hex nums
PRE F
Ġmarker String
`` `")<
short cut
Open Tag
à¶ ±
multi required
Left Assoc
Environment Name
scan String
cpp StyleComment
Ġarray Expr
this Func
Close Tag
HASH ES
optional NotMatched
White Chars
âĺ Ģ
Ġkeep Matching
generator Type
comma Separated
ĠLine End
Ġendloc Marker
Fifo Cache
kze ug
asString List
initExpr Groups
defaultStart DebugAction
defaultSuccess DebugAction
htmlEntity Map
copyDefault WhiteChars
ĠfoundAr ity
commaSeparated List
s set
Ã £
Ġ âĸ
Ġ Resolution
as ctime
Ġr p
he at
ig hest
'] }\
ĠT ensor
char acters
Ġ"< !
back off
Ġ3 30
Ġlog ged
IT LE
ĠW h
29 6
30 9
User Request
]+ [
âĶ Ģ
force list
Ġview keys
Platform Warning
ĠRequest Methods
ĠTemp late
Constraint s
RAG MENT
ĠNew Type
suc cs
VALID ATORS
GH I
Cipher Suite
SECURE TRANSPORT
ĠGzip Decoder
. -
h params
y a
Ġi con
al f
ct a
00 9
tr ight
key ring
no ise
us ion
Ġ2 9
Ġpre dicate
St dout
20 9
01 3
Ġspec ial
hash ed
File Finder
rol led
trans l
Ġback off
ĠCh rome
Ġwork ers
Ġexp lo
("/ ")
â¬Ľâ¬Ľâ¬Ľâ¬Ľ â¬Ľâ¬Ľâ¬Ľ\
Child Nodes
lr u
Ġplat lib
separ ator
istic s
JK LMNO
Ġclo ser
ĠPK G
9 0000
S to
S im
g mute
â Ĭ
è ®
é ¾
é Ŀ
on ed
Ġc and
get timeout
Ġw f
pro to
Ġpro to
32 9
Ġ** `.
Ġpl ace
Ġ: -
assert SoupEquals
Ġval or
Ġ'- ')<
TER S
ms i
upper case
An chor
Download ProgressBar
Input Stream
click ed
('_ ',
Ġter minal
åħ ¥
> "\
P URE
f utures
k a
m iddle
p ending
x label
ç ¦
er ies
it ers
ot hers
li k
00 7
un ded
Ġe v
Ġst ore
12 56
Ġun escape
Ġun its
for c
Ġ4 8
spec ify
spec ification
Ġle ss
Ġtest Serializer
Ġ'. /
pri me
Ġimp lied
xB F
Dis position
Ġover write
Ġ`{}` \
REP LY
Gener al
Part icipants
Ġass igned
ĠSUPPORT ED
lab eled
âĸĢ âĸĢ
({} )<
Ġintern et
+ ]
A ccess
N umb
f in
n b
æ ĭ
Ġ quiet
Ġ urlencode
at io
ĠP lay
ĠD ec
Ġpre trained
ĠL ock
back ward
") ],<
Lo ading
reg ular
Ġsu cc
position s
br k
leg end
Python Version
Ġprevious ly
BAN G
ik ipe
transform s
âĹ»ï¸ı \
tod o
cas cade
âĹ¼ï¸ıâĹ¼ï¸ıâĹ¼ï¸ıâĹ¼ï¸ıâĹ¼ï¸ı ",<
, \
T arget
i mmutable
s ses
u cs
é Ļ
in Select
as array
ad jac
Ġm agic
Ġh el
ma cr
ĠP ass
no frames
head ing
char List
Ġpre f
bo gus
ang ms
Ġbu iltin
") ).
AN T
Ġreq ts
Ġ4 2
Ġhas Children
namespace URI
eg oti
Un install
Ġchar List
sup set
Ġmodule Cache
Ġarch s
af ari
insert Comment
cro ll
Pre ce
ãĤ ¹
clear StackToTable
MENT S
ĠDict Cache
Su c
ï¼ ģ
fb anned
before AttributeNameState
ood oo
Ġ'" %
sn ip
selfClosing StartTagState
ðŁĶ´ðŁĶµðŁĮķâĻĵâĻİâĽİðŁĶ´ðŁĶµðŁĮķâĻĵâĻİâĽİ ðŁĶ´ðŁĶµðŁĮķâĻĵâĻİâĽİðŁĶ´ðŁĶµðŁĮķâĻĵâĻİâĽİ
factor ies
Row Group
ABC DEF
ĠConverting List
ĠConverting Tuple
Ġmultip rocessing
MEDI A
ikipe dia
adjac ency
' /
( %(
C ap
N AB
O IN
^ ({
m usl
s lim
t abs
Ġ orm
Ġ ],
Ġ light
se quences
st o
Ġ" "))<
Ġt tk
ex emp
Ġf reeze
Ġn anoseconds
(" \\
Ġr s
Ġw ay
Re p
Re pair
Ġd ummy
Ġde velop
'] }
Ġthe ta
tra ction
18 9
cache able
script or
ph rase
Ġsub directory
Ġ'. ')<
Ġ7 6
En able
SER VED
Requirement s
RA PPER
ĠV er
Ġlib file
The se
Ġreason s
Ġ.. .")<
Ġvis ual
View Set
desc end
HO OK
oper and
Ġquot ed
detect ed
ĠPre paredRequest
writer ow
(': ',
Ġ'\\ ':<
EXEC UTABLE
Ġbit map
ĠProxy Scheme
ĠAl ready
Change d
ĠLib Error
dif ficult
ĠMS VC
ĠÍ¡ Â°
' ",<
. (\
7 48
B GR
C PP
L inux
M ON
R M
a ff
t sv
} }
Ð Ŀ
å º
è Ļ
é ¼
in correct
ot p
(" |
10 41
RE L
build Oid
String End
Ġstart ed
EX CE
post s
iss ue
may be
ĠV AR
Ġ"( %
('/ '):<
PRO CESS
Body Phase
bind param
Ġref resh
Right s
ĠEntry Point
Br anch
Full UserRequest
NE W
idi Error
ytd l
ĠSkip To
Ġker as
NAB idiError
* ]
/ *
6 00001
7 00001
b ile
f atal
h am
i li
ð ¡
ð ¢
ð §
Ġ vi
de c
Ġ' ='
Ġre ference
Ġp id
tr ip
Ġnot ename
message box
pro tect
Ġget proxies
xF FFF
Ġg one
Ġl bl
est er
32 8
ure Transport
ĠE dit
Ġpy openssl
prefix ed
Ġext end
âĹ¼ï¸ıâĹ¼ï¸ı ðŁĮİ
xFF D
wh at
uptools DeprecationWarning
He brew
MP LE
Ġload ing
SU PPRESS
ØŃ Ùħ
â¬Ľâ¬Ľâ¬Ľâ¬Ľ â¬Ľâ¬Ľâ¬Ľâ¬Ľâ¬Ľ
ĠPip Option
cip y
={} )<
à¤ ¼'),<
Ġ'ãĢ Ķ
:` _
agr aph
ĠInstalled Distribution
âĹ¼ï¸ıâĹ¼ï¸ıðŁĮİ âĹ¼ï¸ıâĹ¼ï¸ı\
2 85
A re
A vailable
C andidates
O TH
P ort
g ain
l c
o auth
y ellow
× Ĳ
re call
Ġi ver
Ġp ers
Ġs ur
Ġs cipy
Ġn ative
Ġc ust
00 5
un group
Ġw ish
Ġ% .
Ġ1 01
Ġd x
ĠD id
11 34
Ġ(' ',
Ġ3 3
arg in
find Next
Ġle aving
EX IST
('. /
Wh en
.* ?
ĠPro gress
100 3
)\ )",
Ġlock s
simple filter
INST ALL
comb ining
ĠAN D
gar ian
. ,
C enter
H ARD
M ULT
P UN
S OR
S ENT
S andbox
b mp
k an
t tk
re use
Ġs c
Ġn b
Ġc enter
(' @
Ġdi gits
Ġh ot
ĠS h
Ġd d
=" .
im ap
ĠL atin
=' %
Ġloc ate
)) [:
auth entic
lower case
qual name
:// ",
work dir
Not es
istr ation
ĠInstall ation
Ġbyte code
As ync
Ġblock size
fr iday
Ġwork er
Open SSL
Ġsign er
BY NAME
Sh ape
sr f
Ġbet ween
ĠSSLContext Ref
OB JECT
c w
d ots
m q
m le
n r
à º
é Ł
ë ĭ
Ġre ported
di g
__ ")<
un i
Tr ie
ĠS tyle
Ġg rp
ĠM em
ĠA ct
ĠA UT
Co st
cur ve
18 6
33 0
IT ES
Ġpack et
Imp ossible
av or
Ġprocess ing
Specifier Set
Ġap pe
Ġ'" ':<
hi jklmno
Ġms gs
override s
mle ntity
" },<
B AR
T M
c ant
k c
v o
it ter
ro om
Ġt eam
Ġp db
ad b
Ġh y
__( ):<
In finite
wa v
Ġl ab
ĠM ainWindow
Ġpre dictions
Ġurl parts
item getter
col li
20 17
back wards
ĠB lock
sh im
ĠN e
Ġcall s
ĠĠĠĠĠĠĠĠĠĠĠĠĠĠĠĠĠĠĠĠĠĠĠĠĠĠĠĠĠĠĠĠĠĠĠĠĠĠĠĠĠĠĠĠĠĠĠĠĠĠĠĠĠĠĠĠĠĠĠĠĠĠĠĠ ĠĠĠĠĠĠĠĠĠĠĠĠĠĠĠĠĠĠĠĠĠĠĠĠĠĠĠĠĠĠĠĠĠĠĠĠĠĠĠĠĠĠĠĠĠĠĠ
ãĤ «
Install ing
Ġag ainst
bit rary
ä¸ Ģ
Count er
Ġ": "
manage ment
Ġseg ments
Ġaut omatic
MAG IC
C ategory
F INAL
a af
g ues
i er
p Matches
s ho
} )[
ä ¾
ì Ŀ
Ġc ard
form Layout
ĠP l
ĠT k
ĠA LIVE
Ġme ant
ĠB ig
') (
') ")<
33 4
Ġ4 3
** "<
04 3
ĠH ISTORY
escape s
Ġ` `
ush i
Ent ries
Ġtrans l
function al
QU I
DIST UTILS
tg z
Wheel Cache
âĪ «
Ġstride s
Ġsome one
Ġsome thing
Ġascii Upper
COMM ON
Upload ing
sk i
instr ument
>{} :</
B H
C IP
T ITLE
p ixel
t gt
} (
Å Ł
Ģ â£
ar bitrary
Ġ" ?
Ġt run
Ġp romote
Ġo dd
Ġm ix
Ġm ight
Ġlo l
do Actions
pre ad
ĠS afari
put header
RE T
20 5
18 2
Ġch oose
Ġ: ])<
stream s
filter warnings
Request s
ET IME
oc us
âķ °
Ø¬ ØŃ
allow s
circ le
Ġpair wise
utc now
pers ist
ĠAR CH
" âĢ¢
5 20
7 35
P attern
S CREEN
V ATED
i od
p fp
r ip
Ġi reqs
en ed
en crypted
Ġp ic
Ġf dst
__ ']
th ick
po on
ĠS cheme
ĠS ign
Ġde c
"] ):<
im show
Element Tree
Type Var
Key Error
FF ER
row count
ict ure
av en
filter false
MA J
Ġ` ",<
mask ed
(". ")
Ġselect ion
à· Ĵ
Ġhand ling
}' ".
Hash es
Ġ(.* )"))<
IDE O
B G
B L
G en
Q Frame
S c
] ')<
f resh
x html
Ñ Ħ
å £
æ Ŀ
Ġ virtual
se ss
Ġ' "'
le ading
Ġp c
Ġp ay
Ġin crement
Ġs peak
Ġb rotli
ĠC SI
user info
Ġl t
ĠM ay
22 48
33 7
sh lib
mb css
ĠG BAN
Ġextra ction
Text Attribute
Ġ` /
Ġblock ers
Ġman ually
Ġvali dator
Ġraw mode
ĠJ IS
ĠInt er
ĠWin Style
Ġdistro s
('_ ')<
ĠPre vious
Sdk Version
Script Writer
dw Size
Ġcs idl
SV G
SetConsole CursorPosition
Include s
ĠMulti ByteCharSetProber
crt ver
DETECT ING
BCS GroupProber
JKLMNO P
EXCE P
MAJ OR
mbcss m
" `{
E ach
S ix
d ur
o date
s in
s ilent
t il
å ĳ
è £
í ķ
Ġt bot
ul ation
Ġu cs
key file
ri vers
Ġ* ,
Ġ2 01
cur se
33 1
Version Conflict
Ġpy c
Ġpy malloc
fil tered
Ġad vance
ĠConfig OptionParser
Frame s
SO CK
ĠPy Qt
Ġtri m
ĠYou Blocked
NT LM
(", ")<
second ary
Ġsm all
STAT IC
serial izers
super user
WA IT
ARCH IVE
Web Kit
kar ma
restri ction
ester day
ĠYouBlocked User
* ")
D uplicate
H and
K HTML
O ct
W RAPPER
a h
d nd
p wn
le WebKit
Ġ" ..
as ure
Ġin tranges
Ġs yntax
get E
(" ]
Ġe ar
ĠC A
ĠS elect
Ġl and
Ch rome
RE SERVED
Ġtoken ize
Ġ6 7
ta kes
ĠA D
Ġtext x
cache control
direct ories
ĠW r
Base Specifier
Request ed
session Id
Ġmo use
Ð¾ ÑĤ
ĠID NABidiError
("< %
Try ing
mon itor
cei ver
Ġtor log
lap se
Ġmodi fy
Getopt Error
caseless match
Ġ'^ '
ï¸ıâ ĥ£
/ "
3 80
4 56
B reak
H orizontal
I E
P ickle
W ay
j na
m sv
r an
á Ĺ
Ġc alled
set Weight
(' =',
Ġ[ ("
Ġlo gs
ĠS TO
py d
Ġstr ong
per manent
Ġg ots
ĠM E
IN PUT
Ġ6 00
ĠU rl
ST D
ãĥ ½
Ġnum eric
Ġ[' --
ĠH E
Ġ'/ ':<
Invalid Version
struct ured
conv ers
exclude s
si red
Ġparam string
detect or
ĠLegacy CmpKey
ĠEgg Metadata
ĠInfinity Type
Ġhuman bytes
æĪ Ĳ
Ġoc currences
semi colon
ĠYouBlockedUser Error
P LU
P RIVATE
S ampler
b one
c con
c atch
n an
s get
x n
Ã ī
å ī
Ġt w
Ġf ns
Ġn loc
Ġa ctions
Ġh ist
Ex ample
In consistent
Ġl an
IN ET
tent ative
default dict
lic ence
Ġ{} :
Ġ{} ,<
ĠRe ccon
LO CATION
Ġan aly
hash Cmp
Ġrequire rs
Ġsplit ext
ï¼ ¾
219 0
ĠOr deredSet
suc ceeded
Ġra dical
ĠCacheControl Adapter
Ġprov Mac
ĠHELP ABLE
Manifest s
Ġtrun c
2 00000
2 86
: ]):<
C MP
O O
Z EN
_ ")<
d x
n av
Å ¾
× ©
æ Ĩ
Ġf olders
def rag
get response
(' =
Ġdi spatch
ĠC ategory
ca pt
22 67
=' .
ac quire
Ġ3 7
14 4
Key words
** :
Ġwh itelist
Lo gin
30 3
Build Dir
xD C
Ġgener ator
dl g
Ġplay list
Select or
ÙĦ Ùħ
Ġeval uation
Proxy Manager
Ġconflict s
fic ial
Ġdisc ard
Ġdy namic
peer cert
ĠPrevious BuildDir
ĠPreviousBuildDir Error
) (?:
) }")<
E K
L R
P OL
Z ONE
a verage
s co
z aza
ç ģ
Ġ ResolutionError
Ġ' >
en ial
Ġp ag
Ġs ites
Ġc ity
ack List
th ree
form data
Ġstr ategy
add Handler
ĠD et
Ġy dl
comp ression
22 83
start ing
ang a
Ġk SecTrustResult
24 1
ĠN L
64 0
ffective Level
Ġend ing
Ġbuild sys
su it
Ġcomp any
SSL CipherSuite
RO ZEN
â£ ¶
Match First
Ġcert data
Item Import
(". ".
âĪ Ģ
Ġsent ence
endTag P
"** {
Enabled Ciphers
Fe ature
Socket Error
åĲ į
ĠCFA rray
resiz ing
çļ Ħ
xFFFFF FFF
) [::-
: ,
A mount
F W
U AL
_ ()<
o ft
á µ
re build
at ial
Ġp anel
Ġf low
ch ron
Ġm sc
Ġm si
if f
ist ance
ĠS DK
no br
ĠD ATA
ES C
Ġdo m
Ġwh l
:// {
ĠDistutils GetoptError
Ġpar sing
Ġclass name
('. ')[
annot ate
chunk Size
Ġfed s
Ġar ound
Ġover lap
Sub set
ĠPy Dialog
Øª Ùħ
Ġcfg data
Ġsel dlg
tab ed
gate way
Ġdy lib
Ġoc cur
Some thing
Tar Error
Ġcapt ured
getE ffectiveLevel
Ġmsi lib
" (?
A X
A nt
E mail
H ey
R D
T eam
b and
r partition
u bu
v r
ï ¹
st Block
Ġ' ')
Ġ" "])<
ur the
ed o
ed Block
str ategies
get ET
get reader
from Xml
form Pointer
ER Y
'] =
loc ated
Ġto ml
Ġg reater
format tingElement
comp type
Ġpro tect
char AsInt
Ġma int
Ġ"< "})<
Ġsys id
match String
token list
zip ped
Ġch o
Ġ5 3
ant Equal
ĠW HERE
ãĥ ¡
DO MAIN
UN PACK
raw text
Ġ"- "})<
Int errupt
Ġprocess Comment
left arrow
right arrow
og on
MARK ERS
Ġtrans fer
EndTag NameState
EndTag OpenState
attribute NameState
comment State
Ġdoc Str
PRO XY
ĠResponse Error
Ð¾Ð »
Ġgen shi
Ø§ ÙĦ
Double QuotedState
scriptData State
scriptData Escaped
ĠButton s
Down Arrow
Edit able
Vector Bar
äº Į
Extra ction
Installed Distribution
ĠRead Error
Sup erset
Sl antEqual
XY Z
Tee Vector
Ġsatis fied
scriptDataDouble EscapedState
Single QuotedState
ĠGN UTYPE
Ġtre ewalker
Suc ceeds
urthe stBlock
getET ree
fromXml Name
. <
B it
F R
M ay
M ain
] [:
b boxes
c and
f sen
n gs
p ayment
è Ī
è ı
Ġe cho
Ġd uring
ca pture
Ġ2 04
=" ^
ĠT EXT
IN IT
Ġ"< {
Ġnew path
Ġwh ite
log it
{} ](
ĠG T
ĠG r
wh ich
sy nth
Ġdownload er
Ġ"` ``
ĠLO AD
Ad am
Ðµ Ð½
Retry ing
ä¸ ĭ
mer ged
Par ams
ELE VATED
Ġqu it
subject AltName
Ġsig ma
decor ator
Mis match
Ġatt ack
FUN C
protect ed
4 25
@ @
F lags
I MAGE
P tr
Q LA
W M
d T
g hijklmno
} :<
æ ®
ç »
se mb
se cut
er kzeug
or ient
Ġt t
ce l
Ġs ince
set Bold
ok ing
Ġ1 27
ig en
ĠP E
Ġfile no
Ġy es
instance s
') "
EN UM
DE L
element Tree
Ġcomp ressed
ref erred
Ġclass ifier
node Name
return s
ãĤ ·
âĶ »
Ġtrans lation
Path Importer
Ġsuccess or
clause element
ðŁĮķ ðŁĮķ
Ġorder ing
origin s
Py Asn
Meta PathImporter
Float Field
Lazy Des
CFArray Ref
CFArray Create
MLT reeBuilder
vect ors
eps ilon
Ġdecl are
foc us
DigestAuth Handler
Six MetaPathImporter
ackList Filters
secut ive
LazyDes cr
+ {
4 99
7 55
< !--
B T
c id
d oku
p seudo
r add
Ð Ĵ
ç º
re mainder
or ange
li psis
ext ended
et y
is m
app lies
able Body
Ġ1 03
ib ly
ĠS TR
ca led
Ġg uild
ĠA t
ĠB IG
17 6
Ġal i
([ [
ĠE F
ĠG ame
(( (
MA CH
Se e
ĠPro cess
BO O
Back up
Ġet a
Par ameters
ĠParsed Version
ĠLE G
ĠUniversal Detector
Modi fied
( ('.
L ONG
U ST
c art
f riend
p unc
| {
} _
ç ¾
st and
Ġ' ~
ch ive
ing Tool
nt u
Ġb v
Ġb all
ment um
(' ~
dir ty
ĠC ur
ind ableBody
Ġse ed
Ġout er
Ġ3 04
Ġun parsed
Ġ5 5
pop left
DI FF
ĠUn rew
LI CATION
Ġup per
]+ "
ĠHTTP Adapter
ORT ED
ĠInvalid Codepoint
Ġjoin ing
Group List
ãĢ Ĥ
Ġ"ðŁ ĳ
Wait For
CUR SOR
indableBody Error
ĠUnrew indableBodyError
3 000001
3 000004
5 00001
7 000001
9 00001
9 000001
A nsi
D jango
M embers
f ancy
f amily
k ang
n adata
s ushi
° '),<
á ¿
ð ©
Ġ .__
Ġ emb
ĩ '),<
ĭ '),<
ad jacent
Ġc ant
Tr acker
Ġcon su
pr s
Ġy anked
22 82
Ġurl split
20 15
la unch
Ġcomp lex
reg istered
lim iter
LA BLE
xFF C
bl ur
Ġtorch vision
Ġid nadata
TO OLS
ãĤ Ń
ĠRequirement ParseError
Ø® Ùħ
âĪ ķ
Ġwindow s
COM PI
STICK ERS
nek o
ĠSu ccess
) (\
, _
4 64
5 25
6 60
T op
V EL
b m
b log
c ategories
h h
k ana
r ango
s ax
æ °
in cip
Ġ' **
ut ime
__ "
ap ers
set timeout
et ag
Ġg amma
comp leted
load ing
dist lib
ata kana
Ġlist dir
internal s
Ġ(" \
Ġver bosity
LA CE
rag ana
BU FFER
Config uration
BO OL
Ġ"/ "<
ĠSt udio
BY OWNER
LAT ED
Package Finder
Ġwrit able
Cert ificates
ĠSearch Scope
+)\ .(\
ĠHttp Response
QLA l
! `")<
7 56
B tn
M ID
S IG
W ill
] }<
b ed
g oto
n m
n w
u lo
w itch
} ',
Ġ ì
de que
Ġt akes
co gn
Ġs r
ul ly
(' //
th at
ĠĠĠĠĠĠĠĠĠĠĠĠĠĠĠĠĠĠĠĠĠĠĠĠĠĠĠĠĠĠĠĠ ĠĠĠĠĠĠĠĠĠĠĠĠĠĠĠĠĠĠĠĠ
ver ified
10 83
=" +
ĠT ree
Ġpro per
Ġun def
gr nam
Ġbe gin
af ety
âĢ į
IS UAL
fli p
struct ure
ĠÐ ¼
blacklist ed
ĠFile List
("> ")<
Ġadjust ed
ĠDISABLE D
aug ment
GHI JKLMNOP
pwn am
STD ERR
ĠPE ER
QLAl chemy
F ROZEN
O k
b lob
p df
Ñ ī
ç Ļ
it ing
Ġs cr
Ġc am
un zip
(" ("
set attr
ack ed
Ġget grnam
Ġget pwnam
RE ST
install able
direct ives
([ (
AL I
SER VER
HAND LE
download ing
rag on
Ġat om
âłĢ â¢
SU RE
fetch one
DB YE
STR INGS
Ġfragment s
00011 9
ĠLo gger
pie ces
BLOCK SIZE
Ġmis match
âĸĵ âĸĵ
better root
Combo Box
3 60
C DATA
D est
J son
N N
U ATION
] ^({
a de
a red
| [^\
} !".
æ ¼
è ¦
é ļ
Ġ Ñģ
Ġ" ="
ut em
Ġfile list
no on
Ġ2 02
St retch
Co ords
try ing
Ġ5 1
UT C
ĠParse ElementEnhance
PI C
... \
Ġinst dir
pri se
annot ation
Ġat exit
gener ative
fetch ed
Ġremove Quotes
Ð° ÑĤ
IL INE
APP LICATION
ĠApp leWebKit
ĠðŁ Ĵ
modi fic
Ġinstance s
crit ic
ĠtagAttr Name
allp apers
utem any
< !
D LE
D URATION
G ame
G ive
R T
l ush
m illiseconds
t ex
å Ĵ
Ġre raise
Ġ( )):<
Ġf ingerprint
lo pe
ab lish
app dirs
ER RED
to ol
Ġget pass
out age
ĠD jango
Ġ2 50
IN V
20 16
20 99
word chars
for get
ĠRe v
Lo okupError
Ġsub net
== %
ast e
90 9
ENT ITY
User name
Ġback slash
]+ \
MO D
Ġne ver
sele vel
bit map
Ġ"* "
cont iguous
); ")<
Ġaut oreset
ĠIt em
ĠSu bject
â¬ľâ¬ľâ¬ľ \
distribut ed
ĠPYTHON PATH
Participants Admins
ĠLEG ACY
' ')
, ),<
C lick
G IT
I I
U V
] ._
g uid
t len
Ġ ðŁĶ
se e
re lea
re structured
at ural
Ġre main
Ġ( ):<
Ġ( ),
di sp
Ġo cc
Ġb eta
pro x
Ġres ize
add itional
ĠM odel
Ġpro d
Ġset s
01 5
sh lex
Ġnew url
Ġca uses
auth entication
ãĥ ĺ
EX CL
CT UATION
cert ifi
Ġdir path
Ġtemp d
(? !
---- -
('. '))<
Ġcount s
float ing
ĠK orean
(.* ?
ĠFile Exists
lex ists
Ġcomponent s
foot er
feds chat
Search ing
gl itch
ACT IVE
subscri ber
Ġexpect s
Photo Image
Eval uator
cer tain
Vis ible
GN U
Emo ji
Ġpie ce
relea selevel
ĠFileExists Error
3 40
7 64
F ixed
I PP
P layer
S ave
T D
c n
d ammit
o int
ç §
er mit
Ġ' à¾
ar p
ro aming
Ġm svc
un escape
Ġu crtver
th Distributions
Ġcon s
vi olation
ho od
char distribution
IN ESE
Con verting
cod ers
Ġ4 5
SE PAR
mb charsetprober
Ġcomp leted
Ġ) ",<
local time
Ġgroup by
oo ser
ps kc
Ġ"{ %
Ġmo vie
bind s
Ġident ities
PO OL
ĠChar SetProber
)? )?
)? ::
cip ient
("_ ",
ĠPackage Index
ĠLanguage Filter
Event s
hi dex
Custom erAcctBal
PASS IVE
âłĦâłĦ âłĦâłĦ
agr am
subscri bers
.]+ ',
stri ke
Ġreduce d
FillConsoleOutput Attribute
FillConsoleOutput Character
recognized Format
EU CKR
ĠScript Writer
Ġstub s
PUN CTUATION
SEPAR ATOR
" *
) ["
8 22
: ]))<
G AME
L anguage
g ender
k lass
n E
z f
è Ĭ
Ġ ENV
Ġf amily
ch et
id le
Re place
to po
type Id
'] ).
Ġdist inct
11 7
und ers
Ġun wanted
Ġch mod
Ġcol no
ra dio
29 5
ãĥ Ħ
Ġcheck ed
we ather
Ġ". ",
ĠH elp
ĠH KEYS
ide os
chem as
block quote
document s
xD D
ud ge
CHAT ID
SO CKS
pol ls
ĠAnsi Style
ĠEnt er
ĠEn coding
cip her
IM UM
mot ion
ĠHe ader
hes is
C alledProcessError
N K
O RE
i ally
o om
Ð Ł
á ķ
Ġ ul
Ġf k
Ġc python
dat ors
(" ~/.
Ġw t
version control
is k
ag ency
bu s
info list
St ickers
32 6
ĠO ver
Type Ref
ĠB l
33 8
ĠF ill
64 6
temp name
ĠE GG
FA I
new line
â¬Ľ âĢİðŁĵ¶âĢİðŁĵ¶âĢİðŁĵ¶âĢİðŁĵ¶
Ġpa use
'\ \
cy rillic
}) '<
Ġ[] ),<
Ġblock num
expand tabs
the me
over write
short name
â¬Ľâ¬Ľâ¬Ľâ¬Ľ âĢİðŁĵ¶â¬Ľâ¬Ľ
ĠSet up
ĠCF TypeRef
Ġreal path
âĢİðŁĵ¶âĢİðŁĵ¶ âĢİðŁĵ¶â¬Ľ
)* (
IM G
ĠRetry Error
Extension s
Bl acklist
fixt ures
Template Error
ĠIncremental Decoder
â¬ĽâĢİðŁĵ¶âĢİðŁĵ¶âĢİðŁĵ¶âĢİðŁĵ¶ âĢİðŁĵ¶âĢİðŁĵ¶âĢİðŁĵ¶â¬Ľ
â¬Ľâ¬Ľâ¬Ľâ¬ĽâĢİðŁĵ¶â¬Ľâ¬Ľ âĢİðŁĵ¶â¬Ľ
* (\
B IO
C ross
F ollowedBy
F ULL
N ULL
i ca
m ass
Ð ŀ
in ja
Ġ( )))<
Ġp rom
Ġp wd
Ġp ng
Ġc gi
un blacklist
Ġw idget
ol l
fo od
um id
In v
out h
string Start
ĠM or
ĠM ac
22 16
ĠL e
32 3
ang ler
wr ong
ĠN E
Ġwh y
ak y
ID NAError
Ġapp licable
Ġsql ite
Module Error
ĠCh ain
Ġ'- ',
Ġper m
Ġ"> ",<
Ġplay ing
mac intosh
Ġinsert Text
Ð¾Ð ¼
popul ate
rot ate
Pri vate
('\\ ',
dbl SlashComment
ĠSub LocalType
quant ity
GOO DBYE
Ġqual ified
âĮ Ĵ
eli hood
Ã£ o
DLE WARE
FAI LED
6 20
F RAGMENT
M TIME
P G
S ample
T er
T ube
f lat
g lyph
g itee
p q
x late
Ã ª
Ð ±
ç ½
Ġ vec
in validation
en crypt
Ġt ee
pt r
get text
Ġcon cat
0000 0000
sp acing
22 66
Ġ3 03
Ġnew Encoding
19 99
Ġ4 9
ĠRe q
29 1
Ġan ime
Ġsub st
Ġtuple s
Que st
Ġhost s
Spec ified
ĠHTTP BasicAuth
Comp ileError
Cre ated
VC VARS
Ġet ag
BY ID
endTag Cache
startTag Cache
ĠReg OpenKeyEx
Ġob tain
'^ \
Ġ"& ":<
ĠText File
âļ ł
Ġprep end
llocator Ref
Ġ"] "<
AI LABLE
Hel per
ĠCFA llocatorRef
TARGET DIR
deep copy
msv cr
convers ation
restructured text
2 0000
4 80
C ar
H IGH
I SS
R el
_ ]*
a utiful
g old
n classes
Ġ jo
Ġ ].
in compatibilities
(' ~/
ĠĠĠĠĠĠĠĠĠĠĠĠĠĠĠĠĠĠĠĠĠĠĠĠĠĠĠĠĠĠĠĠ ĠĠĠĠĠĠĠĠĠĠĠĠĠĠĠĠĠĠĠĠĠĠĠĠĠĠ
Ġh mm
Ġg l
22 25
22 26
22 42
11 45
item seq
install ing
33 5
ine se
") :
19 87
Ġ5 7
)) :
Ġle arning
RO W
Ġcheck er
ain ed
Ġadd itional
let s
pri ces
block size
sa velist
Ġfed info
reason s
Ġresol ution
Ġright LeftAssoc
'" (?:[^
Body Text
sw ift
Ġbl ack
219 2
"' (?:[^
itel ink
Ð¾Ð ³
transform String
Temp Directory
((' '.
ĠUN DENT
Ġconfi rm
compatibil ity
bet ween
ĠEgg InfoDistribution
Ġpercent age
equi valent
}- {
ĠIncremental Encoder
Enc ryption
ĠWeb Driver
Sim ilarity
tlen eck
D rive
G LE
I LT
R ate
R ARY
i hat
w edge
} })<
Å ¡
Ð ¡
å ¿
ç ³
ch mark
ot ed
Ġm uted
and roid
(" //
(" .")<
Ġw on
if lood
Ġh ard
list a
ĠS K
() ["
'] ]<
repl acer
RE AL
Ġpre processor
bo unded
Ġkey chain
AT OM
ĠO ptions
Ġme sh
min ator
33 6
Pro cessed
)) }\
{} \
print able
Ġsu it
static files
Ġper mission
Ġq op
RUN TIME
Ġexp licitTag
ob s
prob ability
ĠRE QUI
("- ")<
Ġfix up
â¡ ĩ
ĠST AT
âĿ ¤
sen ce
Max Pool
Ð°Ð ±
Ġexpect ing
â¬ľâ¬ľâ¬ľâ¬ľ â¬ľâ¬ľâ¬ľ\
Ġest ablish
ĠNum ber
! ]
" (\
- {
= '<
A udio
O DS
P ending
S afe
W INDO
_ [
d buf
i j
i co
q s
u di
v l
w info
Ã ¤
st rok
me ter
ex ml
Ġf urthestBlock
fi es
ad option
set Icon
Ġ{ :.
py game
add le
her its
Ġl md
pack name
iter ation
12 9
ĠO p
Ġ(' [
ĠB atch
space s
rc dataState
16 0
85 6
ns im
Ġ{} .".
ĠE l
tree Type
cs iso
EL S
current Node
RO AD
src name
Ġtr ansport
length s
Ġformat tingElement
Not Greater
quote Attribute
Ġlast Node
box V
Ġprocess EndTag
=[ ]):<
ĠK e
xD B
LIST FIELDS
ĠÐ º
Identifier State
suffix es
Doctype State
Doctype SystemIdentifier
VAR IABLE
exist ent
ĠData Loss
RC Data
Ġmk dtemp
Ġadjust ForeignAttributes
adjust ForeignAttributes
âĺ Ĩ
Ġlow links
inTable Body
quotes plits
SOUR CES
METH ODS
serialize Error
LIB RARY
HOST S
âĸĴâĸĴâĸĴâĸĴâĸĴâĸĴâĸĴâĸĴ âĸĴâĸĴâĸĴâĸĴâĸĴâĸĴâĸĴâĸĴ
Ġprefer red
tre ewalker
ĠLog in
RAW TEXT
ĠToml DecodeError
ĠCSV Reader
ĠSup port
AV AILABLE
DoctypePublic IdentifierState
relay s
Prece des
ihat exml
WINDO W
DoctypeSystemIdentifier State
ĠDataLoss Warning
4 90
5 30
G lobally
R Y
à ¬
ç Ł
at o
st ngs
__ ',<
pt ext
Ġm v
(" &
ol ution
ĠS QL
py cache
ĠD atabase
Ġ3 8
ðŁ §
Ġun ary
') ],
ĠF lags
24 0
Ġbe havi
ph en
Set Anchor
Ġle ading
Ġcomp il
ie character
Ġprefix len
Ġsu c
Ġsu bject
feat s
URL Error
URL Fetch
Get Certificate
Get CString
Ġwe ek
Sec ItemImport
Ġselect or
Th ank
Session Option
DEF LATED
At Index
SecTrust SetAnchor
SecTrust GetCertificate
optional s
ĠTimeout Error
SSLSet ProtocolVersion
CFArray Get
CFString GetCString
("* "):<
Internal Error
ĠHTTPSConnection Pool
medi ate
CFData Get
HTTPSConnection Pool
ĠRequires Python
ĠHTTPConnection Pool
COMMAND S
kCFType Dictionary
Pipe Error
ĠSp inner
ĠBroken PipeError
Would Block
moot h
ðŁĮĳ ðŁĮĳ
ĠAF K
ĠGzipDecoder State
MACH INE
SecTrustSetAnchor Certificates
( {})".
) |
: ]]<
G D
I BLE
L ight
S ection
c j
g u
o h
q sl
t imer
} -%
á ĳ
æ Į
è ª
è ³
è ģ
in o
in vert
on d
al d
Ġf r
Ġf st
ut ation
di vide
Ġm f
path lib
th edo
ri e
Ġe ffective
Ġd am
=" "):<
Ġen g
ĠL AB
Ġ6 5
Ġ6 40
32 5
32 7
read thedo
AT AL
bot h
Ġk nown
Str uct
ĠIn lineQuery
sub ord
Ġ5 03
log ged
Ġ{} ))<
upt odate
âł ī
Pre cedence
ĠV C
Ġpkg util
apped Socket
Ġarg name
ĠÐ ´
arm v
Ġgr ad
ĠDo ctype
Ġfail s
âĶĵ âĶĥ
Banned Rights
SetConsole Title
cam era
Exp and
MID DLEWARE
}-% {
readthedo cs
' --
8 00000
D one
P TS
h ack
s as
x EC
z ing
z fill
} ).
Ï į
æ ³
in ates
sel ine
de velopment
Ġre quote
get info
Ġm m
Ġm illiseconds
un ot
(" ðŁĶ
con ver
th re
Ġ{ :
Ġcon d
ai x
ĠC ont
Ġget list
her n
comp arison
32 1
obj s
Ġout f
20 4
size Policy
ash es
01 6
process ing
Lo ad
Ġuse ful
Ġext ant
pop item
ĠDistutils ModuleError
ĠH ook
Ġfil led
ĠR PAREN
Ġread y
stack level
OS Status
Ġbuf size
enter prise
Ġunpack ed
For Width
ï¼ ī
Ġav g
ĠFile s
ĠRequest Field
cv t
Point s
Ġinte gers
EB HOOK
CRE MENT
DAT ES
LEG AL
Ġaltern ate
âķĲâķĲâķĲâķĲ âķĲâķĲâķĲâķĲ
ĠLocation ValueError
interface s
Height ForWidth
relation ship
Sm all
MULT ILINE
Ġoccur red
umid ity
! .",<
* ',
3 22
= __
L G
R S
T T
d ont
e agers
h ub
n ap
Ð ĵ
æ ĩ
Ġ 93
Ġ Try
Ġi key
Ġre ceived
as sets
Ġs q
Ġs orry
if rame
Ġh ad
ĠP arser
add stickers
ca cert
join ed
Ġma intainer
.. .",<
ĠI SO
20 48
33 9
OR ITE
'. ",<
Ġ'% (
== >
Ġparser s
SH E
Ġback port
rel ated
On ce
Ġcopy ing
ðĿ ĵ
QU ERY
à´ ¨
API View
Ġsign ature
oper ate
FED S
ĠDESTROYER event
ĠCOSMIC event
Length Validator
Ġ"ðŁ ħ
Ð°Ð ²
ãĢĢ ãĢĢ
}] ({
GA IN
ĠCONT ENT
incip al
ĠEl lipsis
) ],
) })<
7 20
7 27
D H
M aker
R PAREN
R PC
W B
k SSLProtocol
u h
æ ´
at ar
al ic
ge o
Ġf ake
__ }
__ ')<
Ġc pp
Ġb ul
qu it
Ġres ume
ĠS y
to uch
Ex tract
mo us
im ator
ĠA b
15 6
13 05
cre ts
Lo aded
ant ic
90 7
Or acle
trans lation
Ġj am
0001 00
color ama
IG N
Cache Control
As ia
Ġmy py
Ġac counts
Ġtok s
velo per
Ġtransform ers
Argument s
Me tric
âĶĵâĶĵ âĶĵâĶĵ
gl ance
CHA CHA
LANG U
Ġexpi re
Ġautomatic ally
cvt Color
âĶĵâĶĵâĶĵâĶĵ âĶĵâĶĥ
) }</
* "<
5 80
6 75
B an
G reek
P ower
U GH
n args
v list
Ä į
é ¬
de vices
Ġ" )"<
Ġre str
Ġre wards
Ġc la
Ġnot hing
set Frame
Ġa ren
po sed
im write
ST ATE
Ġ4 4
Ġpl an
Ġ8 1
Ġan on
iv y
Ġ7 8
Ġadd er
Ġbot tom
ĠH ER
46 2
tok s
Ġquery set
Ġroot dir
HE IGHT
gener al
Invalid Error
Up grade
Ġtar obj
ĠSt ack
IM AL
Ð» Ð¸
Ġblacklist ed
ĠEX TRA
Ġtor net
LD FLAGS
ï¿£ )
kang sticker
Ġproper ly
1 00001
3 00001
3 00002
= '),<
D el
F ONT
G radient
N egoti
R ot
T X
d ana
p lease
s izes
w intypes
x BA
Ì ģ'),<
Ù °'),<
à ¦
ð ª
Ĵ '),<
ĵ '),<
on na
Ġf ree
Ġin complete
Ġret rie
Ġs list
Ġs ay
ad v
Ġc adata
Ġw ent
Ġw inter
(' $
ack slash
ag ger
ri ch
ib ackslash
Re ference
user bot
Ġde mote
xF BA
ind ustry
ĠM an
comp arator
IN CREMENT
bo m
ĠU P
Ġk v
ĠF ailed
Ġbe g
ĠN T
ĠN UL
[: ]+[
ak a
LE VEL
AL PN
ãĥ ķ
ãĥ ł
26 6
CA A
be am
Ġlib c
}) {
Ġmult ibackslash
Ser ies
ðĿ Ĩ
à´ ¾
DIST ANCE
Ġlock list
Su bject
Ġav oid
Ø® ÙĬ
pol y
grid Layout
Ġtri ed
Link s
=", ",
bz tar
Ġ"+ _
ðĿħ ĺ
Hash Unsupported
Ġmor sel
Ġcom ma
compil ing
ĠTr ie
vg m
Ġaltern atives
æķ °
chal lenge
à¨ ¼'),<
âĢ² âĢ²
ĠProxyScheme Unsupported
chron ize
ALI ASES
MOD ULES
) ],<
* ",
A ng
A CCESS
E MAIL
S ys
_ {}
f rozen
Â ł
Ġ Result
re late
re view
Ġ" }
ut ter
Ġa ws
Ġh key
pro viders
ic as
Ġ2 7
ĠM usic
temp erature
Ġ{} ).
AL CHE
imp licitTag
37 0
ĠDistutils InternalError
Ġdis aster
Ġexec uting
Ġsend Message
Ġload s
ĠDE F
ĠConfig Parser
ĠApp Config
under line
Resource s
Ġ'* ':<
pad y
ĠRetry CallState
àµ ģ
mach ines
Ġbox es
:** \
Ġcom bo
å¤ ©
Ġus able
æĸ ĩ
redact ed
ĠKeyboard Interrupt
ĠAD MIN
Quest ion
ALCHE MY
" '<
' [\
* ").
, "<
6 96
C one
C LU
Y O
] ",<
g mail
k m
s low
y t
Ä Ł
é £
in tr
st ake
ar ation
co in
co very
Ġ_ )
Ġw v
Ġa es
Ġ1 02
Ġco urse
ĠS Y
Ġ2 30
Ġpro vides
11 71
AT URE
Ġbe autiful
ep hem
son gs
open ing
cre dential
Ġcmd class
URL CONF
Ġ"_ ")<
Po ssible
Install er
Al ter
à¶ º
ĠSet uptoolsDeprecationWarning
ä¸ ī
ä¸ Ń
Temp lates
Ġfix er
Ġcli p
äº º
â£¿â£¿â£¿â£¿ â£¿â£¿
Warn Filters
DATAB ASES
Legacy Specifier
ĠOn ly
ĠARCH IVE
Ġpag inate
) $')<
, ):<
9 60
; "<
A mer
A frica
U sed
V ID
f an
i ver
è µ
Ġ' +'
mp ting
Ġf req
Ġf src
con verter
Ġ1 05
iz able
Ġco ords
ĠC P
pre diction
Ġget ting
ĠP LAT
with in
Lo gits
86 0
content types
]) ),
ne ver
"\ [
dest file
position al
Ġj udge
âĶ ³
Path Set
COL ON
AC COUNT
Session Middleware
Add ing
GRO UND
Conflict ed
Ġfunction ality
Common Middleware
Ġmime type
ĠThread Pool
unic orn
DIS ABLE
respon d
ĠFed eration
ENO UGH
Ġconsu me
Ġwinter m
$ $
) ").
- '
: '<
_ (*
j acking
n i
n ce
o v
} ',<
Ġ emojis
ur u
ot ing
co urse
Ġs chedule
Ġdef ects
Ġc file
Ġr ich
Ġu name
(' '.
et ter
do g
ĠC OL
ĠS c
Ġg ray
22 31
22 65
ĠA ss
ĠA frica
time d
16 4
16 8
ail y
DE D
Ġmatch obj
op acity
Ġmax imum
ĠE VENT
ĠW ait
21 22
Ġcheck ing
36 8
ĠV S
br ack
Ġinit iator
UP TOOLS
over lay
Ġexecutable s
Exec utable
App Config
Ġ'" '<
ĠMe dia
Already Installed
Ġpure lib
Ġbank ing
Ġmodify ing
' &
) ("
7 50
8 000
G ood
L imit
N ow
R ATE
S cale
X Frame
] ==
j ump
l ude
o gram
r ss
r si
Ã ĵ
Ø °
è Ĥ
é ģ
Ġ ant
Ġ Resolver
ar ound
Ġ" ðŁĮ
Ġre ached
Ġt ern
lo ud
fi gs
get Name
file types
qu eries
et h
ode lete
res name
Ġd ll
ca ff
pen ded
Ġy aml
ĠM o
kw ds
ec ycle
12 6
Ġ(' \
ĠA cc
time gm
ðŁ ı
pa que
ffect ed
par agraph
Ġdefault Value
Ġfind all
04 2
04 4
work load
post gres
HTML Parser
Wh ich
ET A
As sertionError
Message Middleware
Message Box
âĻ ª
Path Name
hand ling
Ðµ ÑĤ
Ðµ ÑĢ
component s
agent a
Proxy Error
ĠYou Tube
Sh ell
Ġdigest er
+' _
click jacking
Mult ipart
sig ma
Options Middleware
Security Middleware
Program ming
wind ll
Ġcalc ulate
ðŁĶµðŁĶµ ðŁĶµ
avig ableString
Acc um
Django Templates
modific ation
Ang le
XFrame OptionsMiddleware
Ġtern ary
. )
3 647
7 80
; &
> `\<
B ook
C srf
L BRACKET
M LA
O d
U ES
] :\
d V
h z
l b
m agenta
s qu
Ġ ))
Ġ KEY
ro i
ct s
Ġin ject
Ġc word
Ġc ross
Ġ[ *
Ġlo ve
Ġ1 60
ĠĠĠĠĠĠĠĠĠĠĠĠĠĠĠĠĠĠĠĠĠĠĠĠĠĠĠĠĠĠĠĠ ĠĠĠĠĠĠĠĠĠĠĠĠĠĠĠĠĠĠĠĠĠĠĠĠ
pre load
po ssible
ER O
Ġg u
ĠT IME
Ġpre diction
Ġset Default
32 80
12 1
ĠA ES
Char DistributionAnalysis
min ated
ĠB lue
85 0
ĠE ach
AL PHANUM
29 8
Un available
Ġiter lists
first name
56 52
ĠUn recognizedFormat
76 6
ĠR ate
âł Ľ
mod name
MA SK
sum er
Ġlib path
Ġimp licit
quot a
ðĿ Ĵ
200 9
Cre dentials
View Middleware
]* "
crypt o
ĠCH INESE
Ø§ Ø±
ĠUnsupported PythonVersion
At temp
Conflict Error
âĿ Ĺ
sr Window
Ġsdk ver
Ġnt path
SetConsole TextAttribute
******** ********
ĠFrame work
DETECT OR
Ġhi dex
Authentication Middleware
abcdef ghijklmno
("</ %
Ġfactor ial
Temporary File
ĠFlood Wait
getdefault encoding
Ġ"(?: (?:%(
Ġhel per
descend ant
OTH ER
esterday cr
ĠSuccess fully
Processed Dists
Csrf ViewMiddleware
" ")
3 64
F ind
L ATE
g gest
h az
l an
s ites
s pread
y code
Î ¬
Ð ļ
er Blue
de crypt
le aving
mp ermit
ch k
co lour
__ }<
Ġm irror
(" .*
(" =")
Ġw armup
Ġdi dn
[" __
Ġd bl
ca o
Ġg banned
arn ed
sc at
Ġl td
ĠT oo
IN DENT
Ġloc ations
ĠO f
ĠO UT
check er
Ġx code
Ġ3 9
64 4
ns up
ĠRe cursive
List Equal
assert ListEqual
Attribute Similarity
ĠDistutils TemplateError
SH Get
Ġcmd tuples
CA ST
User AttributeSimilarity
den a
Ġdis connect
â£ ·
âĶ Į
Get Short
executable s
parsed Version
ĠOption Parser
Ġremaining Bytes
mis matches
Ġview items
Ġview values
ï¼ Ī
("/ ")<
211 2
)? ').
sn ake
Ġarray oft
REP LACE
Fi re
Ġ'{} .
ĠCO MP
ii i
att ack
ĠÍ ľ
Common PasswordValidator
urlencode d
Numeric PasswordValidator
land marks
ĠDirectUrl ValidationError
ĠUninstall ationError
Folder Path
Predicate Str
Align ment
\(( .+
ĠIMP ORTED
Minimum LengthValidator
PREF ERRED
ĠMSVC Compiler
chive Info
Ġcompil ers
INCREMENT AL
erBlue Text
SHGet FolderPath
UserAttributeSimilarity Validator
GetShort PathName
Ġarrayoft ables
" ([
' |(?:
* ]|
/ ))
F ocus
H OR
L atest
M uted
P unc
S orry
W E
X MLTags
] ":<
l QuotedString
u it
x CF
x CE
x CC
y ml
y mous
Â ¯
Ã ¥
Ð Ĳ
á ĸ
æ ¶
è ī
re Bracket
ar rows
Ġt tl
Ġp ick
as XML
Ġin fixNotation
__ )
Ġs heet
ed Array
li o
(" ```
(" )").
Ġnot Chars
Ġnot chars
pl aint
Ġr par
(' [
ent size
do ffset
Ġas String
Ġd ont
join String
Ġg onna
sg lQuotedString
repl Str
sc ii
=" \
ĠT G
parse Cache
parse All
22 24
22 61
char Range
Ġen closed
Ġpre Parse
Ġset Debug
fix up
.. /
Ġ"< /",
Ġlogg able
Ġmessage box
Ġother dict
Ġother items
Ġfrom Token
Ġparse Fn
with Attribute
match Previous
Parse FatalException
la v
Str s
Ġlist en
parser Element
ptional s
html Comment
Ġmatch Tokens
Ġmatch Previous
Ġhas Ignore
85 7
String Start
python StyleComment
Ġstart loc
Ġdefault value
Ġmax args
max Specified
LO C
strip per
29 7
Un indent
Un bounded
21 33
Ġuse Regex
copy TokenToRepeater
first QuoteChar
HTTP PasswordMgr
io ptionals
sl it
Not Any
parent Children
Command Mixin
level no
Ġdel attr
Ġpa Args
last E
last CR
ĠNot Any
Ġnext loc
Ġnext CR
Ġtmp Exprs
Ġmake HTMLTags
include Match
Ca selessLiteral
Ca selessKeyword
Ġlast E
Ġtf lat
mult ioptionals
Ġop Assoc
={ !
unicode String
Field ParseAction
Match These
]+ ").
Ġinclude Separ
any OpenTag
Ġextract Text
ĠInvalid Marker
convert WhitespaceEscapes
Ġfinal Results
Ġcopy TokenToRepeater
Ġconvert WhitespaceEscapes
Ġtable NameList
rest Of
Ġsuccess Action
Ġselect Token
xD F
posit ive
Ġword Chars
reset Cache
à´ ķ
Ġmy len
Ġcolumn Spec
Ġcolumn NameList
operator Precedence
ĠString Start
dl Name
Line Start
common HTMLEntity
Only At
Ġverify Col
Sub con
Sub Indent
term Name
Ġxml BodyText
ĠIN DENT
Ġap os
ĠparseElement Class
213 4
ĠNo Match
214 7
Close Match
endQuoteChar Len
Ġsample s
Ġfail On
Word End
Word Start
(?:[^ %
(?:[^ *]|
escChar Replace
Ġexception Action
COS X
escaped Hex
escaped Oct
escaped Punc
unquote Results
Ġlanguage s
afk a
comma Item
Peer Indent
âłĢâłĢâłĢâłĢ âłĢâłĢ
java StyleComment
Null Token
ĠLine Start
quoteChar Len
Ġunquote Results
ĠUndefined Comparison
ĠUndefined EnvironmentName
ĠLegacy Specifier
convertTo Integer
yy yy
dbl QuotedString
ĠAL PHANUM
ĠToken Converter
Ġthese Tokens
"/ \*
Ġsimple SQL
Ġkick ed
__' ).__
\* (?!
Recursive GrammarException
ĠconvertTo Date
]+)))* ')
]+)))* ")
\\]|(?: '')
\\]|(?: "")
Go ToColumn
parseElement Trace
ignor ables
Ġins Str
BOO LOP
("(" ).
ĠRev Options
ĠChain Map
'"(?:[^ "\
"'(?:[^ '\
caff old
Accum Names
(".* "):<
ĠRecursive GrammarException
'|(?: %
/)) *")
reBracket Expr
plaint ext
Ġotherdict items
ĠhasIgnore Exprs
Unbounded Cache
MatchThese Tokens
ĠincludeSepar ators
restOf Line
OnlyAt Col
(?:[^*]| \*(?!
escCharReplace Pattern
escapedHex Char
escapedOct Char
"/\* (?:[^*]|\*(?!
\\]|(?:'') |(?:\\(?:[^
\\]|(?:"") |(?:\\(?:[^
"/\*(?:[^*]|\*(?! /))*")
* '
+ )*
- ")<
4 60
9 16
E EXIST
F oo
G IF
N ested
O ps
e h
s d
¤ â£
Ð £
Ġ Ã©
Ġ âľħ
in fer
ur k
as set
Ġs ampler
fi sh
ss ian
", ".
Error Message
fo ur
ĠP I
Ġd version
Ġde velopment
'] }"<
ĠM on
22 50
22 68
22 05
22 08
ĠL INE
Ġun registered
DE VELOP
ans ion
da o
âĸ ¡
ra ft
distribution Impl
imp licit
Ġsub meta
04 1
66 6
Ġzip f
Request Warning
Ġz file
require rs
buffer ing
Ġedit ables
field set
Ġj na
Ġ'- '<
Ġproject s
top level
âķ ĳ
Metadata Provider
UP DATES
Default s
Default Provider
ĉĉĉĉĉĉĉĉ ĉĉĉ
multi path
Ġcontain ed
ÙĨ Ùħ
EA GAIN
pin ned
Ø´ Ùħ
Me di
Ġsym links
sig moid
Null Provider
('" ')<
Zip Manifests
Short Error
Too ShortError
Warn s
Ġmacos version
Ġmacos VersionString
ĠGN U
ĠNull Provider
Circ le
Egg Provider
ðŁĶ´ðŁĶ´ ðŁĶ´
RAN GE
EMP TY
Ġroll back
ĠUnknown Extra
Ġ'.. '
ĠOut Of
ĠWH ITELIST
TextIO Wrapper
Ġear ly
âļł ï¸ı
conver ters
. {
C EL
D NS
J oin
U i
V IDEO
e zer
f number
m argin
Ð ¢
Ð Ĺ
Ð ł
è ¼
Ġ able
al abel
Ġt ra
Ġp key
Ġp fx
__ ")
ext ant
pr inter
ĠP ri
Ġd ammit
ĠD om
ĠD IR
os ite
22 23
22 69
Con tour
Parse d
ine ss
19 88
sub module
)) ]
max imum
ĠRe port
Ġ: ]
ĠDist InfoDistribution
PI O
Base d
ĠĠĠĠĠĠĠĠĠĠĠĠĠĠĠĠĠĠĠĠĠĠĠĠĠĠĠĠĠĠĠĠĠĠĠĠĠĠĠĠĠĠĠĠĠĠĠĠĠĠĠĠĠĠĠĠĠĠĠĠĠĠĠĠ ĠĠĠĠĠĠĠĠĠĠĠĠĠĠĠĠĠĠĠĠĠĠĠĠĠĠĠĠĠĠĠĠĠĠĠĠĠĠĠĠĠĠĠĠĠĠĠĠĠĠĠĠĠĠĠ
Col ors
Ġdis k
Ġat tn
Named TemporaryFile
control s
"), ),<
ĠÐ ±
UP DATE
)] ["
INTER VAL
219 1
ĠJ OIN
ä¸ Ĭ
211 1
custom er
uff t
Ġreport hook
("' ")
Unsupported Operation
attrib s
comb inations
Ġdat aloader
Ġ} [
Ġ{}) '.
ĠAr g
âī Ī
ĠSimple Namespace
deploy ment
Ġsan itize
ĠClose d
resiz able
olo x
RST UV
Init ial
Ġsubscri ber
heat map
Ġexplo rer
Ġland mark
Ġcho sen
+ (\.\
/ (
3 01
4 19
C ast
E urope
c ue
c rc
g p
m ongo
o ctet
t gs
t ip
w alker
æ »
è ¿
ar ams
al a
ce ive
Ġc nonce
and b
un escaped
Ġr dns
ect ure
Ġ1 12
ĠC lass
ĠS hould
to ggle
In completeRead
loc ators
Ġ2 14
Ġ2 53
Ġpre release
ĠA S
20 60
ail ment
Ġca pture
cre te
IT ION
send ing
Ġsh ip
VER IFY
iss pace
CON TEXT
Ġdf temp
MO TE
Ġyour self
BU ILT
Message Handler
âĻ ¡
attribute Value
show info
commit ted
Ġsy n
('/ '))<
[^ %
()) ).
dot env
COL ORS
à¶ ļ
âĹ¼ï¸ıâĹ¼ï¸ıâĹ¼ï¸ıâĹ¼ï¸ı \
Ġ'" ',
ãĥ³ ãĥ
VS InstallDir
INSTAL LER
Ġpur tabed
Record Path
("= =")
ighb ors
colli de
BT N
ĠHook Missing
* ([^
9 22
> :
A Element
B ON
H ump
] ].
b ank
d ropped
g row
h f
j cy
p ho
s pr
v d
æ ¢
Ĥ ¬
at on
at ur
le tes
Ġf avor
di mens
Ġret reat
get her
Ġm u
un ck
con g
data vars
th ar
ag g
ist ant
__( ).
bu mp
py torch
ĠP acker
add Action
Ġ2 60
ĠT reeBuilder
Ġparse date
rc data
Ġk ar
sh ots
ĠIn Table
pa st
19 0
process EOF
Ġcomp type
Ġon clause
Imp ly
ne q
77 77
Not Less
ĠH ave
Ġpar dir
LA P
Text Field
Ġmodule Factory
66 7
download able
Data Ref
Start State
Ġz info
Ġig lob
Ġlast pos
Ġlast Table
Node Details
Config urator
Up Arrow
Ġdst name
This State
â¬ľ ï¸ı
doctype SystemIdentifier
scope s
Ġredirect s
Ġsp in
Mix In
Formatting Element
ĠCF DataRef
Head Phase
language s
xE A
Left Triangle
Right Triangle
Column Group
App end
Html Element
grad ing
Ġsecond ary
REG TYPE
Ġrc dataElements
={} ,
Walker Cache
ðŁĺ Ī
Ġmac ver
suc cesses
Ġinv ite
Frameset Phase
ĠSession CommandMixin
Ġdot ted
PN G
ĠscriptData Double
Math MLA
Loop Counter
Ġ"\" ":<
Recursive TreeWalker
lef tright
Ġxmlrpc lib
IntegrationPoint Elements
AttributeValue State
substit ute
bogus DoctypeState
Ġleaving ThisState
thick ness
SVG Attributes
til s
Converting Dict
ROAD CAST
RCData Rawtext
Amer icas
chk sum
ĠOutOf Data
MathMLA ttributes
D uration
G BA
I A
P kg
b idden
d anish
w as
æ ²
æ ļ
è ´
ê °
de scriptor
Ġ" ("
Ġre use
an i
Ġin verted
Ġs ync
Ġn k
un ity
ap ing
Ġu m
file type
(' ^
lin alg
Ġ1 92
args pec
iz ing
pre par
Ġst orage
() '
ĠM ET
Ġpro gram
IN S
Ġ6 2
ĠB ert
Ġ. ._
16 1
ĠIn fo
cmd line
Ġ4 40
13 0
âĸ ł
Lo gging
Un pack
Ġby pass
Ġby ref
man ual
CO ORD
Ġ[' â
password s
(?: \
mention s
200 5
Ġexp anded
Ġob s
ĠMetadata Inconsistent
separ ators
Ġ|$)(.* )"))<
writel ine
ĠFound Candidates
Ġlook ing
ĠMy SQL
Ab ort
\(( .+?
ĠSM ALL
ffi cient
shortcut s
Ġretrie ve
: \\
< =
D rop
F low
G ER
H o
I mg
S ide
T AB
] }"<
b ash
f log
m utes
p print
x er
x enial
æ Ľ
or i
Ġre call
Ġf f
ch id
def inition
di d
Ġs cheduler
Ġm usic
od o
th en
th rough
Ġ1 99
Ġdi ag
lib python
ĠS QLAlchemy
Ġst udent
qui ck
cod able
ĠB asic
18 1
for ge
19 20
ĠN EA
IT ER
29 9
Ġopen string
Ġle ad
Ġ(" _
status admin
ĠCo okie
Ġext ended
Ġcall ing
Command Error
Ġnet mask
left most
idx s
MENT ION
ir ing
ĠQt Core
ĠURL Fetch
Robot o
ĠEx p
mat mul
ĠCF Dictionary
ĠChat BannedRights
character Tokens
startTag Handler
æľ ī
second val
Ġdetect ed
Fetch ing
ĠAbstract Distribution
mot es
Ġhigh light
Ke ys
ĠAppEngine PlatformError
Ġpref ers
' ({
. \<
> [\
B est
F lood
` {}`
l legal
y tes
{ "
Ð ĺ
å µ
å ķ
ç ķ
è ±
Ġ escaped
al one
get header
Ġb n
Ġb key
ĠĠĠĠĠĠĠĠĠĠĠĠĠĠĠĠĠĠĠĠĠĠĠĠĠĠĠĠĠĠĠĠ ĠĠĠĠĠĠĠĠĠĠĠĠĠĠĠĠĠĠĠĠĠĠĠĠĠ
ri cs
ig ure
ĠS H
() )):<
Ġde ad
out f
ĠD ate
ĠT ask
base dirs
Ġlist ed
19 1
DE COD
Ġ4 6
15 2
>@ _
Ġwh ence
13 1
Ġ| <
ãĥ Ł
Ġsh adow
Ġapp s
io us
File Dialog
File Loader
ax es
Base Distribution
Base DownloadProgressBar
44 3
ĠĠĠĠĠĠĠĠĠĠĠĠĠĠĠĠĠĠĠĠĠĠĠĠĠĠĠĠĠĠĠĠĠĠĠĠĠĠĠĠĠĠĠĠĠĠĠĠĠĠĠĠĠĠĠĠĠĠĠĠĠĠĠĠ ĠĠĠĠĠĠĠĠĠĠĠĠĠĠĠĠĠĠĠĠĠĠĠĠĠĠĠĠĠĠĠĠĠĠĠ
88 24
Ġj ar
Ġop List
ident ities
Comp at
Comp are
Ref actor
ãĤ ¿
place s
Ġpri v
Ġoffset s
queue s
ĠCH ANNEL
Ġet ype
Par am
Ġshort ened
ĠÌ Ī
Syntax Error
Boolean Field
COSMIC bot
DESTROYER bot
DAT ETIME
('; '):<
ĠsetUp Class
âķ±âķ± âķ±âķ±
ĠCount er
è· Į
Ġkr aken
ubu ntu
SetConsoleTitle W
ĠArg ument
Refactor ingTool
/ ',<
5 50
: ])
E ast
T C
T Z
c mc
f ront
h old
j ython
u ght
x put
z oom
ã Ħ
Ġ Query
in a
re cursion
er ations
Ġ' ),<
Ġf w
pe ction
ent ion
ent ropy
Ġ1 23
pro blem
ĠS ource
Ġget statusadmin
() )))<
Ġd file
=" ")<
mo ver
bo b
split user
Ġme me
tra vers
Value CallBacks
Ġsup ply
Key CallBacks
15 3
Pro ceed
)) }"<
De coding
SSL Read
SSL Write
exec utemany
77 0
To WaitFor
dev release
org an
Sec Copy
Sec External
Ġcallback s
SET UPTOOLS
ĠDe pendencyWarning
Ġar q
Su ch
Vi olation
over cloud
Ġseen set
Ġseen list
ĠCH AR
Exec ution
ĠIN V
ÑĢ Ð°
ÑĢ Ð¸
Temp o
VAR CHAR
SSLSet Certificate
SSLSet Peer
BACK GROUND
Ġsepar ated
calc size
Ġnt lm
Acct Numb
Security Warning
serv oir
Binary IO
errSSL Closed
errSSL WouldBlock
HTTPConnection Pool
acr it
Mutable Array
AU DI
EXPORT S
periment al
vict ed
tan h
('@ ',
Way ToWaitFor
ĠCFArray Ref
cid r
CacheControl Adapter
ErrorMessage String
Defaults HelpFormatter
SecCopy ErrorMessageString
WayToWaitFor SocketError
+ ))?
: /
F TP
I ron
R ules
W ATCH
s z
t it
v cruntime
w xyz
y e
æ ¸
re store
re moving
st ash
Ġ' ]
le v
al so
Ġ" (*
ro ck
ex tr
Ġs un
Ġc art
Ġb ert
Ġ1 0000
Ġ1 91
ys ical
ĠA C
20 30
ĠB ody
ĠIn finite
num er
map a
ĠW arn
Ġ(" /",
new er
Ġext ernal
ĠR andom
Ùħ Ø¬
To Tensor
Ġ'- ':<
ĠV ideo
gen cy
Image s
Ġreal m
depth wise
Orig in
ĠðŁ §
ĠResponse Handler
flow Error
Ġbind param
." `
sibling s
Ġsepar ators
Max imum
âĶĥ âĶĥ
ĠRem oved
decompress obj
âĸªï¸ıâĸªï¸ı âĸªï¸ıâĸªï¸ı
GOO GLE
ĠSo up
assertIs Instance
Ġimplement ed
Print ableString
Cy rillic
LANGU AGE
$ "<
( ,
- {}
H H
O p
S pawn
U CS
b t
g loggable
h or
p rom
æ ¨
Ġ Results
Ġ artist
de bugging
Ġ( ".
Ġo wo
Ġb a
ri c
__( )
In dices
'] }.
Ġg c
ĠM O
Ġen quote
Ġpre load
nd x
.. ")<
Ġ"< %
ĠA p
base dir
20 35
Ġ3 600
64 5
Ġal ign
Ġcheck out
Ġrange s
PE G
PE ER
Ġzip options
download s
ĠstartTag No
ĠstartTag Input
ĠstartTag Frameset
Pre serve
Ġrev s
Ġclient s
200 3
go al
ĠDe codeError
Ġwork dir
ĠURL s
MD d
Ġexclude d
Head ing
Ġdigest s
Ð¾Ð ¿
Ġli k
rot ation
Lock ed
phone me
Bl ackListFilters
Ġbet ter
ĠstartTagTable Other
stri ctions
SSLGet Negoti
SecKeychain Ref
Bo ard
setUp Class
ĠWh ite
Infinite Types
IPP ABLE
ĠHER OKU
haz mat
âīĪ âīĪ
ĠClosed PoolError
SSLGetNegoti ated
9 19
C LO
M IS
P OSIT
R GBA
S Z
m se
r hs
s ay
v m
Å ł
Ġ âĸĳ
Ġ" ()
Ġre ject
Ġre fs
Ġp open
ch i
__ ']<
Ġs vg
pe ech
ab ly
am nt
ĠS ome
os d
Ġ2 03
Ġl xml
Con sider
RE PO
Ġ(' /
01 4
Ġ4 7
13 7
process Error
su doku
40 6
replace ments
HTTP Adapter
75 4
Ġno ise
Ġhelp ers
pri ority
Bu cket
Ġper iod
Ġinter face
nn l
Model Serializer
200 1
QU OT
Cre ator
bg p
Trans lation
fill value
Ġmay be
ãĥ¼ ãĥ«
Script s
Ðº Ð»
ABC Meta
ãĥ» )
xmlrpc lib
hint s
+\ .\
rolled text
ï¹ ı
WB ITS
urk ish
) [:
8 48
T ONS
a j
c x
f h
g ap
s al
t icker
w ifi
Å ½
Ê Ģ
Ġ âĺ
it ecture
Ġin de
nt o
li ve
Ġh aven
ĠD ialog
mo bile
IN D
Ġloc ated
read me
ac b
pon ent
Ġk TLSProtocol
ĠF ire
ep isode
Ġ8 40
ĠE urope
Ġ: ].
ĠG o
Ġsub commands
Ġinstall ations
ãĥ ĭ
Ġtr ace
Ġ". ":<
ĠĠĠĠĠĠĠĠĠĠĠĠĠĠĠĠĠĠĠĠĠĠĠĠĠĠĠĠĠĠĠĠĠĠĠĠĠĠĠĠĠĠĠĠĠĠĠĠĠĠĠĠĠĠĠĠĠĠĠĠĠĠĠĠ ĠĠĠĠĠĠĠĠĠĠĠĠĠĠĠĠĠĠĠĠĠĠ
fun sc
CE PT
ãĤ »
untime Warning
Ġ-- >
âĻ ¥
aw ay
rypt ed
aceback Type
ater ial
-------- ------
Ad ded
AES GCM
ĠCF Const
Exec utor
HO TO
ðŁĴ Ľ
á´ ĩ
Ġ@_ ('
Custom er
Ø¦ Û
CFArray Append
Array CallBacks
TA GS
CFString Encoding
ĠAL L
gd bye
ĠAuth Info
star map
Ġinterpre ters
('/') [-
Sa uce
kCFType ArrayCallBacks
ĠÐ½ Ðµ
è¡ Į
ãĥĥ ãĥĪ
ĠasciiUpper case
pfp bg
CFArrayCreate Mutable
Alter Field
CFArrayAppend Value
' âĪ
1 00002
1 000004
4 20
4 000001
5 000004
6 000001
7 000004
9 000004
; '
M atcher
U X
b ans
p ats
s lope
s chemas
x ED
y our
® '),<
Ã ģ
Õ ´
Ù ´
ç ĳ
è ²
é º
é ĸ
ì ŀ
ð ¨
Ĳ '),<
Ġ' âĢ
al let
Ġre building
Ġt imer
Ġp bar
ed Encoding
Ġc x
Ġc as
un available
ter ms
ve locity
Ġ1 40
vi dence
'] ),
Ġto Return
0000 17
ĠD EL
char len
ĠL inux
11 29
11 36
Ġurl defrag
Ġ3 60
Ġun bound
ĠN UM
Ġmatch name
85 00000
Ġline ar
Version AlreadyInstalled
eg a
00000 9
00000 12
ra de
ĠW orld
De velopment
ãĥ Ľ
37 5
src file
orch ooser
Ġup grading
Col lection
gra ded
pip eline
ãĤ ¬
ãĤ °
ãĤ µ
Time s
000001 6
ĠInvalid Schema
xFB E
xFB F
ĠVersion Control
Chat Settings
]] ]
Ġproxy Override
xB D
ØŃ Ùī
Ø¬ Ùī
cent age
Client Session
Ġafter noon
ĠSet tings
Ġ"* "),<
210 9
Ġappend Child
trig gered
At tention
à¾ Ģ'),<
Hash Error
ĠContent Decoding
ilent Bar
hot os
tre ated
Ġho pe
assertRegex pMatches
Ver dana
ELEMENT S
Ġrot ation
dating DefaultsHelpFormatter
à½ ±
uv wxyz
FM T
ĠDownloadProgress Spinner
ĠBest VersionAlreadyInstalled
="^ /
COMPI LED
ĠOver flowError
ĠInlineQuery Result
ðĿħĺ ðĿħ¥ðĿħ
Cone cta
CLU DE
Based Compare
ĠMET ADATA
edEncoding Error
ĠContentDecoding Error
BasedCompare Mixin
+ %
6 50
> '.
? ?
A MES
S hould
_ (\
b el
b ian
b isect
k o
l one
n File
r ad
w ho
Ġ Â
in er
in files
re cipe
or ator
Ġ' )[
co pg
Ġs calar
ass ign
Ġw inner
he alth
ip address
Tr ig
do pen
res ses
class name
ĠS W
"] ]<
10 32
ĠT HE
12 48
ĠO bject
Co mm
Value Ex
msg type
ĠN on
** \<
Ġal ist
rst uvwxyz
ĠE mail
ĠW S
ĠW IN
Set Of
ĠG RE
Ġinstall ing
90 2
not ify
dis connected
of ficial
entry points
âł Ļ
Ġsrc dir
connection pool
full path
Sec ureTransport
ðĿ Ķ
200 8
QU E
ud nn
ï¼ ¼
âľ ¨
ĠAnsi ToWin
Query ValueEx
endTag Handler
Ġdocument ation
From Page
Ġli fe
cho wn
ĠDO WN
bet triggers
expression s
Ġqu ant
stride s
AG ES
æ¯ Ķ
ĠAddress ValueError
CPP FLAGS
ungroup ed
Dest ination
pq rstuvwxyz
) ].
- *
> /
C ard
D ropout
V ISUAL
W all
a arch
d uplicate
f requency
f dopen
o U
p ick
s iz
s afety
t el
} [
Ð ľ
× Ļ
æ ¬
Ġ :</
in y
re ach
er minated
en e
en ough
Ġre la
Ġre ally
Ġf our
el ig
ing Circ
ue ur
Ġs al
Ġw hether
ag ue
Ġ1 10
oken v
ĠC r
py file
Ġd a
ub ar
Ġ2 40
ho ver
Ġ"< <
12 3456
Ġ3 84
ĠF INAL
Ġ4 50
ĠE nd
Ġ(" '",
ost er
ãĥ Ĭ
RO L
are n
Ġcall er
train er
Ġ\ '
bl k
Data Loader
CA P
): ].
Ca pture
cor r
URL opener
round s
ðŁĮ ĸ
umb nail
200 4
extract all
Ġro le
Ġreg ular
network s
Ġrel path
Back ed
Sub scription
ĠRE AD
les Bar
alle st
Ac count
TR Y
ĠHash Mismatch
]} ).
men ubar
decl arative
Pri me
Copy ing
Ġdat um
SCRI PTS
hd r
Ġfore ign
vari ance
ĠNull Handler
pot ential
æī ĵ
samp led
ĠBinary IO
Ġstar map
Ġradi us
Ġappe ar
abcdefghijklmno pqrstuvwxyz
scii Cast
Medi um
East ern
ingCirc lesBar
" ;
5 28
9 10
= {}".
A g
A ST
C N
H IT
H EX
M ention
P AD
b cpp
b irth
c ion
c Pickle
g name
g ates
v string
w ildcards
z tar
æ Ķ
ç ´
é «
Ġ( {}
mp loyee
Ġf o
ch art
as pect
pt o
str ained
un ction
un named
un mute
un used
end ers
version predicate
Ġ1 31
Ġdi lation
Ġde ep
our s
10 6
ind ers
sc rolledtext
Ġy ellow
22 54
im ize
Ġout side
install root
Ġversion PredicateStr
la in
DE P
ix CCompiler
15 00
13 12
Ġbuild up
Ġiter bytes
reg istration
â¬Ľ âĢİðŁĵ¶
copy file
ld ap
Action Text
04 5
76 5
Base HTTPServer
mult iline
Ġimp lib
Ġmo ves
ĠRequirement Tracker
Pl us
ĠDis patcher
ob tain
Ġdirect ly
Ġalph as
ĠChat Permissions
Ġminor Version
blue text
prev Num
Ġwhich users
ĠReg EnumKey
214 8
(', ')]<
Channel Participant
Cancel Dlg
dns names
EM B
border width
Pri ce
Dlg Font
éĩ ĳ
â¬Ľâ¬Ľâ¬Ľâ¬Ľâ¬Ľ âĢİðŁĵ¶â¬Ľ
Ġclo ud
Ver ify
altern ation
horizontal Header
Ġ'@ '
ĠVcs Info
ðŁİĨðŁİĩðŁİĨðŁİĩ ðŁİĨðŁİĩ
ĠPRE FIX
ĠBLACK LIST
forc ibly
Ġpers istent
capt cha
Pending Skip
â¬ĽâĢİðŁĵ¶ â¬Ľâ¬Ľâ¬Ľâ¬Ľâ¬ĽâĢİðŁĵ¶â¬Ľ
! "
6 80
B R
M WATCH
V ol
W rong
f em
g ather
j y
l am
u ju
x s
É ´
se crets
re plied
Ġ' :<
Ġre start
Ġf ew
ct e
ct Number
Ġin herit
Ġb anner
(" :")<
es hop
Ġ1 07
iz ip
ĠS m
to Item
qui r
Ġd al
vi r
ay o
Ġl par
Ġv v
Ġset ResultsName
cess fully
ĠA ll
20 26
back port
ðŁ į
ĠIn completeRead
Ġ4 29
temp lates
Ġbase Expr
ph p
Ġ5 2
âĹ ı
rame s
Ġitem seq
]) +
ener gy
HTTP Response
UN IX
File Lines
ĠH ex
level s
ĠĠĠĠĠĠĠĠĠĠĠĠĠĠĠĠĠĠĠĠĠĠĠĠĠĠĠĠĠĠĠĠĠĠĠĠĠĠĠĠĠĠĠĠĠĠĠĠĠĠĠĠĠĠĠĠĠĠĠĠĠĠĠĠ Ġ
User Dict
Ġmust MatchTheseTokens
Ġnamed val
CHECK OUT
any CloseTag
Ġinit ializer
Ġfont size
ĠPro duct
Ġinter section
Auth entic
200 2
ms gs
ish ing
rypt o
}, {
Ġreg istered
ĠX Z
tb z
Ġexact ly
Ġ"{} ".
oper Def
à· ı
Ġdep loy
secure transport
TEMP LATE
Ġaut odelete
ĠAc ctNumber
ĠTrans action
RES ULT
jam in
ĠRequirements File
pun ycode
MON GO
PROCESS ING
ĠSTO RE
Ġ"() ":
Ġinde xb
: *
; "
> âĢ¢
B N
C Version
C RED
C GI
E PIPE
F inalBalance
G Lib
I V
S JIS
W l
Y ES
c StringIO
l ter
n You
t ix
t pretty
x id
} ?
} `",<
Ã ´
Î ®
× ĳ
re ceived
st udio
de mote
Ġ' ]'<
Ġ" =",
ion ic
ut r
ut s
co mbine
Ġs amp
get cw
ext et
set Column
set Alignment
Ġ1 30
ĠC ert
gg reg
ĠS to
add info
ĠD uration
Ġ2 80
Ġl k
ĠT AR
22 60
Ġpro j
Ġen ums
pack ed
bo oks
Ġwith in
ifi lter
col orchooser
') ",<
sh libs
") ),
ST AR
Ġcl uster
Ġbe i
Ġbe low
Ġ4 02
fe e
13 6
Version TypeVar
Ġcur rency
Ġpy file
ĠW e
assert False
21 10
sys cfg
work flow
LI BC
95 8
User String
User List
Ġprocess ors
Ġtf p
block ers
cor ner
batch es
Ġany thing
Ġhtml decode
Ġtable name
ĠUser AcctNumb
Ġwin inst
200 7
Build Meta
non multipart
Const ants
áĦ ĳ
PRE SENT
common Name
common dialog
ĠEx traction
Var s
ĠY O
Ġclean ed
ĠChar SetGroupProber
ĠAs ia
Simple Dialog
Simple HTTPServer
ba seline
Sdk Last
Ġli f
consu mes
313 4
XX X
âĹ»ï¸ıâĹ»ï¸ı âĹ»ï¸ıâĹ»ï¸ı
assertRaisesRegex p
au ssian
ĠEUCKR DistributionAnalysis
Ġuow commit
Mon th
ĠYoutube DL
Sy mbol
ĠPass word
ABCDEF GHIJKLMNOP
748 3647
Editable Info
Ġali en
FillConsoleOutputCharacter A
REAL M
âĶĵâĶĵâĶĵâĶĵâĶĵâĶĥ \
FTP Handler
Iron Python
Ġindexb ytes
CGI HTTPServer
GLib CVersion
getcw db
SdkLast Version
2 128
< %
< <
B IG
D ep
G RA
f get
g on
h u
i or
r nn
Ï İ
â Ħ
re cent
on Download
ar on
al go
Ġre cogn
Ġp df
ch an
as ge
co co
__ '<
00 8
get Attributes
un ge
(" âı
od bc
Ġ1 55
Ġ{ (
Ġde sired
ĠD on
line sep
ĠM enu
22 64
22 94
22 88
20 61
ĠF I
ĠN ow
ĠN ET
Ġal locate
ĠE asy
ĠW ith
Ġle ader
30 2
EL L
PE M
copy fileobj
com bo
ĠUn parsedVersion
Context MixIn
insert Before
Ġdis connected
0001 6
ĠCh unk
block ing
lat o
ðŁĮ Ķ
>" }\
aw s
Ġmo v
hex lify
Ġ"' "
Ġunpack b
Ġstd in
STR ONG
SO LE
211 5
211 9
MS B
ĠEn gine
Ð¾Ð ±
210 2
213 1
213 5
212 4
214 5
CRE AT
Ġauto chat
construct ors
Ġmodi fier
ĠTelegram Client
Ġsn ake
Cho ose
Ġ{}) ".
æŃ £
Ġsatis fies
mess asge
UB LIC
ĠPar ameter
Embed ding
796 8824
Ġ108 7968824
ĠResolution Impossible
âĪ« âĪ«
ĠHE AD
prox ied
AUDI O
]}). [
* |\
+ _
5 22
5 35
9 20
N egativeInfinity
V ICE
W D
Y Y
b right
d aily
i am
} `")<
Ã Ĺ
Ð ¤
æ Ļ
Ġ Qu
Ġs s
ab a
ĠS how
Re al
Ġget env
append s
vi er
out side
Ġ2 41
22 20
22 80
22 34
22 04
22 70
22 44
22 73
32 54
base font
ĠU TC
ĠB o
') ]
ĠF OR
sub query
Di acrit
Ġal t
85 4
Ġpy py
ĠG M
Ġsub secondval
CT ION
ĠH eb
75 2
Ġ[" -
av ail
of lush
order ing
Ġread able
Invalid Marker
ðŁĮ ĵ
ĠPro file
Cre ation
FE ATURE
ĠPython Version
Ġposition al
219 9
arm hf
("/ "):<
ĠJ apanese
ĠChat Admin
ĠðŁ ļ
LAT IN
IFI ED
sn i
Ġsame file
Ġsk i
green let
neg ate
ABI MASK
CONNECT ION
ðŁĶ²ðŁĶ² ðŁĶ²ðŁĶ²
ĠEL FDATA
ĠEL FCLASS
ĠLocal Type
ĠFe ed
ĠExtraction Error
]}).[ ]^({
ĠHeb rew
$ \
' *
9 01
B eg
F ATAL
G RAY
b gs
b key
e very
r sa
s ound
w allpaper
x DE
y cor
{ <
Ñ į
é ĥ
Ġ lin
se ct
ar ia
Ġt ot
Ġt alk
def late
ot ime
id ual
ul ators
set opt
Ġw alker
Ġw elc
Ġdi alog
class property
__( [
to String
per mission
per mute
10 10
ĠM in
22 13
22 40
22 77
22 49
22 35
22 76
22 02
22 91
22 92
22 93
22 72
22 71
22 81
22 43
22 89
22 87
22 09
Ġv ers
Ġpro viders
ĠU ntil
col lapse
Ġun ban
ĠF riday
ph i
FF mpeg
python w
Ġ5 08
Ġcol ons
AL IVE
source forge
pass phrase
Ġdir url
AB OUT
Ar t
author ization
Wh y
Ġread line
mi se
xC B
xC D
PRO TO
PRE CATION
An aly
PO OLS
219 4
219 5
219 6
219 7
219 8
ĠOr der
Ġmon key
restrict ed
sym link
ĠHash Error
Sp an
serial ization
Ġhe uristic
Ġsn ap
COMP LE
Ġaltern ative
vari ants
trunc ated
("= ")<
Dig its
lead ers
})[ {
çº ¿
organ ization
STAR TERS
bgs ound
POOLS IZE
7 29
> ,
A K
D ammit
M emoized
P ur
V A
V oid
W est
_ ][
h an
k it
m appers
t one
v oodoo
Ã ¢
Ñ Ĭ
× ķ
å ĥ
Ġ hebrew
in side
re ject
re ceiver
ur andom
Ġ( )
lo ld
Ġs quare
Ġn a
fi able
Ġb undle
Ġr list
Ġr sa
Ġa fe
Ġ1 04
res pect
Ġcon sider
Ex tras
Ġd path
ĠD ep
ĠM irror
22 90
ĠA ttr
20 12
for k
Ġca used
ition s
SE D
event list
Ġsub dirs
Ġcheck s
title bar
are r
Ġ[" â
78 4
ret reat
iss uer
ren ch
Ġj uju
Ġexec utor
Distribution NotFound
(?: [
EST AMP
contain ers
TE GER
Group Command
Al lowed
Ġglob s
Ġcr ud
219 3
ik an
pol ation
rand range
Next Sibling
ðŁĴ Ļ
IM ESTAMP
custom ize
Ġlay out
NS FW
Ġtor rent
Ġbin ascii
Ġcould n
calc ulator
ket ch
subscri be
Des k
Ġmemory view
bul let
respon ding
à² ¥
à² ł
san itize
ëĭ ¤
Hand shake
Inv ite
ĠWS GI
4 85
4 34
7 28
; ")<
C r
J cy
L a
P HOTO
R untimeError
U ri
W ow
h arr
q r
r ant
u mes
z h
} ]*
Ð §
× ¨
× ľ
Ġ NamedTuple
Ġ ENUM
in Row
in Cell
Ġf oster
as Match
ce q
pt s
Ġs co
ath s
Ġo auth
Ġ< ==>
ers ity
._ -
set Visible
end Name
Ġcon current
ĠC alledProcessError
ĠS HE
user prog
to dict
py venv
() )[
Ġd u
Ġd td
vi ation
ord inal
act ivated
Ġy t
Ġdata vars
ĠT EMP
parse RCDataRawtext
char map
base d
Ġthe dir
build ver
start Name
ĠB U
check s
Ġun load
Ġun buffered
ial FileError
dict Entries
18 7
Ġth ree
ST EM
19 98
sub e
ĠN ormalized
fe rent
par dir
Token Types
Un QuotedState
imp ure
ping Elements
(( ?:
99 99
expected Name
remove Child
pass ive
Ġ[' ']:<
ref use
LA ST
End State
insert HtmlElement
last Node
let te
compat Mode
box H
box v
Ġprocess StartTag
block ed
ĠV i
inner html
Ġextract Metadata
uf b
Ġfull Tree
Comment Type
Ġunpack er
Ad just
Body Context
sign ate
Ġpage s
got Name
APP RO
Ġtree WalkerCache
flush Characters
Doctype NameState
Ġepoch s
Escaped LessThanSignState
Ġob servation
Ġdiff erence
partition s
ĠNode Builder
Dash DashState
Ġpending Characters
REC UR
Full Equal
Non RecursiveTreeWalker
Redirect s
ĠAL LOW
lazy classproperty
Integr al
subset eq
Ġ"</ "})<
ĠElementTree CommentType
ĠCacheControl ler
ĠServer Proxy
ĠStart TagToken
ĠCSV Writer
CONF DIR
Ġserial izers
Ġheading Elements
Ġble u
Ġ655 33
ignoreEndTag Colgroup
Ext File
ĠUnpack er
ĠBackend Unavailable
Ġimplied TagToken
angms d
ĠMem ory
rawtext State
getETree Tag
ĠTree Walker
Ġul abel
quoteAttribute Spec
figs ize
ĠRemoved CommandError
MIS MATCH
ELEMENTS FIELD
quir ks
UNIX CONFDIR
Diacrit ical
Ġfoster Parent
ĠSHE BANG
+ '"
. )"<
4 23
5 36
8 64
> ]
> /<
C ENT
G M
J I
L ambda
Q Widget
a uc
i ved
n est
n lp
p itch
p anel
t gen
u ids
w ide
y hat
Ð ĳ
× ĵ
ç ľ
é ¢
in herits
Ġ" ):<
ch ing
ce d
Ġn m
Ġo ctet
up s
Ġr f
data class
ma int
Ġde coding
out ine
Con tract
pack ager
vent ory
=' ',<
Ġkey name
md b
20 13
red hat
Ġbu g
ĠF actory
par a
En v
Ġ{" $
entry point
Ġup graded
Ġold er
dd ress
âķ ¬
âķ Ĺ
Get FullUserRequest
Ġbyte order
RI ES
ĠK lue
ĠRequirement Command
áĦ Ĵ
mis match
Ġchange log
([' ',
NT AX
REP ORT
Float Tensor
Ġfban time
CONT ROL
comb ination
('.') [-
Framework Dir
Ġdecl arative
ĠHTTPS Handler
Scheme Unknown
âĸĳâĸĳâĸĳâĸĳ âĸĳâĸĳâĸĳâĸĳ
Ġge o
IMP ORT
standard s
Ke ep
ĠSDK s
Compat ible
( (".
( Â´
) ("_
. </
4 27
6 94
D ense
F uck
L K
M ask
S ender
W ant
W ell
i ssion
n f
q a
s hop
x or
¿ âł
Ã ł
â Ĩ
å Ģ
æ ·
ç Ĭ
Ġ Ñĩ
in p
de letes
Ġre ferred
ro gate
Ġin dicate
get peercert
il led
Ġm ysql
(' {
Ġh params
Ġ* ,<
In Table
Ġd ur
Ġg radient
ĠD I
xa vier
ĠM ode
ĠM OD
Ġen force
Ġen crypted
IN Y
IN VALID
Ġpre ss
Ġpre vent
=' \
rect angle
32 00
-- >
size Spec
opt parse
64 2
om i
String Var
count ers
Ġ8 00
max loc
ĠW ITH
test file
Ġcheck sum
Ġuse s
remove Quotes
HTTP Status
Ġgroup ed
Ġ\ .
ĠR un
author ize
plat s
To Codepoint
Named Values
cor relate
VERSION S
âķ Ŀ
Ġallow Zip
Ġchunk size
Chat Members
Ġselect able
Ġgener al
à´ ¤
Ġcolumn span
Al pha
Ac curacy
Skip To
Run ner
balance d
Ġ({ !
TRA IN
direction al
Ġsol ve
Ġmar sh
ĠCre ate
Pair ToCodepoint
Ġhapp en
Ġcrit ic
war ded
ðŁĶ´ðŁĶµðŁĮķâĻĵâĻİâĽİðŁĶ´ðŁĶµðŁĮķâĻĵâĻİâĽİðŁĶ´ðŁĶµðŁĮķâĻĵâĻİâĽİðŁĶ´ðŁĶµðŁĮķâĻĵâĻİâĽİ ðŁĶ´ðŁĶµðŁĮķâĻĵâĻİâĽİ
Ġcla uses
lev ant
! ',
7 23
7 26
7 90
9 40
: ",<
; ',
> }
D atabase
F G
H IDE
P ut
P ART
S plit
U nder
V ault
c ial
h umidity
k ill
n The
t im
} ')
Ã µ
Ã ĸ
å ¸
æ Ĥ
è ĭ
Ġ ValidationError
Ġ Ú©
in ference
st or
st ale
al lenge
ro s
Ġp ull
Ġf rm
def ects
un restrict
ab u
app y
ĠS PA
Ġde crypted
Ġde codable
no me
sp arse
Ġ2 06
ĠT T
Ġtoken ization
ĠA PP
ber os
back bone
Ġ3 02
18 06
OR N
Ġth rough
64 1
Ġ4 43
Ġ5 11
)) (
Ġ{} .
ãĥ ¾
55 6
EX E
new ton
HTTP Exception
000 2
File Cache
77 9
Ġdest file
LA YER
FO LD
Mode Warning
Ġinclude s
Ġ"{ !
âłĢ â£
contain ing
ia omi
â£¿ â¡
ðĿ ĺ
OF T
Bot Commands
Pool ing
ĠUnicode Dammit
ÑĤ Ð¾
over flow
over lap
ĠFile ModeWarning
Ġ"* ",
Ġ"{} "
ðŁĴ ļ
endTag Table
Adapt or
ograph ic
Ġtimestamp s
Report ing
:: /
Ġ"@ "
snap shots
Align Center
Tele tex
Ġ"âĶ Ĳ
speak er
semb le
FOLD ER
" ></
" +"
0 23
5 11
9 15
? ?")<
F X
G oogle
H ar
K ICK
P ack
[ ["
] ',<
d rag
d rivers
f m
k i
s ink
s chedule
t ie
å §
æ ı
Ġ ON
re ceipt
or ical
Ġ' ,<
Ġ' ):<
Ġ" ..."<
Ġ( ('
Ġp code
Ġreturn s
Ġs d
ed Graph
Ġc lock
Ġm al
un garian
Ġ1 52
ĠC andidates
Ex clude
Ġst ill
In ception
join path
ic an
ĠA ttributes
Ġun gban
state ments
64 32
{} ]
main loop
su fficient
point wise
26 34
== =
ED IT
90 4
HTTP Warning
... "
... ",
EE EE
95 4
ĠĠĠĠĠĠĠĠĠĠĠĠĠĠĠĠĠĠĠĠĠĠĠĠĠĠĠĠĠĠĠĠĠĠĠĠĠĠĠĠĠĠĠĠĠĠĠĠĠĠĠĠĠĠĠĠĠĠĠĠĠĠĠĠ ĠĠĠĠĠ
({" _
Len Feature
Ġload opt
Ġsplit str
)" ),
('/ ')[
[^ /
Pl ace
.... ")<
Ġns fw
Ġmulti key
Code s
Link Source
210 5
ï½ Ģ
ðŁĴ Ĺ
endTag Other
ĠReg istry
alt sep
ĠTh ank
Ġconfi gs
increment ing
mut ual
Ġaccept ed
Framework Version
surro gates
ĠAc count
PLAT FORM
çĽ Ĭ
exemp t
CIP HER
Ġpanel B
INIT IAL
Execution Context
ĠCandidates FromPage
/ {}".
7 99
7 39
8 0000
C rop
G ENER
M sg
P IN
P ress
S NOW
Z ero
_ ",<
p v
s jis
w allpapers
x k
} }"<
Ã į
Ä Į
É ª
ì ķ
Ġ âŀ
at ype
me l
me ga
Ġ( ),<
it ed
Ġt e
ch oose
Ġs f
Ġc ycle
Ġo paque
set Horizontal
Ġr ng
lin space
is z
app lications
key log
res istance
pro v
ith read
ĠS afe
Ġget Name
ĠP ASS
ub y
out of
ic i
ew idth
ĠL oose
AT IBLE
start s
Val T
16 3
24 3
64 8
emp loyee
55 7
90 5
copy ing
000 8
we ver
Ġ". %
File Could
Not Be
75 7
75 8
66 9
pi log
ps ilon
gener ation
dd l
Ret ValT
Connection Ref
bar s
Ġq rr
ðŁĵ ĸ
stop s
byte array
Pl ugin
mission Error
Ġ'_ ').
ĠÐ ·
ĠSSL Transport
pk s
ĠEx tract
à¶ »
_. ]+
Sub processError
Ġclean ing
Ġet c
ä¸ į
MS VC
ĠIN DEX
Ġvisit ors
212 6
Ġ'* '<
REP L
SQL ALCHEMY
Ġlower case
Ġdelim iter
æķ ı
Mem ory
Chunk Length
fast a
æł ĩ
gm uted
syn chronize
friend ly
setFrame Shape
áĸ ĩ
travers al
Creation Form
outof data
ĠLoose Version
FileCould NotBe
FileCouldNotBe Loaded
+ "\
+ "'
- ',
5 27
6 85
6 99
7 25
7 86
8 30
9 14
: ],<
B ound
W W
g all
} ==
Ð Ľ
è ¶
Ġ AT
in ho
re boot
st ation
Ġ' )'<
Ġre lay
Ġp f
Ġp en
ch s
lo sses
Ġreturn ing
Ġc irc
Ġc nx
tr anscript
ss ql
ul a
Ġis lice
file data
Ġa ux
app a
ĠĠĠĠĠĠĠĠĠĠĠĠĠĠĠĠĠĠĠĠĠĠĠĠĠĠĠĠĠĠĠĠ ĠĠĠĠĠĠĠĠĠĠĠĠĠĠĠĠĠĠĠĠĠĠĠĠĠĠĠĠĠ
res can
() ['
ĠP a
Ġg zip
=" {
ĠM ongo
20 36
Ġ3 07
Ġ3 08
ST Y
Ġch id
auth url
assert ions
Ġchar m
99 1
ĠH O
Ġser ies
Ġj s
Comp lete
ĠPro gram
Ġsplit s
weight ed
ĠEx ec
ĠEx port
Head ers
DA A
Ġfix t
Ġapi helper
Ġbind params
Ġappro ved
capital ize
COMM IT
ĠTr acebackType
pc build
âĶģâĶģ âĶģâĶģ
ĠFore ign
Ġ'â İ
Callback Query
ASS IGN
pur ge
ĠInsecure RequestWarning
ĠRequirements Conflicted
æĺ ¯
mlentity defs
Ġanaly ze
Fixed LenFeature
Angle Bracket
ĠCHANNEL S
West ern
) ]+)\
+ )',
4 50
5 13
5 23
5 39
6 90
7 60
9 11
9 12
9 21
E MO
R ule
S leep
S OFT
] ;<
_ :<
` ",
b iases
d ados
k Sec
u el
z z
} ))
ç ħ
é ¦
Ġ Ïī
re vert
re ported
er al
de cre
Ġre fer
Ġ( \
Ġt on
Ġt urtle
ch nnl
name nt
ot a
Ġs url
Ġs ibling
Ġs vn
get fed
ab ling
Ġw check
cl ust
is closed
Ġcon version
Ġe victed
Ġres hdr
ĠS um
Ġget userinfo
Ex ist
Ġde clared
per form
per mitted
ĠD URATION
comp uted
iter ate
nd array
12 34
Ġx id
Ġun supported
Ġun mute
') "),<
Ġcl oned
ĠN avigableString
ĠE nc
State Error
Un recognized
50 4
ĠG LOBAL
SSL Copy
Ġim gs
90 3
copy tree
cert data
post fix
LA B
ret val
68 4
Ġerr Sec
MA COSX
Ġig nor
box max
CF Ret
CF GetTypeID
cor n
Ġdf in
Connection Cls
Comp ose
exp ansion
ðŁĮ Ĺ
SU ITES
Message Content
200 6
ating FileHandler
Ġar ia
For ce
ĠSSL Protocol
multi arch
ĠRequest Error
ĠCF TypeID
ĠEmpty PoolError
áĥ ļ
Server Auth
ĠNo WayToWaitForSocketError
Gener ic
ĠTimeout StateError
"^ (
Peer Trust
GRE Y
Ġseem s
ĠConnection Cls
Ġdoct ests
Video Capture
errSSL Internal
CFData Create
Work ingSet
Ġmis c
ĠParsed Requirement
ĠCFString Encoding
SecTrustResult Type
SSLGet Number
Train ed
AltName Warning
Iterator Mapping
("; ")<
Supported Ciphers
ĠAppEngine PlatformWarning
SecIdentity Ref
Sur face
celer y
ç¤ ¾
ï¸ıâĥ£ ",
ĠHeader ParsingError
Sample s
ĠReq FileLines
Ġdam n
Ġkar ma
Ġdead line
ĠEasy Install
kSec Import
SSLCopy PeerTrust
CFRet ain
- '):<
/ '+
5 21
6 95
6 79
7 85
7 40
7 97
9 32
O A
P op
\ (\
e be
k its
n itude
p ag
æ ĳ
ç ±
é ħ
Ġ art
Ġ= ",
me me
de coders
en tr
an ian
un ordered
od ds
Ġh g
Ġcon secutive
Ġe ffect
ace ful
Ġst aking
xF EE
ĠD IST
ĠM ES
Ġse s
Ġme s
col late
port ion
Ġun matched
Ġk ang
ĠF BAN
17 7
14 7
Ġ4 05
Ġch ance
Ġ5 4
âĹ ¡
fil led
29 4
FA C
Ġle xer
ĠG IT
HTTP BasicAuthHandler
Ġtr uth
Ġresponse s
76 2
Ġ[" _
98 4
68 8
den se
FO L
CON ST
CHECK ER
âķ ļ
ĠZ IP
Ð° Ð»
ĠLO GS
à´ ²
à´ Ł
nu cle
bind ings
track ing
ĠInstallRequirement Provider
à· Ģ
Ġmat ri
á´ ı
Ġcor p
Channel ParticipantsAdmins
Ġaccept s
stit ution
Ã³ n
Domain Name
ĠSOCKS ProxyManager
ĠBe fore
ĠMessageEntity Mention
exclus ions
Ġsim ilar
ĠExit Stack
Ġ'` "
ĠPlay ing
ĠWr appedSocket
band width
FR AME
postgres ql
ĠToo Many
Ġ'{}. {}'.
DECOD ERS
Art icle
ĠMessageEntityMention Name
! <
" -
" ")<
. {}.
6 92
6 97
7 24
7 92
7 98
9 17
A Y
H ungarian
K atakana
S ame
S ING
V ery
p assed
Ì ģ
Ø ©
ç ¯
re den
ro red
Ġp mpermit
Ġp aren
co ur
Ġs low
Ġdef ining
Ġc ab
Ġm ag
Ġb us
Ġis ic
pl ural
Ġw erkzeug
cl f
file post
Ġa cross
Ġ1 57
int egr
iz oku
bu sy
ĠS olution
py compile
Ġstr m
ĠP ack
jo y
10 34
Ġg round
=" ")
Ġdata frame
22 00
22 28
Con firm
11 3
St orage
stribut ed
ĠB AN
Ġun ion
Ġun link
') ).
18 10
Ġ4 10
ens ors
Ġ5 8
Ġ5 01
Version Control
tree builders
Ġcomp uter
iv o
send all
AD ING
ãĥ ¬
55 9
Ġ7 2
90 6
Ġ'< /
title s
Ġfiles ystem
last name
68 2
): ',
\\ ',
CF MutableArray
ĠDi r
lat ent
Ent ailment
mi di
mask s
ĠUser Warning
ðĿ Ļ
Ġ"' "<
DS P
Wr iting
Metadata Error
UP LE
`` "<
DB irth
Sub stitution
Ð½ Ð¾
side score
Sh arp
ðŁĴ ľ
prefer reden
Ġtask s
SM ALL
bi di
ĠTele Bot
Ġ40 96
Ġtor rc
Ø¹ Ùħ
åį ģ
Ġut ime
Ġtake while
Ġnt h
ĠResource Finder
ACT ER
blank s
Ġfriend ly
çĶ Ł
Ġsettype flood
trunc ate
pers istent
Ġ'[' :<
gan ization
ĠHA SH
ĠRequests CookieJar
Ġrepresent s
ĠPool Manager
Hi ragana
expi re
pun ct
DN DEBUG
ĠInstallation Candidate
Ġ"=" :<
motion Entailment
Ġsuit able
"+" ".
FOL LOW
Ġisic at
preferreden coding
4 36
4 46
5 91
6 55
6 98
6 93
7 91
9 13
A ux
A vg
B ROADCAST
C AB
N ative
O wner
P S
P arts
R SS
U tils
W XYZ
d anger
m cygwin
n G
n k
r ans
x BC
} *
Ã ľ
Ð ķ
å ¡
å Ļ
ç £
Ġ RO
in secure
Ġi llegal
Ġ' Â
Ġre names
Ġ( _,
Ġt en
Ġp dir
Ġp bot
ex cl
Ġf id
ct l
lo ve
Ġin use
Ġdef n
tr l
get headers
get preferredencoding
Ġm fid
Ġb dir
Ġb ag
es ian
pl ine
is recursive
"< {
Ġ1 88
Ġ1 61
Ġdi git
lib file
fo lio
pro cesses
pre sence
ĠS N
Re verse
Ġl type
11 32
=' +
St amp
error list
ta mp
12 39
col hid
Ġout msg
01 00000
25 00
25 26
') ],<
24 5
sub modules
sub RecCheckList
num ero
log out
xA C
xA E
cs r
Ġan im
Ġ(" -
current Byte
RO ME
ĠCon flict
Ġno va
âĢ ķ
Request Unsupported
ĠĠĠĠĠĠĠĠĠĠĠĠĠĠĠĠĠĠĠĠĠĠĠĠĠĠĠĠĠĠĠĠĠĠĠĠĠĠĠĠĠĠĠĠĠĠĠĠĠĠĠĠĠĠĠĠĠĠĠĠĠĠĠĠ ĠĠĠĠ
ĠĠĠĠĠĠĠĠĠĠĠĠĠĠĠĠĠĠĠĠĠĠĠĠĠĠĠĠĠĠĠĠĠĠĠĠĠĠĠĠĠĠĠĠĠĠĠĠĠĠĠĠĠĠĠĠĠĠĠĠĠĠĠĠ ĠĠĠĠĠĠĠĠĠĠĠĠĠĠĠĠĠĠĠĠĠĠĠĠĠĠĠĠĠĠĠĠĠĠĠĠĠĠĠĠĠĠĠ
User Settings
ow ski
mult ithread
To Read
IG ER
Comp ile
Ġbytes ToRead
)" ')<
setdefault timeout
best audio
Ġ"> ")<
áĦ ħ
Ġdoc utils
Ðµ Ð½Ð¸
TION AL
ob ile
("< ")
Ġlong opt
Ġvis ible
Ġbuffer Offset
Literal s
Sub class
Unicode InputStream
Range RequestUnsupported
platlib dir
212 9
report Character
}' ")<
rpc errorlist
dll wrap
Ġli s
Mo ving
Ðº Ð°
}" ')<
Ġplugin s
Ġvs base
SCRI PT
PORT S
Ġ[{ "
buffered Character
Ġinc dirs
anon ymous
Ġ'| '.
âĸĦ âĸĦ
ĠUnknown FileError
Ġrelation ship
chrome driver
ĠBackend Invalid
ben chmark
ĠVAL ID
Ġlat ent
Ġreference d
authentic ate
ran lib
POL Y
ĠStack Error
Ġbeg inline
jump To
Which Users
RSTUV WXYZ
Spawn Dialog
ĠForeign Key
ASSIGN MENTS
OA EP
ĠDir Info
reportCharacter Errors
) **
+ )-
- (\
4 17
5 00002
6 91
7 00002
8 00002
9 18
9 00002
= ([
E p
H igh
L ik
N ON
N egative
N SM
Q RSTUVWXYZ
R atio
S acr
T I
X MLTreeBuilder
b la
d as
g nore
w ed
} }<
¡ Î¹
¢ Î¹
£ Î¹
¤ Î¹
¥ Î¹
¦ Î¹
§ Î¹
µ '),<
Ä °
Ì Ģ'),<
Ï Į
ä Ģ
ç ·
ç Ģ
è §
è ¬
è ĵ
è ĺ
Ġ )))
ł Î¹
re pe
st retch
de coding
Ġ' ðĿĨ
Ġ" :<
Ġp ixel
Ġp aste
ct o
Ġin secure
__ \
Ġs ci
Ġs croll
get pass
Ġnot ice
Ġr atio
(' **
data frame
ack up
lin er
pro ved
pre condition
am ond
gg ers
ver ifier
Re curse
te q
Ġst ale
() (
Ġde ci
xF ED
Ġ2 36
Ġ2 70
ĠM emoized
RE type
11 0000
Ġset ter
Ġ6 6
read s
ĠI mport
min Elements
Element NS
20 39
ĠB LUE
ðŁ ħ
module name
18 80
rc vd
], [
Ġsup pressed
ST ONE
eg o
Ġend line
call y
50 8
ĠG AME
replace With
De ep
]) +"
ãĥ ¤
ãĥ ¯
ãĥ ı
ãĥ Ķ
ãĥ ļ
26 0
Ġ7 7
select ors
ĠH KEY
Ġnode Name
Ġdest fp
46 6
66 00000
Qu ick
cr aping
ĠĠĠĠĠĠĠĠĠĠĠĠĠĠĠĠĠĠĠĠĠĠĠĠĠĠĠĠĠĠĠĠĠĠĠĠĠĠĠĠĠĠĠĠĠĠĠĠĠĠĠĠĠĠĠĠĠĠĠĠĠĠĠĠ ĠĠĠĠĠĠĠĠĠĠĠĠĠĠĠĠĠĠĠĠĠĠĠ
ink owski
RA brack
No Recurse
Ġ"{ :.
ãĤ ¨
ãĤ ª
ðŁĮ Ĵ
ðŁĮ ĺ
000001 3
000001 7
xFE F
ĠDE VELOP
Ġ"` âĹ¼ï¸ıâĹ¼ï¸ıâĹ¼ï¸ıâĹ¼ï¸ıâĹ¼ï¸ı\
PA CE
active Spinner
xFB D
ÙĬ Ùħ
ÙĬ Ùĩ
ØŃ Ø¬
auto commit
auto gui
áĦ Ģ
áĦ Ĥ
áĦ ĥ
áĦ Ĩ
áĦ ĩ
áĦ ī
áĦ ĭ
áĦ Į
áĦ İ
áĦ ı
áĦ Ĳ
ĠÐ ¸
000000 9
," ")<
ÙĦ Ùī
]* ?
Ø® Ùī
Ġnull count
ĠChat s
Ġtri ggers
success or
Add Field
startTag Head
ĠÌ Ķ
Ø´ ØŃ
Ø´ Ø¬
Ø´ Ø®
á´ Ģ
Less RAbrack
Ø¨ Ùħ
ãĥ¼ ãĥĪ
Syntax Warning
ĠTimeout Sauce
ðŀ ¥
]= ='/
Ġclone Node
Ø¦ Ùħ
Ùĥ Ùħ
Ùĥ ÙĦ
ãĥ³ ãĥĪ
ĠRead Timeout
ĠConfiguration FileCouldNotBeLoaded
ĠSO UR
:` .
Forward NoRecurse
Ø« Ùħ
ĠConnect Timeout
Ġspeed test
Ġ"â ĵ
Ġplist lib
instr len
hy phen
================ ================
Ġphone me
1135 49
ðĿħ¥ '),<
âĹ¼ï¸ıâĹ¼ï¸ıâĹ¼ï¸ıâĹ¼ï¸ıâĹ¼ï¸ı `",<
'ãĢ Ķ
(": ","
ĠBroken Stdout
sli ces
Ġnor med
Decimal Field
Sto re
gues ses
Ġodd backslash
Requests CookieJar
Ġcomplex json
ãĤŃ ãĥŃ
unders core
ĠMor sel
Ġbehavi our
âĶĮ ",<
ĠCOMP ARE
]+)))*') +'"
]+)))*") +"'
â¬ľï¸ı â¬ľï¸ı
Logging Error
CFStringEncoding UTF
Õ´ Õ
ĠChunk edEncodingError
Ġmarsh al
revert Class
ĠEasyInstall DeprecationWarning
ĠMES SAGE
ĠTooMany Redirects
]=='/ ')
ĠBrokenStdout LoggingError
]+)))*")+"' ").
" ?
" [^
4 38
5 44
C SS
C AD
D ut
E very
K ick
P list
Q Q
T ED
] ({
_ ))<
i us
l tr
p addle
Ð ¥
ç «
ç ¬
Ġ ]+
de conv
Ġ" ^
en et
an other
Ġt a
Ġf x
', '.
lo red
Ġc k
00 3
00 10
un able
(" +",
ul n
he ap
(' +',
od b
). "<
pre loaded
ĠS EM
py rogram
Ġget opt
put request
Ġd ashes
10 39
Ġg pg
line Edit
), ))<
Ġ2 35
ĠT here
Ġme mo
Ġun ix
Ġun iform
18 20
18 07
AR G
24 8
14 9
Ġ4 14
temp ts
13 11
13 18
Ġ5 9
Ġ5 18
da a
Ġcol lect
Lo oking
ĠW ill
30 41
]) \
ne ar
SER T
SH UT
Class Error
cy thon
=', ')
vali dated
Chat Permissions
ĠDistribution Version
Bot Command
Candidate Info
Check ed
pk l
Open Stack
à¶ ½
ĠJ oin
Ġchange s
Ð¾Ð ´
pad x
æľ Ģ
Sp am
Ġ'\\ '
ï¿£ âĸ½
du ction
renc ies
Short cut
ä» ¶
SELECT ED
Ġ"\\ ":<
nowled ge
ĠGener al
ĠYoutube Search
Ġflatten ed
Ġtab ulate
Ġocc ured
scat ter
."` '<
ABCDEFGHIJKLMNOP QRSTUVWXYZ
ĠVi ew
* [@
1 22
5 18
5 16
5 19
5 29
5 000
7 93
9 28
9 75
E st
G ES
M Q
P ure
T wo
U LE
_ ')
h ad
n fc
r ar
} '),<
} ")
} [{
× ª
æ Ģ
ì ĺ
Ġ 91
Ġ INFO
de mo
en umerate
Ġ( "<
an ia
Ġf list
co ef
ad am
Ġc m
un o
ap is
ter y
Ġw ew
he uristic
Ġa mp
Ġa pe
ol lower
Ġ1 11
ib org
Ġco s
__( ))<
ĠS ong
to string
() ))
ĠP ru
join s
10 91
10 93
Ġ2 20
ĠT ARGET
22 30
22 78
11 23
11 65
Ġ@ {
Ġ6 1
12 49
12 89
Type Registry
ĠB Z
cur ial
Ġun able
dict s
18 00
24 4
17 72
Ġ4 16
Ġlog o
13 9
13 16
ĠE val
IT ICAL
Ġ(" ".
Ġ(" *",
pass wd
com men
av atar
ĠNot hing
Ġ'/ '.
Ġsend all
Ġact or
âķ Ķ
PA ddress
Ġtable Name
Build Environment
IL LEGAL
ĠDe lete
vc g
Default ed
Ġ... ],
Th in
ï¼ ı
ĠChat Member
ĠApp Data
("- ")
Py Py
visit ed
BE GIN
110 7
ĠTempDirectory TypeRegistry
Ø¨ Ø±
218 4
\. ?\
ĠUN K
iline ar
Wait ing
('" %
Ġban time
orn ada
Ġrand range
ĠDocument Attribute
('.') [:
Ġyear s
pipe s
ĠStream Wrapper
æĸ °
({} ,
è¯ ·
________ ________
Ġvol ume
Ġtho ugh
exclus ion
discord app
firm ware
âĬ ĥ
EXCEP TION
ĠDet ail
REPLACE MENTS
abu vcg
nucle us
ĠSOUR CE
. ")
/ \
B us
C IMAL
D ummy
E qui
F ace
G ATIVE
I W
J ython
K ernel
M i
M AL
Q Icon
R P
T UPLE
a ad
j ify
l z
m fs
n es
n Valid
n Subscription
p as
r g
t cp
x o
¡ ï¸ı
Î ¯
ç ¢
ĉ ĠĠĠ
Ġ RED
Ġre vert
lo l
Ġin p
Ġs alt
ss id
Ġw av
is in
ol ve
um ing
ai ry
Ġco ord
ĠC y
ĠP G
Ġg uid
ĠD ragon
Ġl sb
22 32
Ġpro x
RE E
Ġme ss
20 28
25 4
valid ity
13 4
row id
FA D
EL F
Not hing
ĠH ost
Do es
parent entity
CA g
press ures
Ġact ors
Comp leted
Ġ"_ "
Ġarg v
Ġ'( %
ĠBase Environment
Ġstd lib
Ġplay ers
cap s
desc ending
ĠSet Console
Image Field
Ġ"* ":<
à¸ ĩ
ĠðŁ İ
ĠComp ression
215 3
Ġshort cut
Ġinte rest
212 7
At tempt
bi directional
speed test
'^ (\
åħ «
åħ Ń
ĠUN RESERVED
cancel led
Inter val
compil ation
ven ue
some thing
ĠDirect edGraph
Banned Users
Ġexclus ive
Ġstandard s
Ġ({}) >".
ĠHe al
Ġprob ably
ĠCheck up
("[" )
ĠUFD Adaptor
ðŁŁ §
ðŁŁ ©
MISS ING
difficult y
formLayout Widget
('= ')<
æ° ´
ĠRequiresPython Requirement
ĠCont rol
ĠSc anned
STY LE
! </
) ()<
* =\
, \<
/ ",<
/ ')
/ "+
4 30
4 000
> &
B ERS
C G
C odingStateMachine
E UCT
E motionEntailment
G LOB
K AF
N UN
P thDistributions
T urkish
V Z
_ {}.
b ang
b az
c les
i vi
k l
t m
v ip
} !
} "),<
Ã ¨
Ã ļ
Ð ¦
Ú º
æ Ł
Ġ 92
re et
st akes
ar o
ar z
Ġ" ðŁĶ
Ġ" $")<
Ġre store
Ġ( ['
Ġp fp
Ġp ayment
li kes
il ly
Ġb at
Ġb en
id om
un manage
ror s
set Shortcut
all ing
Ġ[ ]))<
ase d
Ġ1 16
Ġ1 66
che f
Ġe h
inst ead
Re dist
py win
Ġget Document
Ġget Fragment
ĠP et
10 15
Ġl c
Ġl f
Ġl m
Ġl y
parse str
22 10
22 27
22 51
=' $
iter lists
read Plist
ĠA sciiCast
Char SetGroupProber
20 33
20 55
20 34
20 47
20 63
20 57
install dir
Ġpr abuvcg
ĠB ACK
Ġ3 50
16 80
fe Func
Ġmax val
namespace HTMLElements
Ġend rec
SE EK
List ener
Lo w
Ġlink path
Ġsub scribe
De cl
ĠParse Float
== ',
Ġ) [
we akref
File Attributes
Ġmin idom
ĠH REF
Ġelement Class
Ġ{" _
Ġinst cmd
ĠCommand Spec
wh y
NO FOLLOW
HTML Page
Ġnet s
Ġpart ially
socket ios
Ġlib s
eval s
Ġfull path
Ġfinal sub
Ġord ers
Ġwin api
Ġpri ces
ĠK D
hex version
rev ctrl
]] ]<
cent ly
Ġcomment Class
Ġreg paths
cat alog
("< ",
Ġsp atial
mean ing
Windows SdkVersion
Ġfragment Class
Ġref Node
Proxy Lookup
211 6
211 7
rand n
215 4
215 5
215 6
215 7
215 8
215 9
æĹ ¶
213 6
213 7
213 8
ĠUnsupported Operation
inv oke
Ġmat rix
Ġdocument Class
ĠName space
Soup Test
INST ANCE
ĠĠĠĠĠĠĠĠĠĠĠĠĠĠĠĠĠĠĠĠĠĠĠĠĠĠĠĠĠĠĠĠĠĠĠĠĠĠĠĠĠĠĠĠĠĠĠĠĠĠĠĠĠĠĠĠĠĠĠĠĠĠĠĠĠĠĠĠĠĠĠĠĠĠĠĠĠĠĠĠĠĠĠĠĠĠĠĠĠĠĠĠĠĠĠĠĠĠĠĠĠĠĠĠĠĠĠĠĠĠĠĠĠĠĠĠĠĠĠĠĠĠĠĠĠĠĠĠ ĠĠĠĠĠĠĠĠĠĠĠĠĠĠĠĠĠĠĠĠĠĠĠĠĠĠĠĠĠĠĠ
ĠContent Checker
Ġ"@ ",<
ĠNet Fx
oci ation
Work er
tour s
CRT SdkDir
EU CJP
ProgramFiles x
("^ "
Ð¾Ð² Ð°
Ġ'{}' ".
Ġmicro s
NetFx SdkDir
âľłâľłâľłâľł âľłâľłâľłâľł
Requirements Error
ĠREQUI REMENT
âĿ¤ ï¸ı
ĠKe ys
æ¶ ¨
decre f
colhid o
Lik elihood
EUCT W
unmanage able
" ",
> .
? ://
A MS
D P
G ORY
H int
S te
T ile
a ffected
c nn
d rain
e u
h ighest
m ang
n path
o S
r ation
r dns
} ":
} ."<
Î Ń
× Ľ
é Ĥ
Ġ ur
in el
re ferences
on line
at om
sel ist
me ans
it a
Ġt ick
Ġf c
di lation
ed Widget
get Attribute
get Data
get ChildNodes
Ġb py
ul ated
Ġfor c
Ġu nt
Ġu sr
Ġu ptime
ok es
qu or
Ġa i
is index
Ġ1 94
Ġdi mens
Ġh ighest
Ġcon tr
Ġe pilog
ĠP ER
ĠP hoto
init y
'] >
"] /
Ġ2 05
=" /
22 37
22 56
Ġ"< ",<
Char m
Ġx lm
AR SE
Ġal ive
Ġ5 80
23 05
Ġ8 6
Ġ8 7
âĸ ¶
Un ique
Ġ7 9
000 3
Ġver y
Base Model
âł ģ
save fig
"\ ''<
Ġprocess or
top k
pkg util
Ġsearch String
ten ded
Ð¾ ÑĢ
sign up
Ġuniv ersal
ÑĤ ÑĮ
Range Constraint
ĠChar acters
slash es
car bon
sn ips
('_ '):<
edge s
Ġ"& ",<
ãģ £
ĠText IO
232 3
WR ONLY
Product Version
Public Key
We ak
IZ ABLE
)/ (
anel a
ĠUp load
ĠUp datingDefaultsHelpFormatter
BAS IC
bracket s
+) _(\
does n
Ġblue text
Incremental Decoder
Ð¾Ð» ÑĮ
ĠBl acklist
aky ReLU
subord inate
Ð¾Ð¿ ÑĢ
unge on
Desk top
Ġton ight
" //
' '))<
( ())<
* $
. //
3 0000000
C trl
D id
I MetadataProvider
M ute
S ig
T OR
W O
W AT
b anner
b ird
f ort
l Obj
n ge
n loc
r med
t here
Ð ĸ
å ¢
Ġ NamedTemporaryFile
Ġ underscore
de reco
Ġ' ...
Ġre ports
Ġp em
Ġp arg
Ġf ut
co okielib
Ġin cr
Ġn c
Ġm t
Ġb c
un gban
path list
from timestamp
Ġw allet
ok ay
dir index
ol a
app let
art ype
ĠC ho
In str
In correct
ĠP o
Ġfile dialog
Ġto po
ĠD ele
ĠD SP
link path
=" ",<
ĠM ATCH
22 11
22 01
22 18
22 33
22 14
22 29
22 86
22 21
22 55
22 38
22 75
22 96
22 03
22 52
22 74
22 95
22 47
22 45
22 97
22 41
22 79
22 07
22 57
22 53
22 62
ĠL V
ĠL XML
11 90
ĠO ne
req Mac
min i
col lis
20 62
Ġprint Results
Ġun zip
Ġun iborg
Value RangeConstraint
pa ren
19 6
19 89
ans F
LE AR
23 22
23 08
23 06
23 09
Ġ{} !".
max unicode
ĠRe quire
FA B
26 05
Imp Importer
En g
37 4
post er
post Parse
Ġdest inations
Text MessageContent
insert ed
pri v
Ġdis covered
ual VersionConflict
Empty Provider
ĠV ideos
ĠHTTP Handler
Le akyReLU
ĠCol lected
Ġ-- >"
Ġfull Dump
Up dating
Ġfe e
SI X
Ġmo unt
ĠBase Resolver
PRO P
ĠLink Evaluator
sign als
manifest s
ĠFile Metadata
Download er
CS V
ĠJ son
Range s
tg bot
posix path
211 8
ĠComp iler
mon key
Sh lObj
ĠEmpty Provider
ilt In
Ø§ ÙĨ
Ġ": ".
Resource Provider
213 0
circ led
endTag Colgroup
ĠNo Dists
214 6
Ġresolve es
Req Extras
ĠCO MM
Raise d
roll ing
ĠAnd roid
Ðº Ð¸
Ġhe ap
BUILD ER
ĠLine ar
Zip Provider
Ġperform er
111 00000
ĠResource Manager
ĠEgg Provider
Eval uate
ä½ İ
ĠZip Provider
/{} /
Ġtoday cr
Ġ"| ".
ĠContext ualVersionConflict
Ġprov Darwin
~~ ~~
("</ ")
Ð³ Ð´
VO ICE
Ext Type
(\. (
omb ies
Available Distributions
gues sed
Ġpay text
EXCEP TIONS
Ansi ToWin
Ġatom ic
Resources DeprecationWarning
Conecta IT
ĠMOD ULE
+)- (.*)")<
ĠMemoized ZipManifests
* ",<
* (?
- ",<
9 50
= \"%
C lock
G lyph
I CON
I WRITE
L atin
R ating
V Y
d ungeon
f ser
g file
g ai
h key
p db
r is
s ns
t ic
u D
} "):<
} !",<
} ]{
Ã ĥ
â ĵ
ç Ĳ
Ġ embedding
Ġ ceil
re la
Ġ' ...')<
ar ing
Ġre servoir
mp loy
Ġf text
ut ers
ot touch
__ ("
__ "]<
fi s
Ġc rt
Ġb d
Ġb el
un do
es colhido
set Data
Ġr ating
Ġw ell
ol lar
lib ri
ĠC ITY
ma vol
Ġfile mode
ĠD AT
im iter
.. "<
ĠI mp
build ings
18 50
Ġk ivy
85 8
root s
par as
)) ]),<
count ries
count ered
âĸ °
ĠW olf
Ġ7 3
new Name
Ġadd to
CT X
File Wrapper
ie font
Ġpar a
Ġrun Tests
Base Test
58 7
ill ion
Ġpkg name
Ġcopy tree
Test ing
ĠRequirement Parts
Ġreplace ments
Content s
ĠSt ats
Al most
Candidate Result
Ġlet ters
210 7
Ġquot a
der ive
Ġdataset s
US D
mar quee
READ MES
ĠData set
Ġcustom er
Ġdirection ality
RIGHT S
Ġct e
ĠConnection Pool
ĠAbstract Provider
Ġquotes plits
lif ecycle
radi al
ĠDefault Dict
Layer Norm
FOR CE
Clean erBlueText
Mar quee
RET RIES
ĠReccon EmotionEntailment
RD WR
Ġcam era
åĴ Į
prepar ation
ĠSH ORT
Vol ume
Span Extraction
ĠMongo Client
! '<
. (?
7 34
8 19
> !".
? ',
B ag
B LDSHARED
C urly
F SIZE
H ave
K an
L NK
M irror
N of
P hotos
R ed
S CO
[ *]
] !=
a ux
b wf
e qu
g ots
n le
n ort
n iv
n Note
n ETA
p le
t mute
x mp
x CA
| [
Ã Ĥ
Ð ¨
Ð ¯
å İ
å ł
æ Ĭ
è Į
Ġ ceph
in Frameset
in Caption
in ColumnGroup
re lief
Ġi ou
Ġ' '],
Ġself Closing
Ġre process
Ġ( ``
Ġf sen
as Dict
as GroupList
nt ri
Ġs fp
Ġn full
Ġn phases
str ib
00 6
tr f
get current
get next
get previous
get TreeBuilder
Ġb wf
un quoted
rom an
ext fileobj
set Attributes
set Debug
con int
Ġa gency
od ot
version Time
ol ates
Ġ% %
"< !--
key b
). ")<
ĠC R
am i
Ġres pon
ĠS paceCharacters
attr Value
py x
py dist
Ġget next
Ġget NodeDetails
In Attribute
In sertion
() ._
Ġde leting
vi es
no psis
Ġto Item
ĠD one
ĠD emon
Ġ2 26
Ġ2 54
ĠM AC
mo ust
IN CLUDE
dist name
Con t
=' '<
bo xd
unt erminated
Ġout stream
ang rt
Ġfrom Attribute
ĠB le
ĠF ragment
16 9
ĠIn Select
cache str
cache points
// "))
Ġ4 03
temp o
Ġbase names
ns wer
par sl
Ġ5 10
map sto
Ġcur val
ĠRe ply
Ġpy mongo
SE P
List Item
element Class
Ġpack num
input stream
assert Items
host mask
]) :
Ġinstall s
Ġ7 20
Ġbreak Flag
Ġ'\ '"
first StartTag
CO LS
SER VICE
56 01
Ġtag TokenTypes
Not Tilde
Not Square
Not Succeeds
ref actor
Do ing
VER T
delete me
Ġclass Dict
Base Cache
Base Link
Base InstalledDistribution
node Value
Start DashState
let Marquee
Ar abic
Ca ching
He uristic
Ġ& &
entity Length
full screen
full Dump
Ġop c
Ġab ort
Mode Elements
Info setFilter
Ġad option
Ġad doffset
Ġany thingElse
Ġany CloseTag
ĠHTTP PasswordMgr
}) ")<
Table Mis
Node Position
after After
ĠInvalid Proxy
Comment State
original Name
Ġfirst Child
ĠUser Already
Ġjoin user
Ġlevel no
Ġblock info
stop On
ĠBase Cache
clean ed
Content Info
auto increment
auto focus
empty v
ating Locator
-------- --
Ġstop Names
LIST TUPLE
Map Update
ĠString Builder
Ġvali dators
Body Br
Al low
Dist libException
Ġraw text
Ġtree builder
Ġtree builders
Ġoriginal Phase
before Html
Exec ute
term width
Ġexact Node
Ġentity Name
Left Up
Left RightArrow
Environment Error
Right Up
Right Vector
App letMarquee
Keyword State
Entity InAttribute
Resource Finder
Ġws char
startTag Other
ĠCa selessKeyword
System Id
feed ing
SP ARSE
Me ter
tri angler
clone Node
ws char
ĠQ Name
Ġsm tp
Down Left
Down Vector
ĠCandidate Version
Ġkeep dim
alt Glyph
ĠMetadata InvalidError
ĠMetadata Unrecognized
First Child
Foreign Content
inTable Text
[[ ],
har poon
([^ }]*
ĠWindows Error
Public Id
Public Identifier
nested NodePosition
Opt group
Non Pre
ĠDocument Type
ĠLegacy Metadata
ĠConverting Dict
Ġoff enders
Escape StartState
Ð¼ Ð½
dbl ac
Ġ"] ..."<
Web Driver
Fail Action
foreign Object
Tee Arrow
ĠscriptData Escaped
Ġprob able
Ġ"</ "
ĠNORMAL IZED
å¹ ³
Ġmar ket
ĠAfter After
Ġ"\" ",<
ti get
Insert FromTable
Insert ModeElements
expi red
Vertical Bar
sli der
Dig ite
âļ¡ âļ¡
éĩı æ¯Ķ
backslash replace
Serial Number
curly eq
Ġspecial Elements
clearStackToTable BodyContext
Ġvi olates
mlentity replace
sco pingElements
Subset Equal
Superset Equal
fsen coding
launch ers
tool bar
qsl ant
ĠLAB ELS
Small Square
SHE BANG
Ġplan es
Contour Integral
attributeValue UnQuotedState
thar poon
ĠmoduleFactory Factory
leftright arrow
extr adata
ĠGRE EN
ggreg atingLocator
ĠðŁļ «
Ġafe AElement
ĠNormalized Version
[^/ \\
SNOW MAN
entr al
Ġten acity
Ġ("- //
Literals Using
Thin Space
Equi libri
ĠCompression Error
Ġ([' .
mang led
fser rors
fis ht
Nof rames
Ġfsen code
ĠSpaceCharacters Token
Insertion Mode
assertItems Equal
BaseLink Command
TableMis nestedNodePosition
ĠUserAlready Participant
LISTTUPLE FIELDS
AppletMarquee Object
ĠMetadataUnrecognized VersionError
Equilibri um
0 37
5 40
H S
N C
N ormalize
O ff
W T
W EBHOOK
_ ^
b w
c word
e z
n Your
q t
r upt
u ssion
w al
x i
y en
Å ĵ
é Ĺ
ì ĸ
Ġ ;
in n
in herit
de g
de signate
Ġ( ))
Ġp len
Ġp ep
Ġf lip
ing Formatter
ck s
Ġb b
pl ots
cl ub
Ġex ceeded
Ġa way
int ers
Ġh int
text wrap
Ex ceeded
ff ee
Ġde compress
ĠD ATE
Ġy td
Ġv n
Ġv oodoo
Ġpro bs
IN SERT
im db
ĠO ther
ĠU SING
config parser
AR GS
24 59
OR AGE
sub plot
Key Identifier
Ġal ts
python lib
86 5
Handler Stop
De pendencyWarning
27 56
Ġ7 1
Ġ7 77
response s
Ġapp lied
DI VID
tras Candidate
Ġsu ggest
Ġhash func
PY MAL
ible Mixin
Ġop pos
cor ners
Ġcert s
Ent ities
Regex Handler
(** {
ĠBase Reporter
Ġ... "<
ĠEx trasCandidate
à¶ Ń
SO ABI
SO CKET
}. ".
ĠInt Var
CD LL
seek able
á´ ¥
ĠGet FullUserRequest
Down loaded
MIN IMUM
"^ ([
cremental decoder
äº ¤
Ġ99 9
Ġweb site
å¤ §
lp check
Ġpredict ed
ĠCharacter Category
BLOCK ED
Ð² Ð³Ð´
medi an
Ġsec mul
surrogate escape
ÑĨ Ñĩ
Tele gram
SY NTAX
Ñħ ÑĨÑĩ
ENO ENT
met ic
Ð¶ Ð·
ÑĦ ÑħÑĨÑĩ
ĠReccon SpanExtraction
fsen code
ÐĴ Ðĵ
ÐŁ Ðł
Ðŀ ÐŁÐł
Ð¡ Ð¢
ĠSTAT S
Ð°Ð± Ð²Ð³Ð´
Rot atingFileHandler
utter ance
spread sheet
Ðļ ÐĽ
ÐĲ Ðĳ
Ðľ ÐĿ
é« ĺ
ĠDispatcher HandlerStop
Ð¤ Ð¥
Ð¦ Ð§
Ð¾Ð¿ÑĢ ÑģÑĤ
Ðĸ ÐĹ
Eng lish
PYMAL LOC
ÐĴÐĵ ÐĶ
ÐŀÐŁÐł Ð¡Ð¢
ÐĲÐĳ ÐĴÐĵÐĶ
Ð¤Ð¥ Ð¦Ð§
. `"<
7 10
C VS
D em
E t
G n
G ban
H ISTORY
I MODE
P erson
b rc
e ff
g pic
k el
l amb
o ve
o res
p url
r hel
s f
s aving
t v
× ¢
Ġ },
se al
ar c
it ivity
ro wn
Ġf t
Ġf oo
as i
co v
lo ok
__ ),<
__ "]
Ġs b
Ġn md
Ġn Ãº
li ant
ss g
up loader
Ġm b
Ġel m
from hex
Ġu su
con strained
is ys
Ġlo sses
Ġ1 32
int ext
pro gram
Ġco in
chat bot
attr name
Re parse
Ġst and
Ġde activated
ĠD ummy
quest ions
sc i
Ġy esterdaycr
), (
Ġl ate
Ġpro perties
ĠL ET
St age
read ing
AT HER
ĠO R
ĠA I
ĠA gain
ĠB ut
gr p
la intext
sh if
16 5
ĠIn it
19 4
sub st
ĠN ote
CH ROME
Ġal g
Ġal abel
Ġ5 000
Ġpy plot
so lete
Ġ: ",
source file
ĠG PIO
99 0
:// '
CO PY
sl ot
77 5
ĠDistutils RefactoringTool
ĠH acked
75 1
vis or
Id x
Ġnamed Type
field list
MP LI
Ġlib name
Ġlib names
IC ES
inner Board
âĸĪâĸĪ \
âĸĪâĸĪ âĸĵâĸĵ
rt l
Ġfe at
SI MPLI
â¬ľ â¬Ľ
home page
Ġ'_ '
Al tern
ÑĤ Ð¸
Ġview cr
multi ply
Sub scribe
Unicode EncodeError
Can vas
215 1
CR Y
inv itelink
PK CS
CRE ATE
SETT ING
SP R
Mac intosh
)( :
Ġspace s
Installed Candidate
â£¿â£¿â£¿â£¿ â£¿â£¿â£¿â£¿
Ġdisc ussion
lid ers
Sign ature
Ġdat s
cam inho
surrogate PairToCodepoint
Make file
Ġassoci ated
Sur rogate
attach ments
PURE LIB
("\\ ",
ĠAlready InstalledCandidate
Ġdd ps
Ġtrunc ate
ĠInvalidCodepoint Context
Stickers Filters
Ġjudge amount
ĠOUT PUT
Teletex String
WAT SON
DIVID ER
isys root
Reparse Exception
Surrogate Pair
, **
5 10
6 64
: (
M N
M apper
P rag
R outer
\ _
c um
c ust
g as
i ron
l just
n able
u z
y dl
æ ĥ
è į
on update
Ġf old
get total
set t
ass ignment
Ġ[ {}](
ke ts
ect ed
th rows
Ġ1 70
len s
ĠS ave
add Item
Ġde tail
ca file
ON ATION
Ġl ap
Ġen crypt
IN ARY
Tag Set
Ġun register
Ġtext variable
arg parse
OR IG
Ġth ink
ST ORAGE
Ġlog ical
Ġmax length
max split
Ġobj s
86 8
Ġapp lications
Ġbot s
âĹ¼ï¸ıâĹ¼ï¸ı âĹ¼ï¸ı\
Ġrun cmd
âĢ Ŀ
be ing
lang helpers
place ment
Ġ', '
Ġfe el
Ġblock ed
offset s
sticker set
[^ .
à´ ¯
OP TIONAL
Ġ"* ",<
Stream Writer
ĠHTML Page
Ġauto complete
("' ",
Ġsm allest
dash ed
Package s
Document ID
COSMIC Bot
ãģ ¤
çĶ ¨
neutron client
Ġeps ilon
medi um
Ġunder stand
Ab out
ĠSup ports
ĠRequests DependencyWarning
advance d
Ġtho se
guest s
æµ ģ
Incremental Encoder
Ġ"$ "
imag enet
aff inity
Bit String
Ġgl ance
\((.+? )\)",
ĠArgument Parser
ìķ Ħ
punct uation
Ġoppos ite
gettotal refcount
% )
' >
) %
) ".
+ ,
- ')<
. '])<
7 17
7 37
9 85
9 70
D TD
F lask
S lo
^ -
c gi
e rest
h mm
q rt
r ho
s aves
t ensors
} >".
ê Ł
al ter
Ġs ho
fi ers
Ġdef inition
Ġc al
Ġm ssg
set Vertical
ent s
Ġa ix
em antic
Ġ1 35
Ġh um
po ss
Ġor ient
init ions
ĠD rive
ĠT iger
load ers
Con vert
ĠL ast
ĠO K
min imal
ðŁ ĸ
ĠF A
ly rics
14 00
19 70
Ġ4 12
om it
13 8
Ġ8 3
Ġcol ors
vel y
Ġiter ation
55 8
ele v
({ !
77 1
ref lect
ĠH eroku
76 7
Ġcontent Type
LI BD
Ġall files
45 4
ĠstartTag Form
ĠstartTag Col
ĠstartTag Body
ĠstartTag Select
ĠstartTag Script
ĠstartTag Noscript
ĠstartTag Noframes
ĠstartTag BaseLinkCommand
Ġtmp v
vide os
Ġread me
Ġtele graph
ðŁĮ ¹
ĠendTag Br
ĠendTag Imply
Ġ"_ "<
Message s
Ġsocket s
ðĿ Ĺ
Ġ[] }<
Ġmo mentum
ble ms
Def ect
ðŁĵ¶ ðŁĵ¶
ays cale
ob servation
à¶ ¸
rig h
Ð½ Ñĭ
ĠCF LAGS
('- '):<
mem mes
Protocol s
Ø§ Ùħ
wo uld
Ġ'* .
ðŁĴ ĸ
Read Only
ĠST RICT
Ġpop ulate
SSLSet ALPN
BIN DIR
Ġexpression s
kick ed
('" '):<
GR P
ĠAl gorithm
COMP RESS
ĠstartTagTable Cell
MEM BERS
ĠendTagTable RowGroup
ĠTrans lation
BASEN AMES
Train ing
777 000
today cr
Sm oke
ðŁļĥðŁļĥ ðŁļĥðŁļĥ
å¥ ³
åŃ Ĺ
ĠendTagHtml BodyBr
ðŁĶ´ðŁĶµðŁĮķâĻĵâĻİâĽİðŁĶ´ðŁĶµðŁĮķâĻĵâĻİâĽİðŁĶ´ðŁĶµðŁĮķâĻĵâĻİâĽİðŁĶ´ðŁĶµðŁĮķâĻĵâĻİâĽİ âĹ¼ï¸ı\
TITLE BAR
åĳ ¨
('$ $',
ĠstartTagNo Frames
utr al
PROTO COLS
ĠDI RECT
ðŁŁ§ ðŁŁ§
ðŁŁ© ðŁŁ©
LIBD EST
SSLSetALPN Protocols
) !=
+ ")<
: %(
= ?
> .".
C ALL
D b
E Q
F J
G reen
M er
M otion
S ort
V endor
[ ['
] })<
_ /
d ml
i ke
n Thank
r ust
r SA
s liders
t ro
} \\
É Ľ
É ľ
Ñ ĳ
ç ¡
é ¹
ì ļ
Ġ RL
Ġ Ñĥ
Ġ cek
in h
on gs
st ored
Ġi c
al an
al ist
Ġre view
Ġin dividual
Ġs le
Ġs caled
get url
Ġm anga
Ġb igram
age m
set Formatter
(' |
(' ([
(' *')<
lin t
Ġh b
Re ceived
Ġget user
Ġg if
out rows
ule ur
string like
act ors
Ġy olox
ĠM ain
Ch inese
error handler
ĠO F
ĠA verage
Ġpr une
25 12
AR BON
ĠF inish
ST RICT
Ġ4 09
lob ber
ĠRe cursion
lock file
Ġitem getter
ne ighbors
DI CT
are st
76 1
dis covered
74 2
ps i
'\ .
pri mit
mod path
trans actions
ET CH
Ġrev oke
Ent ropy
Ġinter polation
Ġsplit ter
Ġfirst line
Model Admin
Dis count
licit ly
component Values
ĠDo wn
ĠEn abled
Ø§ ÛĮ
dialect s
Read Error
GROUP S
DD L
Ġsym metric
]} ]',<
google apis
perm utation
ĠDownload er
}" >{
Ġdy no
Ġinv iter
anim ated
erc ion
COMP ATIBLE
Long Tensor
gre se
ffff ff
Ġps util
Emo jify
Direct or
åĽ Ľ
Ġedge s
âĢį âĻ
ĠSpinner Interface
ĠThreadPool Executor
ê° Ģ
ĠInlineQueryResult Article
ìĺ ¤
âĸ¶ ï¸ı
Prag ma
ĠRecursion Error
% )",<
' à¾
) ])
* %
* ="
4 15
7 49
C Python
G ID
P ULL
R ULES
T CP
U D
V IO
_ {}".
_ ]\
b um
b ble
b fd
c atcher
f rag
h aps
j wt
l it
n h
s il
v ote
w or
y out
| |
} .")<
Ø ¢
Ú ¯
è °
Ġ che
Ġ Question
on set
at ten
me asure
Ġ' )'),<
Ġ' ðĿħĺðĿħ¥ðĿħ
en ue
Ġ( ":
an ic
def n
as semble
co uleur
str char
and tz
ul ary
ok ed
is lt
ag ma
key gen
if ferent
Ġh is
Ġh xb
lib er
Ġe ver
Ġas plit
Ġ- (
pre pended
ĠS a
ĠM c
22 22
22 63
Ġv t
mo mentum
ĠL XMLTreeBuilder
Ġ6 9
Ġme l
ĠB O
18 23
err able
Ġ4 08
op hase
85 2
Res ize
Ġ5 02
Ġ5 05
âĸ ±
Ġpy autogui
{} ,
ant i
Ġopen strchar
86 7
Ġ7 68
Ġ[' __
DI M
49 4
49 6
49 7
Ġno Value
78 3
47 2
IO Base
Button Callback
Ġ9 22
ateg orical
ĠCol ors
shape s
SU PER
Ġ'( '),<
Ġq r
Chat Invite
rm ul
Ġ"' ",
UP LOAD
Pool Manager
track s
Ġep isode
Ġdate fmt
cd n
à· Ķ
æľ ¬
detect ion
á´ ľ
Ġreport ing
LOG IN
Ġpop ulators
â¢ ¸
ĠCON SOLE
ĠAd am
Ġdump s
([^ \
TA G
Banned Request
spaceCharacters Bytes
Ġ'+ '),<
ĠAc cept
Ġrot ate
bro ker
Ġsol ution
Ġ'âĪ Ĥ'),<
Ġ'âĪ ĩ'),<
ÑĨ Ð°
mag nitude
Ġturn ed
Ġcomb ined
truth s
Ġ$ $$
Connect ed
èĢ ħ
ĠRo ot
Ġlim its
Ġ"? "
íķ ĺ
Ġsamp led
Ġsubsecondval andtz
Ġsco ped
ĠLET TER
% -*
1 000000
7 46
9 29
9 26
J ornada
M inkowski
Q Form
R ID
S OL
W ho
` )
a eb
b ionic
g f
i sed
j inja
k df
m as
m aterial
p icture
u pe
w l
Ã ®
Ê Ł
Û Ĵ
æ º
ç µ
ĳ ",<
se quential
)< /
Ġ' âĿĮ
ar abic
Ġ" =="
Ġre ls
Ġre ceive
ro ps
Ġf get
Ġf utures
def erred
ot icon
Ġo md
Ġb pe
Ġb idi
un g
Ġr ip
Ġr tl
end points
(' &
lin ter
ile nce
Ġh ach
Ġh vac
Ġe yes
Ġres pect
ĠP open
10 35
ic les
line buf
comp ound
comp ose
comp osite
Ġpro ceed
read Stream
ĠA BC
start Action
20 11
tra st
ĠF LO
run nable
ST AND
Ġ4 22
ix or
15 7
ph num
ph entsize
ress or
String Encoder
List View
[- _.]+
FI RST
Ġpos itive
:// ',
Ġconfig ured
not ice
Ġtr iple
000 9
Not HTML
49 2
view items
view keys
view values
Ġ[" /
78 1
74 4
ĠNot A
let ions
31 00
Ġ"- ":
('. ')]<
vid ing
urls afe
Ġ'- '.
RA M
cor outine
Connection Pool
Comp arator
Ġmod s
100 4
Ġlength s
posit ories
Ġro bot
ĠSt icker
ĠCallable Operator
sw ap
bound ing
Su do
Sub LocalType
ĠPip DeprecationWarning
('- ')<
ian a
screen shot
ðŁĴ £
Ġcompat ibility
(", ")]<
Func s
Ġprop agate
àµ Ĩ
ha cluster
Mac Version
jacent TempDirectory
cho sen
ĠModule Type
Finish ed
Rem ote
('.') ))<
preprocess ing
Ġmultip arams
fri ends
Ġ"â ŀ
.]+ ')<
Ġpur ge
Clause Role
REQUEST S
pur ple
WSGI Environment
Has Memoized
à¼ ¼
à¼ ½
moot hing
ĠFe ature
åº ¦
PLU GIN
Ġfeds chat
REST RICT
topo logy
pho ff
Ġlik ely
ĠDOWN LOAD
}== {
ĠDele ted
âĸĪâĸĪâĸĵâĸĵ âĸĪâĸĪ\
QForm Layout
Ġhach oir
" "
( ï¿£
/ {}'.
0 30
5 38
7 22
9 23
9 27
= <
> "))<
C am
D ay
L and
c ri
d quote
h mac
h ha
i adb
l shift
n ick
n Reason
s quote
u ge
w ater
x code
z ed
§ Ī
Ø £
ä ¿
ç ¸
é ľ
Ġ ]:<
Ġ ÑĤ
re dis
Ġ= ',
st ick
ur a
Ġt odel
ex er
Ġs li
Ġc data
Ġo mess
Ġis Unicode
(' ='
ent ered
et ype
Ġ1 22
Ġdi c
Ġh er
lib base
Ġcon chat
Ġco erce
ĠS core
Ġget headers
[" $
() +
Ġde compressed
ca lendar
"] =
ĠD es
Ġ2 12
Ġl l
ĠT H
ĠM ar
ĠM ega
=' %(
md ll
ta u
Char det
20 70
ac celer
Ġ3 05
') ['
') ;<
14 3
Ġnew mode
** :\
Ġhas Pragma
temp ting
num Bytes
par ing
Ġ5 04
LE MENT
da de
Ġ: ],
50 5
Ġspec ifi
CO OK
sys root
Ġ[' \
ie ve
ĠUn ixCCompiler
ĠDistutils ClassError
ĠH ead
39 1
46 9
Ġfound str
76 3
SH OW
Ġarch ives
66 2
Qu al
PY PY
68 1
ĠĠĠĠĠĠĠĠĠĠĠĠĠĠĠĠĠĠĠĠĠĠĠĠĠĠĠĠĠĠĠĠĠĠĠĠĠĠĠĠĠĠĠĠĠĠĠĠĠĠĠĠĠĠĠĠĠĠĠĠĠĠĠĠ ĠĠĠĠĠĠĠĠĠĠĠĠĠĠĠĠĠĠĠĠĠĠĠĠĠĠĠĠĠĠĠĠĠĠĠĠĠĠĠĠĠĠĠĠĠĠĠĠĠĠĠĠĠĠĠĠĠĠĠĠĠĠĠ
94 2
Pre Install
cc up
Requirement Information
issing Warning
(?: _
"{ \
Ġskip per
Ġ-- %-*
ĠPro cessing
Install Failure
Ġtitle s
CC ES
handle Possible
auto req
vs base
ĠDe pendency
Dis abling
ParseResults Equals
âĹ¼ï¸ıâĹ¼ï¸ıâĹ¼ï¸ıâĹ¼ï¸ı âĹ»ï¸ı\
ĠRE SET
pol ling
coerce Key
Par allel
)? (?
à· Ļ
Certificate Ref
IM issingWarning
ĠReg EnumValue
Ð» Ñı
ĠHTML UnicodeInputStream
Ġ"ðŁ Ł
âĸĪâĸĪâĸĪâĸĪ âĸĪ
mar iadb
tri ed
Ġmk temp
construct or
Ġkeep Parsing
++ ")<
cloud linux
gwin CCompiler
Ġpending Encoding
ĠCache Entry
Ġpk cs
IR TU
sdk installroot
Ġct xt
ĠLegacy InstallFailure
ACT ION
Too Deep
Ġregex p
ĠCCompiler Error
Bl ur
buffered Data
ĠSec CertificateRef
Ġconstruct s
Ġconstruct ed
tw ophase
ĠAr chiveInfo
Chunk ed
lis sed
Ġseek able
Errors UCS
horizontal Layout
èĩ ª
Ġbom Dict
spin ners
Ġemit ted
uss y
Cross Entropy
Expand ing
ĠCFDictionary Ref
ĠasciiUppercase Bytes
ĠSW IG
EMB ED
DlgFont Bold
âĹ»ï¸ıâĹ»ï¸ıâĹ»ï¸ıâĹ»ï¸ı âĹ»ï¸ı\
ĠUNK NOWN
RP MS
Ġytd l
ĠAlgorithm Identifier
IRTU AL
4 10
4 28
7 32
7 36
9 25
9 30
9 37
9 39
9 36
H it
L at
P ing
S aving
S trainer
S craping
Z Z
\ ']
_ .__
_ ="
` ,
d z
e os
e ast
h ip
h cp
m and
m gd
n py
v nd
z info
z sh
Ì ¯
è ¥
le af
it z
Ġp ot
Ġf alse
co ol
fi ve
Ġc q
Ġc udnn
ss uer
Ġm uch
un wrap
ap ot
Ġa ug
Ġa uc
iz z
Ġh dr
text variable
ĠC Y
In grese
qui ring
() "
add base
no m
out hern
xd g
wait Key
11 37
Element Role
18 24
18 38
for warded
") (
19 3
ĠN umeric
Ġ4 23
Ġassert Raises
Ġ8 85
AL ONE
ĠW elcome
Ġlink ed
Ġiter ations
50 7
86 1
86 2
86 9
imp lement
ID X
De vice
AD I
55 2
55 3
37 7
UN CTYPE
000 5
CT RL
77 3
75 9
(), '
dis covery
93 1
CA F
68 9
NO TE
be at
Ġab iflags
press ure
ĠHTTP RangeRequestUnsupported
Ġwe ather
RI DE
Ġreplace With
Ð° ÑĢ
ĠLO CK
web hook
Ġ... ,<
mit aka
named Values
Ġpe ek
ĠRE DIRECT
210 6
ĠAs k
Reg ister
Â° )
ĠContent TooShortError
ĠSer ializer
Ġpol ymorphic
Component By
Ġmis sed
âĸĪâĸĪâĸĪâĸĪâĸĪâĸĪâĸĪâĸĪ âĸĪâĸĪâĸĪâĸĪâĸĪâĸĪâĸĪâĸĪ
ifo Queue
Ġadapt or
åľ ¨
Ġve locity
CATE GORY
ìĿ ´
ĠSy mbol
fan ity
lav or
dimens ions
ĠMirror Status
EMO JI
Defaulted NamedType
ĠDummy Connection
Smoke Test
ĠAverage Meter
- ",
. (
/ ').
4 75
5 32
5 14
5 26
5 41
6 78
9 33
9 34
: __
? ",
B ul
C JK
F inal
F allback
H ERS
P i
Q Size
S D
S GD
T ip
T ELL
V pf
V ORITE
W ikipedia
] ))[
b ilinear
e es
f requ
g one
h alf
k le
k SSL
m ero
m anga
s ma
s mooth
t q
u ctions
v z
Ñ ķ
æ ŀ
ë Ĥ
Ġ joint
re curse
re quiring
Ġi i
en ew
Ġre moving
Ġt up
__ ),
Ġs pect
Ġs ound
ad vers
get output
get members
Ġ+ \<
set Window
Ġr ss
Ġr check
he art
Ġex perimental
od s
is c
ag ain
ag gered
able Exception
Ġ1 47
Ġh im
lib Compatible
Re strict
ibut ors
ff f
() })<
() ))[
ĠP AR
"] },<
Ġg ap
ind b
Ġ2 07
Ġl do
Ġvalue func
ĠT y
Ġuser info
Ch ain
im mediate
ĠL ifoQueue
11 00
11 18
iter merged
12 80
ĠA U
ĠA li
ĠI dent
ifi able
wr apping
ĠB ook
01 00
token ization
Value AtIndex
EN SURE
Ġbu ff
Ġmsg pack
Ġk el
Ġk SSL
ĠF ollow
17 3
Ġ4 06
Ġassert ed
Ġattr ib
FA VORITE
warn er
40 3
86 3
iv ersity
ĠG ET
qual ity
SSL Create
SSL Close
SSL Handshake
99 4
90 8
77 4
Not ify
Not Http
Not Chunked
ĠH i
scri minator
48 2
46 8
VER RIDE
78 7
CA LE
'\ \\\
68 7
IO Funcs
Ġ` %
Se q
Ġsa w
={ }<
Ġwrite able
Time Warning
SA GES
norm iecharacter
Ġsplit type
Ġcopy file
Call Error
100 5
exit b
retry able
Ð° Ð½
Ðµ Ð´
aa a
Ġ... <
.... ..
ĠSSL Read
ĠSSL Write
ĠSSL ConnectionRef
Ġeval uator
ðŁĮķ \
Index CandidateInfo
VC R
âľ ¯
Sub mit
ĠY ELLOW
ĠCF UNCTYPE
'( ^
Ġtri ck
CB ox
Ġnorm iecharacter
cal er
ĠResponse NotChunked
DA Y
Byte Ptr
wo ard
ĠUnsupported Extension
IFI CATION
Ġwindow ed
SecTrust Evaluate
FORM ATION
ĠMA G
ĠST ICK
SSLSet Connection
SSLSet EnabledCiphers
SSLSet SessionOption
SSLSet IOFuncs
Gr aceful
ĠLo okup
configure d
ĠEX EC
bs ol
Ð°Ð ¼
Ġmean ing
Copy Data
ĠSystem TimeWarning
CHANNEL S
ĠerrSSL Closed
NAMES PACE
ĠPer missions
OB J
Ġreduce func
CFDictionary Create
bul k
SecCertificate GetTypeID
SecCertificate CreateWith
SecCertificate CopyData
SecKeychain Create
SecKeychain Delete
ĠInsecure PlatformWarning
ĠPool Error
assertIs Not
SecIdentity GetTypeID
SecIdentity CreateWith
*: *
Changed Error
ĠPl ugin
CIP HERS
Ġtrim med
ĠSubject AltNameWarning
FAILED TELL
ĠSK IP
SecItemImport Export
SecTrustGetCertificate Count
SecTrustGetCertificate AtIndex
SSLSetProtocolVersion Max
SSLSetProtocolVersion Min
CFArrayGet Count
CFArrayGet ValueAtIndex
CFStringGetCString Ptr
CFDataGet Length
CFDataGet BytePtr
kCFTypeDictionary ValueCallBacks
kCFTypeDictionary KeyCallBacks
SecTrustSetAnchorCertificates Only
Sys CallError
Used Container
grow ing
SecExternal Format
SSLSetPeer DomainName
ĠBody NotHttp
Want ReadError
ðŁĶ´ðŁĶµðŁĮķâĻĵâĻİâĽİðŁĶ´ðŁĶµðŁĮķâĻĵâĻİâĽİðŁĶ´ðŁĶµðŁĮķâĻĵâĻİâĽİðŁĶ´ðŁĶµðŁĮķâĻĵâĻİâĽİðŁĶ´ðŁĶµðŁĮķâĻĵâĻİâĽİ \
gall ery
ĠSum mary
ĠGIT EE
ĠSN IMissingWarning
ĠHost ChangedError
cently UsedContainer
ìĸ ´
COMPRESS ION
CALL BACK
Vpf mgd
SSLCreate Context
ĠSSLRead Func
ĠSSLWrite Func
SecCertificateCreateWith Data
SecIdentityCreateWith Certificate
ĠBodyNotHttp libCompatible
" @{
) ")
, ",
4 00000
5 24
6 76
6 74
6 58
7 38
8 49
8 43
9 24
C e
D R
F ix
I PAddress
M SS
S LAP
S outhern
b ill
c df
d uce
k en
l able
n I
ª ¨
× Ķ
æ ¿
ç ĵ
ç Ŀ
Ġ 00
Ġ Â´
Ġ ÙĪ
en hance
Ġre build
an alysis
Ġt im
Ġp ools
di an
di ce
ot tie
el ist
Ġc y
get new
Ġm mes
Ġb p
age s
ap l
set SizePolicy
set HeightForWidth
Ġw atch
Ġ[ [<
ack s
Ġ== "
is null
Ġe mploy
() ')<
ĠP ress
Ġd rivers
Ġde n
Ġde dent
Ġde limit
Ġ2 15
Ġ2 08
=" "<
Ġ(' _
ĠA uto
20 24
20 64
ash ed
Ġ3 39
match obj
18 56
33 58
Ġk o
24 67
14 6
ĠN ULL
64 9
Ġ4 11
Ġ4 25
Ġ4 18
Ġ4 17
Ġ4 15
Ġ4 13
Ġ4 26
Ġ4 51
Ġ4 07
Pro blem
([ ]))<
13 00
FA A
warn ed
40 55
50 6
AD IO
ENT RY
75 3
ify ing
Ġtemp erature
av y
ĠR UN
has HeightForWidth
cr ud
54 3
part ment
FO UR
Requirement Command
Connection History
exp lo
top left
âķ ĭ
SA MPLE
Ġne ar
place d
Ġsuccess ors
Ident ifiers
ĠZ ONE
Ġreplace d
gb m
mk time
indent ed
bin s
Ġcolumn Name
ĠÐ »
`` `"<
Check s
ÙĦ Ùĩ
Download s
ĠDo Attempt
Ġinstr ument
Ġvisit or
EA CCES
Ġattribute Value
blue print
Ġscope s
fire fox
car s
Ġ"ðŁ ¤
Ġ"ðŁ Ħ
ĠÌ ĵ
ha ust
Mac Cyrillic
analy ze
ĠLo ss
äº Ĩ
âłĢâłĢâłĢâłĢ âłĢ
LECT ION
XML RPC
Ġinv oke
!! !")<
Ġaio files
ĠFound Links
Ġconstruct or
ä¹ ģ
Ã§ Ã£o
ADMIN S
night mode
RAN CH
eng lish
Incremental Bar
Ġrewind ing
ĠWH ITE
ĠTensor Dataset
ĠVAR IABLE
('~ '),
SIG INT
cipient Info
Ter m
ĠWebDriver Wait
('^ [
setHorizontal Stretch
setVertical Stretch
VIO US
STAND ALONE
getnew args
( ^
( (_
- >
5 33
5 46
6 56
7 12
7 33
8 45
8 41
9 38
9 41
; ").
? (\
A FE
B eautifulSoup
E mit
G MUTE
N ort
P ub
S cheduler
T ell
W orld
] (<
] ]+
d ma
d Attribute
h w
j wal
k t
k lue
p an
r id
r sub
s ane
x lm
å Ĺ
it o
Ġt ent
Ġp ow
Ġf data
Ġin f
__ =
id ade
Ġis member
Ġis olation
pl ane
end headers
con tract
(' `
is dom
is numeric
ol y
able Candidate
pro blems
ĠC alc
pre processor
chat id
Re set
te ach
Ġget all
Ex pi
Ġst able
In line
append able
ĠP LAYERS
Ġde q
Ġde s
Ġde precation
Ġde lold
join ing
"] ),
10 18
10 14
10 19
10 49
Ġg d
Ġg ym
Ġg unicorn
Ġ2 67
Ġl p
Ġen countered
iter ion
Ġurl unsplit
32 52
ĠO ctet
ĠA DD
ĠU ns
ĠU NI
ĠB INARY
Ġ3 38
25 25
25 60
Ġun lock
18 99
18 48
ĠF C
ĠF ield
Ġlist s
ĠIn dent
AN SI
19 8
19 00
19 97
Ġ4 24
Ġ4 80
Ġ4 99
lic ies
Ġ5 20
Ġ5 09
23 8
Ġpack ager
50 2
De posit
FI ED
21 00
context j
context o
55 4
== ",
Ġ7 4
Ġ7 10
99 3
inter sections
Ġfind s
cert ificates
76 9
Ġ\ '%
ĠR untimeWarning
65 4
Ġsrc file
94 3
}) -(?
Ġfont s
Ġutil ities
ĠUser name
100 8
ðĿ ĸ
Const ant
ĠLink Candidate
FB AN
Ġreg ion
ĠEx t
APP ENGINE
Ġsp an
Open SSLContext
Directory Error
mat ri
âľ ¿
ĠPy OpenSSLContext
Ġbg p
Input Peer
Man age
ĠInt errupt
Ø³ Ùħ
Ġappend able
300 2
300 8
Current Version
BUT TONS
dash board
serial izable
åı £
comb iner
10000 000
Min us
SHORT ENER
calc ulate
Don ald
CFString Ref
Ġmultip art
Lock File
ÑģÑĤ ÑĢÐ°
Ġho wever
Ġfore ver
ĠSec ureTransport
Required Mixin
ä½ ĵ
âī ¦
âī §
CFDictionary Ref
Ġrepresent ation
Direct Url
ĠBu ffer
ignor ing
ABCDEF abcdef
ĠEdit ableCandidate
Are a
Ġodd s
Ġprom oted
tit anic
SSLGetNegotiated ProtocolVersion
ĠFeed Parser
èĭ ¥
ðŁĴĹ ðŁĴĹ
Cont act
assertIsNot None
teach er
ĠSecureTransport Context
) ').
+ )"')<
/ .
4 77
5 000011
6 77
6 52
7 00011
8 47
8 44
8 42
8 00011
9 35
: ;
= {})".
B RANCH
C or
F o
F CC
F IND
G it
L imiter
S calar
S ilentBar
T ICK
] >'
b or
b un
s ch
s Mixin
t ts
u F
x ls
| <
® âĪ
¯ '),<
µ âĢ
¿ '),<
Ä §
Í Ĥ'),<
Ö ¿'),<
Û ĩ
á ¾
ã Ĵ
ä ³
ä ķ
å ©
å ¬
ç Ĵ
ç ĺ
è »
è ĳ
è Ŀ
é §
é ½
ì °
ì ł
ħ '),<
Ĩ Î¹
Į '),<
į '),<
İ '),<
ı '),<
se ase
in ator
in active
in planes
Ġi can
Ġre hash
Ġre ach
Ġre motes
ot es
Ġn ek
Ġm io
Ġb att
ab e
Ġ+ ")
set sock
Ġw get
Ġex ports
(' )
(' ('
is lower
Ġ1 06
Ġ{ ':
pro mpting
ver ifiable
Re strictions
te apot
ht tpretty
In secure
qui v
ff n
ĠP ending
10 28
10 53
10 500000
Ġg ues
us able
Ġ2 52
ĠM ore
parse date
comp act
Ġpro viding
Con su
11 73
11 61
iter ations
ure r
min imum
20 90
20 37
20 96
20 98
20 58
20 94
20 88
Ġfrom list
arch itecture
ĠB eg
Ġ3 06
25 65
18 85
18 78
18 8000001
AR Q
group by
ĠF AV
16 2
16 6
16 81
24 71
17 4
17 40
Ġnew p
19 80
19 46
sub req
64 3
Ġ4 21
Ġ4 28
Ġ4 44
Ġ4 31
85 1
85 3
Ġstart Action
Ġ5 27
Ġ5 07
Ġ5 06
LE ADING
23 15
xA D
xA F
Ġ8 8
Ġpy require
00000 6
00000 22
00000 20
00000 24
00000 50
00000 21
00000 49
00000 46
00000 52
00000 47
00000 51
Ġopen arr
Un pinned
[- ]
imp ossible
De compress
net h
ãĥ ¦
ãĥ ĳ
ãĥ Ĵ
EX IT
Ġsh ift
37 8
DO M
UN SUPPORTED
not in
Not HTTP
49 8
ĠH IT
35 00000
post Data
EE F
EE T
78 2
66 8
dis assemble
download er
Qu ant
95 9
47 9
Base Adapter
CA C
68 3
create Parser
ĠKey BasedCompareMixin
Ùħ Ø®
part y
ĠCh inese
Ġ9 00
]+ )",
]+ )',
ãĤ ¡
ãĤ ¦
ãĤ ®
ãĤ ±
ãĤ ½
conv s
Ġresp dig
000001 4
000001 9
SA VE
xFE A
xFE B
xFE C
SU CCESS
Window Size
xml charref
Auth Base
Ser vices
column Name
change s
000000 2
MES SAGES
ĠSU PPRESS
Ġlock able
Th ai
Th ree
ÙĦ Ø¬
fb a
á¼ Ģ
á¼ ģ
á¼ Ĥ
á¼ ĥ
á¼ Ħ
á¼ ħ
á¼ ĩ
Ġ"* .
Ġclear ables
xE B
DA P
Ġ16 384
210 1
210 8
Ġ? ,
lex er
Ø³ ØŃ
Ø³ Ø¬
Ø³ Ø®
PK GS
æľ ¨
æľ Ĺ
uc ation
ĠNo Value
Ġiss ues
214 1
Ð» ÑĮ
med Error
ĠÌ ģ'),<
Ġdetect ion
Url HashUnsupported
Ġent dig
ĠHash Errors
ĠHash Unpinned
STAT I
STAT S
Box Layout
FORMAT TERS
Ø¦ Ùī
Øµ ØŃ
ĠAd jacentTempDirectory
accept ed
MATCH ES
300000 3
Fed Ban
Ġam nt
=[" \']
ãĥĪ ãĥ³
TRA CK
DEV ICE
Ø· Ùħ
Hook sMixin
Øº Ùħ
\' >
STRING BUILDER
ĠStream Consu
Ġdouble quotesplits
.+? )["
æł ª
ç¥ Ŀ
ENABLE D
ĠDirectory UrlHashUnsupported
ĠGener ator
delim iter
ãĤ¯ ãĥ«
ãĤ¯ ãĥŃ
åľ Ł
å¯ §
å± ®
ĠDownloadProgress Mixin
ĠVcs HashUnsupported
ĠMock Request
Ġpub lish
ĠMissing Schema
ĠMissing Hashes
alphabet ical
ãĥ© ãĥł
................ ................
Ø¸ Ùħ
mv t
tile s
Ġmut ually
pha ser
é¾ ľ
lik ely
ĠPlay list
ĠAct ive
æĨ İ
çģ «
æ® º
ĠSTR ONG
blur ring
POOL BLOCK
setIcon Size
Globally BannedUsers
æĮ ĩ
("ðŁĶ Ħ
æĩ ²
à¦ ¼'),<
ĠRate Limiter
WE ATHER
ãĥ³ãĥ ģ
ĠCookie ConflictError
æ¨ Ĥ
Ġurldefrag auth
ãĤ° ãĥ©ãĥł
à½± à¾Ģ'),<
vir ama
ĠRequirementsFile ParseError
ĠYO LO
ĠChatAdmin Required
COMPLE TION
ç· ´
Ġdeci de
ABCDEFGHIJKLMNOPQRSTUVWXYZ abcdefghijklmnopqrstuvwxyz
ĠInvalidProxy URL
ĠNotA DirectoryError
IRTUAL ENV
ENSURE PIP
ĠLookup Dict
ĠIndent ingFormatter
ĠInterrupt ibleMixin
setsock opt
ĠFAV ORITE
xmlcharref replace
ĠStreamConsu medError
.+?)[" \'>
! ":
' },
+ ([
3 105
4 70
5 34
5 31
6 30
? "):<
C RL
F ETCH
G U
N ight
O h
S ending
U DO
] (?:_
a che
a ca
a ac
a ee
b https
c if
c ms
e igen
h vac
i red
k CFStringEncodingUTF
m os
p il
q w
s py
s alt
t ban
x X
Ã ½
Ã ĩ
æ Ħ
æ ĸ¹
Ġ ce
Ġ ENCODING
in ventory
re names
Ġ= '
at i
er ated
st h
or a
de ezer
Ġi ps
Ġ' ']<
Ġ' >'
al ian
Ġf riday
as d
ot f
co uple
Ġin side
__ _
Ġo S
Ġb irth
Ġr r
Ġr set
con sumer
ok cancel
Tr anscript
Ġ1 13
Ġh a
pr incipal
ĠS ent
ĠS cale
Ġget text
Ġget peercert
Ġst ored
Ġst ars
qui vo
ĠP ORT
ĠP UBLIC
init iator
10 37
10 70
10 92
Ġg reat
sc p
sp atial
Ġ2 90
Ġ2 79
Ġdata u
22 46
Ġpre lim
11 66
11 58
Ġset timeout
read fp
12 46
12 59
ĠA mer
20 85
20 80
20 78
20 92
20 82
with draw
ĠB etter
Ġ3 76
Ġ3 53
25 1
EN CY
Ġdo ub
18 32
18 40
18 86
18 28
18 60
18 35
18 76
18 66
18 70
18 47
18 97
18 73
18 94
18 69
18 82
18 53
24 64
24 75
24 88
17 80
") ]
19 30
19 41
Ġ4 20
Ġ4 49
ix map
op List
ME GA
Pro to
13 01
13 42
23 7
23 16
max int
SE UDO
40 8
30 99
ask okcancel
27 28
Imp licitly
Not Valid
Not Modified
ong odb
98 7
vis ibility
CA M
has her
last rowid
97 9
54 2
Ġdis count
Se ed
=[ ])<
NAME D
Invalid Specifier
IS DIR
.* \
lat itude
vali dators
Ġdownload ing
Ġne ither
ĠUser Status
Ġmo bile
gb ans
ĠOption Group
ĠBase Conv
Wr ap
Ġframe work
Line Edit
null able
("< !--
ĠEx tra
=(" ,",
ĠCH UNK
ĠX ML
Count ry
Trans action
ĠChar set
ĠDo Sleep
à· ĥ
Ġred uction
Ġwant ed
213 9
Read ing
214 0
ĠPackage Details
á´ Ľ
Ġ'{} '.
217 1
217 5
216 0
LOG ICAL
Channel Request
Reg ular
Ass ign
Tests From
218 0
Ġarr C
DESTROYER Bot
cen ario
313 0
fban list
Ġevery one
IR ON
ĠĠĠĠĠĠĠĠĠĠĠĠĠĠĠĠĠĠĠĠĠĠĠĠĠĠĠĠĠĠĠĠĠĠĠĠĠĠĠĠĠĠĠĠĠĠĠĠĠĠĠĠĠĠĠĠĠĠĠĠĠĠĠĠĠĠĠĠĠĠĠĠĠĠĠĠĠĠĠĠĠĠĠĠĠĠĠĠĠĠĠĠĠĠĠĠĠĠĠĠĠĠĠĠĠĠĠĠĠĠĠĠĠĠĠĠĠĠĠĠĠĠĠĠĠĠĠĠ ĠĠĠĠĠĠĠĠĠĠĠĠĠĠĠĠĠĠĠĠĠĠĠĠĠĠĠĠĠĠĠĠĠĠĠĠĠĠĠĠĠĠĠĠĠĠĠĠĠĠĠĠĠĠĠ
233 6
Pri v
ĠTr ain
CFString CreateWith
NE ED
("@ ",
Ġest imated
My App
}- [
turn on
CFData Ref
CFAllocator Ref
Sa ved
Ġ'â Ĩ
Ġlater al
Ġ'| '
vertical Layout
omb ie
âĶĢ âĶĢ
Uninstall PathSet
Cap abilities
\((.+ )\
âłĢâłĢâłĢâłĢâłĢâłĢ \
ĠðŁ§ Ĳ
-{} -
reach es
DEP LO
Photos Request
shif ts
SPR ITES
sett lement
ĠCY AN
ĠMAG ENTA
NotValid Error
CFStringCreateWith CString
* ').
+ ')
+ \.?\
- ',<
- ":<
1 104
2 104
5 64
6 70
B n
C URL
C SI
C XX
D er
F BC
F ollow
F rench
G aussian
P in
P referred
R ank
R BRACKET
S peed
S outh
T IMESTAMP
W atch
W here
] ?
l lo
l ash
l br
r ink
r br
s ftp
s caled
v it
x is
} !")<
Ã Ħ
æ ±
ç ¼
Ġ âĢ
Ġ âı
on al
on to
er os
de ad
al arm
Ġre cipe
Ġre parentChildren
Ġp t
co ercion
one y
one Of
get Fragment
il shift
up erset
and s
(" âĿĮ
set Widget
Ġr st
cl amp
he he
Ġa ir
text s
text character
Ġco lour
chat Id
ER IC
ĠS elf
py a
Ġstr anger
add resses
no wait
no check
Ġto gether
10 29
10 86
10 38
10 76
10 74
10 98
10 88
10 89
Ġg ain
sc anned
mo vie
mo vies
11 48
11 72
11 68
11 83
Ġset Name
=' ):<
12 90
ĠO perator
Ġthe me
20 86
20 27
20 77
20 38
20 49
20 75
20 76
20 66
20 74
20 91
20 95
20 93
20 72
20 68
20 97
20 65
20 79
20 71
20 81
20 69
20 67
20 83
20 84
20 89
20 87
ĠB an
25 92
Ġun group
EN CE
18 22
18 25
18 33
18 64
18 29
18 30
18 21
18 27
18 55
18 26
18 90
18 37
18 34
18 77
18 49
18 39
18 36
18 75
18 96
18 46
18 52
18 74
18 91
18 92
18 98
18 95
18 93
18 45
18 72
18 68
18 44
18 31
18 41
18 58
18 79
18 71
18 81
18 54
18 51
18 88
18 42
18 67
18 63
18 57
18 83
18 61
18 43
18 84
18 89
18 87
18 62
18 59
AR IAN
24 85
24 40
24 86
24 80
24 27
24 77
24 60
24 76
24 78
24 66
24 74
24 72
24 68
24 73
24 65
24 79
24 81
24 69
24 63
24 82
24 83
24 61
24 87
24 62
17 20
17 37
17 60
17 74
17 71
17 54
14 01
19 40
19 75
19 44
ĠN ight
Ġhas Content
Ġ5 24
ĠE sc
SE MI
so leted
ĠG F
Ġsub scription
Ġsub mission
21 32
Ġ7 32
ast ers
34 3
UN RESERVED
Ġtr ip
ĠUn iversity
36 00
av n
iss ym
Ġup coming
): (?
ðŁĶ ¥
\\ '
Invalid URL
âĶ £
any where
resol vers
BU LG
Ġsetup s
Ġshow ing
oun ded
â£¿ \
Ġpri ority
Ġpost process
Ġman age
Ġremove Child
long itude
sent s
Ġro uter
xC CA
ĠDe velopment
licit Requirement
ĠFile Cache
cap acity
Ġinsert Doctype
ĠPip Xml
ĠðŁ ¤
211 4
210 3
215 0
215 2
Ġsent ences
âĸĳâĸĳ âĸĳ
212 1
212 3
212 5
ĠNo Op
214 9
Ġmon o
217 0
217 2
217 3
217 4
217 6
217 7
217 8
217 9
216 1
216 2
216 3
216 4
216 5
216 6
216 7
216 8
216 9
rpc Transport
Ø¨ ÙĬ
Reg ression
ĠQ Action
ital ic
ĠCandidate Lookup
+- ]\
218 3
218 9
rx or
Script Maker
Ġhe art
ãģ ¥
232 9
Ġfollow links
('" ')
balance Of
âļ ľ
ADD RESS
Ġus ar
ste in
Abstract Distribution
ĠMulti Domain
Ġho okenv
åĬ Ľ
Ġnest ing
Ġequal s
ĠUninstall PathSet
Ġsubstrate Fun
æī ĭ
Media Photo
Ġcomb ining
cient ific
ãħ¤ãħ¤ ãħ¤ãħ¤
substit ution
çİ ĩ
getdefault timeout
ĠSh ell
Ġtransl ator
Top ic
æ¼ ¢
ĠFill ingCirclesBar
ĠExp licitRequirement
Ġ({} )"<
ðŁĮĵ ðŁĮĵ
Place holder
ĠAsciiCast V
æ¶¨ è·Į
rupt ed
ĠInit ial
Nort hern
SEMI COLON
ĠPipXml rpcTransport
ĠNoOp BuildEnvironment
ĠMultiDomain BasicAuth
& ",
( (),
+ '):<
+ '\
4 35
8 000010
8 0000000
C ols
C ython
D ER
D RAGONS
I COLON
N ee
R ound
S ong
] ][
] :])<
d ual
d lopen
f nc
h ysical
l k
l us
l stat
l relu
m ad
m text
n L
o vn
p rescan
r listdir
s quad
u ary
u crt
v tags
w Attributes
w iki
| $
} (?:\
Ã ¦
× ¤
æ ģ
re pos
on ing
at ivity
de al
Ġ' âĸĪ
le wd
al tg
Ġre initialize
Ġre ceipt
Ġ( .
an ame
Ġp sy
ing re
Ġb iases
id y
Ġnot ation
(' |%
ack nowledge
Ġa head
Ġa chats
od h
Ġdi strib
Ġe or
Ġe ager
Re v
Ġ* _:
ĠP thDistributions
Ġde init
Ġtry Parse
jo ueur
vi sed
Ġto ol
fig caption
ĠM icrosoft
ĠM ISS
22 85
22 84
Ġv id
Ġpro mpting
Ġen joy
RE CE
Ġset opt
St atic
nd bm
ta ched
12 00
ĠO RM
Ġ(' *'
ĠA M
20 6
20 29
ĠB RIGHT
Ġ3 90
Ġ3 52
25 14
25 34
25 56
25 58
25 54
') ]]<
group prober
Ġk size
24 23
AN ESE
DE CIMAL
13 02
tag Implicitly
Ġ5 87
âĹ Ķ
Ġ8 9
Ġ8 27
write str
ĠE very
Ġcol late
ĠW OR
ĠW erkzeug
Ġopen key
30 40
Ġ'% '
xy wh
Ġ(" ",
De leted
net fx
Ġmodel sub
Ġcheck first
99 5
ci se
Ġtr anscript
ĠUn pickle
Module s
Command Spec
site dirs
CA E
ĠR aw
ret ty
Ġ'/ ').
81 00000
('. '),<
Ġnet fx
Pre processor
Se cond
Ġexec path
To Int
IS REG
Comp any
button url
OS C
Table s
untime Redist
000001 8
Ġper f
Up dates
enter ing
rt ld
SI MPLE
unpack ing
charset groupprober
extract Text
Ġ'_ ',
Metadata Handler
web site
With Latest
)] \(\
Ġ... ]]
Ġpo ss
Ġpo licy
([" %
Dist WithLatest
("< ")<
ĠPython s
Ġsp ider
ĠSet FileAttributes
Windows ScriptWriter
distro s
('- ')[
211 3
00011 1
Input TextMessageContent
ĠInt egr
fill na
lex net
ĠWin Term
Ġsent inel
Ġneed les
uc er
214 3
CHAR M
installation folder
("[ %
ĠSequence Likelihood
Ġsym link
'^ [
Ġli ve
Source FileLoader
Ñĥ ÑĦÑħÑĨÑĩ
Ġappro ve
dw Maximum
CONT A
Ġproduct s
GRE EK
Win Dir
Win Style
*\ )",
Ġbox plus
Ġbox mul
([^ ]]+
ĠWindows ScriptWriter
logg ers
Inter section
('" ',
sdk dir
ĠPRO CESS
TS ADI
Ġinv itelink
visual studio
Ġà¶ ļ
SDK Executable
writel n
Separ ator
Ġ"== =
ï½¥ ï½¡
bat tery
PLAT LIB
Fx Tools
MEM BER
Ġsatis fy
ĠRemote NotValidError
ĠÐ² Ñĭ
TRAN S
ĠEUCKR Prober
pot hesis
Ġfig ure
("[" ):<
("[" ).
ĠEUCTW Prober
ĠEUCTW DistributionAnalysis
SY STEM
AP ANESE
*([ -\
Ġxy z
æħ İ
ĠSJIS Prober
ĠSJIS DistributionAnalysis
ĠSJIS ContextAnalysis
ĠEUCJP Prober
ĠEUCJP DistributionAnalysis
ĠEUCJP ContextAnalysis
Ġperms list
è¾ ĵ
ĠMIN IMUM
Universal CRTSdkDir
immutable dict
ĠInstallation SubprocessError
àº ¶
ĠAct or
Ġ".. ",
Ansi Codes
prs Å¡
)?:: %(
)?:: (?:%(
ORE AN
ĠSetup RequirementsError
ĠMac ro
gu ard
âłī âłĻ
RS Åł
ĠSY M
"\[ ([^]]+
Ð£ Ð¤Ð¥Ð¦Ð§
CEL ESS
*([^ )]+)\
Ðĺ Ð
Comm it
birth day
BuildMeta Backend
Ġlif etime
ĠHebrew Prober
Split Result
Inception V
ĠProgram Files
Ġrefer rer
ĠSEM ICOLON
VZ Å½
ĠNamespace dAttribute
Ġforc ex
SIMPLI FIED
RESTRICT ION
Ġdelimit ers
matri xA
](?:_ ?[
ĠAmer ica
Ġdoub t
\((.+)\ )"),
DEPLO Y
ĠEsc CharSetProber
BULG ARIAN
Nee ded
dlopen flags
altg lyph
Ġpsy copg
ĠUnpickle ableException
DistWithLatest Info
dwMaximum WindowSize
SDKExecutable Path
RSÅł TU
"\[([^]]+ )]\(\
" [-_.]+
$ +
$ |
( ('--
( .+
* )?)?
+ ').
+ |\
, ))[:
. )'
: ?\
; </
> ":<
? ()
C up
C LEAR
D iff
D ifferent
E VENT
J ob
L ab
L arge
M al
T an
[ ~
^ ?()
_ .")<
b pe
c lobber
d j
g reek
n ano
p join
r ne
r uby
s range
s ketch
w slit
y olo
| +-
} (-
Ä ĥ
Å Ĥ
Ð Ń
Ñ Ķ
Ö ´
× Ĵ
è İ
é ĺ
Ġ Valid
>< &
>< "\''<
in fixNotation
in AccumNames
Ġ' |(?:
ro us
Ġp b
Ġp hi
Ġp icture
Ġf number
di e
ot ify
Ġin AccumNames
pt mc
Ġs ns
Ġs cientific
get mro
dat as
Ġm i
Ġb w
id a
un mangled
(" ==
ap y
ul ong
from array
from clause
set Row
Ġr ango
Ġw slit
Ġa gg
Ġ1 41
ri bus
class attr
Ġ"\ ''))<
pro fit
Ġas Dict
Ġas XML
Ġ- )",
atch ed
pre vent
ĠS ER
attr Dict
type code
Ġ* /
() ("
() :].
ĠP oint
add Condition
Ġde Emojify
que ens
'] /
Ġto mor
Ġg mute
out tmpl
sc y
xc or
=" )",
=" (",
=" )(
ĠT er
ĠT odo
ĠM om
Ch allenge
22 12
22 17
22 36
22 98
22 59
Ġse quences
Con gr
11 95
Ġset ParseAction
Ġset Offset
Ġset WhitespaceChars
Ġset Break
Ġset FailAction
vent ion
read link
Ġ"< =",
Ġwith Class
Ġ(' &
ity Error
start loc
20 32
20 25
20 31
20 41
20 43
Ġparse String
Ġparse File
Ġparse With
with Class
". *").
check points
check Unindent
check SubIndent
check PeerIndent
Ġ3 80
Ġ3 70
Ġ3 82
ðŁ Ľ
25 10
25 18
25 24
25 64
25 50
25 80
25 55
25 52
25 66
25 02
25 91
25 93
25 68
25 51
25 88
25 67
25 63
25 57
25 61
25 53
25 84
25 62
25 59
Ġun a
Ġun indent
match able
match OnlyAtCol
dict Of
') *%
Parse SyntaxException
Ġk lue
ĠF unction
Str ategy
Ġth ing
Ġnew name
Ġnew list
19 68
sub title
sub plots
DE PRECATION
[: .-
Ġmatch OnlyAtCol
Ġhas keys
Ġbase d
Ġattr Dict
method Call
)) ),
log uru
count edArray
count FieldParseAction
23 10
23 13
da emon
lock er
tin y
result list
29 28
test String
Un matchable
table Name
Ġtest String
replace HTMLEntity
Ġsub entry
]) *").
26 66
26 65
26 06
== =%
Ġcheck Unindent
Ġcheck SubIndent
Ġcheck PeerIndent
Ġ7 00
new axis
Ġnum terms
Ġadd ParseAction
Ġadd Condition
Ġcan ParseNext
UN INDENT
Ġ) ))<
Ġ". *"<
][ %
Ġmin val
Not Equal
39 6
Ġdict Of
Ġ[" ==",
... )"
make HTMLTags
make XMLTags
Module List
tok n
Ġclass attr
array Len
ĠR BRACKET
'\ ]',
Ġup caseTokens
ĠNot es
ĠĠĠĠĠĠĠĠĠĠĠĠĠĠĠĠĠĠĠĠĠĠĠĠĠĠĠĠĠĠĠĠĠĠĠĠĠĠĠĠĠĠĠĠĠĠĠĠĠĠĠĠĠĠĠĠĠĠĠĠĠĠĠĠ ĠĠĠĠĠĠĠĠĠĠĠĠĠĠĠĠĠĠĠĠĠĠĠĠĠĠĠĠĠĠĠĠĠĠĠĠĠĠĠĠĠĠĠĠĠĠĠĠĠĠĠĠĠĠĠĠĠĠĠĠĠĠĠĠĠĠĠ
"\ ^-
Ġtmp nam
Ġmake XMLTags
Ġmode s
Ġdis pose
Ġlast CR
Int el
next CR
(?: \\\
(?: -(?
Ġmark Input
IG RATE
CON D
dd Th
Ġact ually
td ot
Ġindent edBlock
Ġmethod Call
]+ ',
br id
Ġany OpenTag
Ġcount edArray
Ġcount FieldParseAction
}) (\.(
}) (?:-(?
Ġstream s
Ġ"_ $")<
Regex p
original TextFor
Ġcopy fileobj
xff ffffff
Ġfield name
(". ")),<
Ġarg c
tmp Exprs
Call ing
ĠUser Not
Ġblock StatementExpr
Ġreplace HTMLEntity
ĠBase Specifier
ĠMessage NotModified
auto escape
my len
Ġro c
Ġ"> "<
Ġ"> =",
()) ("
indent Stack
indent edBlock
sign ing
null DebugAction
("< =")
AC CEPT
named Items
Only Once
)- (?
("> ")
("> =")
("> =")(
white Strs
itel ists
Core Services
Ġnull DebugAction
trust y
ÙĨ Ùĩ
('- ').
Stream Reader
Ġtok n
ĠDESTROYER file
ĠCOSMIC file
Ġ"[ {}](
ĠWord End
ĠWord Start
Keyword Chars
Ġreset Cache
("- _.")<
Ġ'* /'
Ġ'* /').
IM MEDI
Ġtransform String
endTag Tr
Server Proxy
Ġstrip HTMLTags
(", ").
ĠSpecifierSet s
trace ParseAction
Ġdown caseTokens
Det ection
Ġ] (?
drop while
Ġsl ug
Ġdl Name
abstract property
â¢ Ģâ£
Pa ul
åı ¯
={} &
inf in
Ġsepar ating
Ġenable Pack
COD ES
ĠBuild Tag
|(?: '.
nested Expr
Ġcorrect ly
Gui re
Ġterm Name
uck r
Ġ"== =":
("@ ").
Ġnl tk
*. $+
Ġinline LiteralsUsing
Ġscan String
ĠClose Match
lis her
ĠNAME D
Sa ver
Ġ"~ =",
Ġ"~ =":
Ġ"~ {"
("; ").
å¼ ı
Ġnested Expr
ĠCode Type
tick s
))? )?').
Undefined Comparison
Undefined EnvironmentName
ĠconvertTo Integer
ĠconvertTo Float
Ġordered dict
Ġassoci ativity
("^ ").
+)? ').
+)? )').
]- *.$+
ĠAsync Adapt
Temporary Directory
"[\ ._-
("! =")
xxxxxxxx xxxx
WORK ERS
met al
Ġown ers
parseElement Class
heroku app
]+) $")<
]+) ((?:
("~ =")
Ġ') |(?:'.
âķŃ âķ®
Ġ'& ><"\''<
cta via
Ġnb sp
ĠMem ber
ski ptext
}( [:.-
Sc rolled
("] "):<
("] ").
)(?: -(?
located Expr
Ġwhite Strs
neko bin
Ġcpp StyleComment
Ġ"} ..."<
ĠOnly Once
"\[ ]-*.$+
Ġant iflood
ĠYouTube Transcript
ĠsetDefault WhitespaceChars
ĠsetDefault KeywordChars
Ġdbl QuotedString
Ġdbl SlashComment
ĠsetDebug Actions
matchPrevious Expr
matchPrevious Literal
ĠmatchPrevious Expr
ĠmatchPrevious Literal
ĠconvertToDate time
Parsed Version
Ġ214 7483647
ĠAC UTE
Ġlocated Expr
ĠGo ToColumn
Ġtrace ParseAction
NegativeInfinity Type
bright ness
Ġski ptext
Analy zing
ĠDep ends
--> ").
Ġ\. |
Ġfixt ures
})) {
('** ',
]*? -->").
OpenStack BaseTest
Ġcontr ibutors
"// (?:\\\
|[ +-]\
setDebug Actions
"<!-- [\
éĹ ´
lamb das
)(: (?
ĠSupports Int
Ġ(": :
ĠMc Guire
('& (?
Ġ+") ;").
('(' ),
Ġ"=== "]:<
"[-_.]+ ")<
*)?)? )?(?
^?() ~
}(- [
Ġ'|(?: '
ptmc g
("== =")
Ġtomor row
ĠparseWith Tabs
ĠmarkInput line
IGRATE ABLE
ddTh h
IMMEDI ATE
ĠenablePack rat
"[\._- ]")<
}([:.- ])[
"\[]-*.$+ ^?()~
ĠYouTubeTranscript Api
/ "):<
: *\
A ug
B ALL
C loud
C entral
E poch
F ully
G ives
H a
K orean
[...]
