{"<s>":0,"<pad>":1,"</s>":2,"<unk>":3,"<mask>":4,"!":5,"\"":6,"#":7,"$":8,"%":9,"&":10,"'":11,"(":12,")":13,"*":14,"+":15,",":16,"-":17,".":18,"/":19,"0":20,"1":21,"2":22,"3":23,"4":24,"5":25,"6":26,"7":27,"8":28,"9":29,":":30,";":31,"<":32,"=":33,">":34,"?":35,"@":36,"A":37,"B":38,"C":39,"D":40,"E":41,"F":42,"G":43,"H":44,"I":45,"J":46,"K":47,"L":48,"M":49,"N":50,"O":51,"P":52,"Q":53,"R":54,"S":55,"T":56,"U":57,"V":58,"W":59,"X":60,"Y":61,"Z":62,"[":63,"\\":64,"]":65,"^":66,"_":67,"`":68,"a":69,"b":70,"c":71,"d":72,"e":73,"f":74,"g":75,"h":76,"i":77,"j":78,"k":79,"l":80,"m":81,"n":82,"o":83,"p":84,"q":85,"r":86,"s":87,"t":88,"u":89,"v":90,"w":91,"x":92,"y":93,"z":94,"{":95,"|":96,"}":97,"~":98,"¡":99,"¢":100,"£":101,"¤":102,"¥":103,"¦":104,"§":105,"¨":106,"©":107,"ª":108,"«":109,"¬":110,"®":111,"¯":112,"°":113,"±":114,"²":115,"³":116,"´":117,"µ":118,"¶":119,"·":120,"¸":121,"¹":122,"º":123,"»":124,"¼":125,"½":126,"¾":127,"¿":128,"À":129,"Á":130,"Â":131,"Ã":132,"Ä":133,"Å":134,"Æ":135,"Ç":136,"È":137,"É":138,"Ê":139,"Ë":140,"Ì":141,"Í":142,"Î":143,"Ï":144,"Ð":145,"Ñ":146,"Ò":147,"Ó":148,"Ô":149,"Õ":150,"Ö":151,"×":152,"Ø":153,"Ù":154,"Ú":155,"Û":156,"Ü":157,"Ý":158,"Þ":159,"ß":160,"à":161,"á":162,"â":163,"ã":164,"ä":165,"å":166,"æ":167,"ç":168,"è":169,"é":170,"ê":171,"ë":172,"ì":173,"í":174,"î":175,"ï":176,"ð":177,"ñ":178,"ò":179,"ó":180,"ô":181,"õ":182,"ö":183,"÷":184,"ø":185,"ù":186,"ú":187,"û":188,"ü":189,"ý":190,"þ":191,"ÿ":192,"Ā":193,"ā":194,"Ă":195,"ă":196,"Ą":197,"ą":198,"Ć":199,"ć":200,"Ĉ":201,"ĉ":202,"Ċ":203,"ċ":204,"Č":205,"č":206,"Ď":207,"ď":208,"Đ":209,"đ":210,"Ē":211,"ē":212,"Ĕ":213,"ĕ":214,"Ė":215,"ė":216,"Ę":217,"ę":218,"Ě":219,"ě":220,"Ĝ":221,"ĝ":222,"Ğ":223,"ğ":224,"Ġ":225,"ġ":226,"Ģ":227,"ģ":228,"Ĥ":229,"ĥ":230,"Ħ":231,"ħ":232,"Ĩ":233,"ĩ":234,"Ī":235,"ī":236,"Ĭ":237,"ĭ":238,"Į":239,"į":240,"İ":241,"ı":242,"Ĳ":243,"ĳ":244,"Ĵ":245,"ĵ":246,"Ķ":247,"ķ":248,"ĸ":249,"Ĺ":250,"ĺ":251,"Ļ":252,"ļ":253,"Ľ":254,"ľ":255,"Ŀ":256,"ŀ":257,"Ł":258,"ł":259,"Ń":260,"ĠĠ":261,"ĠĠĠĠ":262,"><":263,"ĠĠĠ":264,"ĠĠĠĠĠĠĠĠ":265,"se":266,"ĠĠĠĠĠĠĠ":267,"in":268,"re":269,"on":270,"Ġ=":271,")<":272,":<":273,"at":274,"er":275,"st":276,"or":277,"sel":278,"self":279,"ĠĠĠĠĠĠĠĠĠĠĠ":280,",<":281,"me":282,"de":283,"Ġi":284,"Ġ'":285,"le":286,"ar":287,"Ġself":288,"al":289,"Ġ\"":290,"ĠĠĠĠĠĠĠĠĠĠĠĠĠĠĠ":291,"ur":292,"ion":293,"en":294,"Ġre":295,"):<":296,"Ġ(":297,"it":298,"an":299,"ro":300,"ge":301,"ame":302,"Ġt":303,"Ġp":304,"Ġif":305,"mp":306,"ĠĠĠĠĠĠĠĠĠĠĠĠĠĠĠĠ":307,"ex":308,"Ġf":309,"ch":310,"def":311,"),<":312,"ct":313,"ut":314,"name":315,"di":316,"as":317,"ot":318,"ce":319,"',":320,"co":321,"lo":322,"Ġin":323,"Ġret":324,"el":325,"urn":326,"Ġreturn":327,"__":328,"ing":329,"pt":330,"'),<":331,"ue":332,"ort":333,"nt":334,"Ġs":335,"Ġn":336,"fi":337,"Ġdef":338,"ad":339,"ed":340,"str":341,"Ġc":342,"one":343,"li":344,"pe":345,"mport":346,"00":347,"ath":348,"Ġo":349,"tr":350,"ser":351,"None":352,"get":353,"dat":354,"Ġ<":355,"ers":356,"ss":357,"ck":358,"il":359,"up":360,"Ġm":361,"Ġb":362,"._":363,"id":364,"and":365,"un":366,"(\"":367,"rom":368,"path":369,"age":370,"ext":371,"Ġel":372,"ĠĠĠĠĠĠĠĠĠĠĠĠĠĠĠĠĠĠĠ":373,"es":374,"ab":375,"]<":376,"ap":377,"Ġnot":378,"\",<":379,"\",":380,"ul":381,"Ġis":382,"()<":383,"ĠNone":384,"ment":385,"ror":386,"Ġ_":387,"ption":388,"from":389,"Ġfor":390,"Ġimport":391,"Ġ+":392,"set":393,"pl":394,"Ġ0":395,"val":396,"ass":397,"ype":398,"))<":399,"Ġr":400,"end":401,"Ġu":402,"ter":403,"Ġw":404,"\":":405,"all":406,"ersion":407,"(<":408,"con":409,"cl":410,"he":411,"Ġex":412,"rror":413,"ok":414,"file":415,"Error":416,"('":417,"Ġ[":418,"dir":419,"ke":420,"gs":421,"ate":422,"ult":423,"data":424,"ack":425,"qu":426,"url":427,"Ġelse":428,"ĠĠĠĠĠĠĠĠĠĠĠĠĠĠĠĠĠĠĠĠĠĠĠ":429,"ent":430,"Ġa":431,"ase":432,"lin":433,"od":434,"ip":435,"et":436,"version":437,"ile":438,"Ġ==":439,"ve":440,"is":441,"\")<":442,"ect":443,"arse":444,"orm":445,"ol":446,"app":447,"th":448,"Ġ%":449,"Ġlo":450,"Tr":451,"\"<":452,"ag":453,"em":454,"Ġ)<":455,"able":456,"Ġ1":457,"int":458,"ssage":459,"args":460,"key":461,"do":462,"if":463,"Ġos":464,"Ġ{":465,"art":466,"iz":467,"True":468,"ode":469,"ĠĠĠĠĠĠĠĠĠĠĠĠĠĠĠĠĠĠĠĠĠĠĠĠĠĠĠĠĠĠĠĠ":470,"import":471,"message":472,"Ġdi":473,"Ġh":474,"ation":475,"text":476,"res":477,"lib":478,"Ġ__":479,"value":480,"ri":481,").":482,"Ġcon":483,"class":484,"Ġ\"\\":485,"fo":486,"che":487,"len":488,"um":489,"pro":490,"ib":491,"form":492,"Ġe":493,"oken":494,"list":495,"inst":496,"Ġas":497,"Ġ-":498,"alse":499,"atch":500,"ai":501,"Ġco":502,"ĠC":503,"Ġand":504,"pre":505,"ry":506,"False":507,"am":508,"chat":509,"ime":510,"po":511,"ist":512,"date":513,"__(":514,"ig":515,"')<":516,"ma":517,"pr":518,"',<":519,"gg":520,"ver":521,"bu":522,"aise":523,"Ġres":524,"ER":525,"ction":526,"Ġname":527,"ace":528,"code":529,"ith":530,";\":":531,"ĠS":532,"lement":533,"Ġor":534,"attr":535,"Re":536,"user":537,"to":538,"type":539,"mm":540,"te":541,"py":542,"Ġstr":543,"Ġraise":544,"ize":545,"util":546,"Ġ*":547,"ht":548,"Ġget":549,"Ex":550,"Ġst":551,"In":552,"qui":553,"cept":554,"put":555,"append":556,"[\"":557,"ild":558,"ibut":559,"ff":560,"()":561,"ĠP":562,"Ġd":563,"':":564,"add":565,"Ġde":566,"ptions":567,"bj":568,"Ġtry":569,"init":570,"jo":571,"ca":572,"['":573,"vi":574,"Ġfile":575,"\\<":576,"info":577,"ord":578,"que":579,"']":580,"ance":581,"join":582,"mmand":583,"\"]":584,"Ġelif":585,"xF":586,"Ġexcept":587,"ub":588,"ive":589,"'<":590,"loc":591,"ay":592,"no":593,"Ġto":594,"per":595,"ĠĠĠĠĠ":596,"our":597,"10":598,"Ġg":599,"sg":600,"0000":601,"out":602,"ic":603,"ew":604,"ule":605,"wa":606,"string":607,"ĠD":608,"xf":609,"us":610,"xb":611,"os":612,"her":613,"xa":614,"tern":615,"Ġpath":616,"repl":617,"line":618,"ind":619,"utils":620,"ys":621,"link":622,"xe":623,"arn":624,"fig":625,"quest":626,"sc":627,"ĠFalse":628,"sert":629,"xd":630,"ON":631,"ĠTrue":632,"act":633,"pen":634,"ĉĉ":635,"sp":636,"ault":637,"Ġy":638,"),":639,".__":640,"head":641,"Ġ2":642,"Ġl":643,"other":644,"odule":645,"xc":646,"=\"":647,"quire":648,"Ġdata":649,"ho":650,"format":651,"wait":652,"arser":653,"update":654,"Ġvalue":655,"ite":656,"instance":657,"ĠT":658,"ĠM":659,"parse":660,"comp":661,"Ġuser":662,"ty":663,"ource":664,"Ġdist":665,"Ch":666,"22":667,"rent":668,"roup":669,"Ġlen":670,"Ġv":671,"mo":672,"Ġpro":673,"char":674,"Ġse":675,"load":676,"wn":677,"Ġen":678,">\\":679,"pec":680,"IN":681,"im":682,"Ġawait":683,"dist":684,"Con":685,"Ġisinstance":686,"ml":687,"RE":688,"ata":689,"Ġpre":690,"kw":691,"plit":692,"ĠL":693,"}<":694,"():<":695,"dex":696,"pack":697,"Ġma":698,"11":699,"Ġset":700,"ec":701,"Ġ@":702,"Ġtoken":703,"ary":704,"est":705,"vent":706,"low":707,"='":708,"rect":709,"fix":710,"cess":711,"Ġ6":712,"\":<":713,"Ġresult":714,"Ġloc":715,"bo":716,"Ġ+=":717,"iter":718,"Ġurl":719,"Ġkey":720,"St":721,"32":722,"eld":723,"options":724,"error":725,"Name":726,"obj":727,"ception":728,"item":729,"nd":730,"ure":731,"md":732,"odel":733,"read":734,"--":735,"ta":736,"unt":737,"..":738,"Ġ\"<":739,"12":740,"reply":741,"AT":742,"ĠO":743,"Ġwith":744,"Ġ('":745,"ĠA":746,"ory":747,"ĠĠĠĠĠĠĠĠĠĠĠĠĠĠĠĠĠĠĠĠĠĠĠĠĠĠĠĠĠĠĠ":748,"Tag":749,"split":750,"Ġ[]<":751,"ies":752,"ity":753,"ĠI":754,"])<":755,"Ġ->":756,"base":757,"ifi":758,"Char":759,"ĠU":760,"Ġsys":761,"cod":762,"Ġme":763,"req":764,"ript":765,"ES":766,"Ġpip":767,"Ġthe":768,"min":769,"col":770,"quirement":771,"Ġlogg":772,"nc":773,"build":774,"Ġout":775,"Element":776,"Ġmessage":777,"und":778,"start":779,"20":780,"Type":781,"ac":782,"size":783,"Ġother":784,"ang":785,"Ġfrom":786,"ash":787,"Co":788,"try":789,"ool":790,"thon":791,"Ġ>":792,"install":793,"\"),<":794,"Ġ**":795,"ber":796,"Ġversion":797,"Ġparse":798,"pect":799,"ator":800,"Val":801,"back":802,"wr":803,"time":804,"Ġpr":805,"lease":806,"ark":807,"tent":808,"Exception":809,"ield":810,"with":811,"pon":812,"stribut":813,"tra":814,"port":815,"ange":816,"uth":817,"word":818,"arch":819,"ĠB":820,"cur":821,"Ġprint":822,"adata":823,"nect":824,"stribution":825,"Ġ):<":826,"ler":827,"\".":828,"check":829,"01":830,"ree":831,"Ġ.":832,"space":833,"Ġx":834,"dent":835,"Ġ3":836,"ðŁ":837,"25":838,"Ġun":839,"ION":840,"command":841,"ponse":842,"match":843,"bot":844,"Ġ(<":845,"token":846,"Value":847,"ial":848,"arget":849,"module":850,"red":851,"ĠĠĠĠĠĠĠĠĠĠĠĠĠĠĠĠĠĠĠĠĠĠĠĠĠĠĠ":852,"dict":853,"Ġpass":854,"')":855,"arning":856,"EN":857,"state":858,"Parse":859,"Ġdo":860,"18":861,"33":862,"rc":863,"config":864,"atform":865,"AR":866,"ust":867,"gr":868,"ock":869,"],":870,"kwargs":871,"Ġbu":872,"ĠĠĠĠĠĠĠĠĠĠĠĠĠĠĠĠĠĠĠĠĠĠĠĠ":873,"err":874,"stat":875,"abel":876,"group":877,"ard":878,"Ġupdate":879,"edit":880,"la":881,"filename":882,"Ġtext":883,"!=":884,"coding":885,"thod":886,"by":887,"Ġmsg":888,"Ġchat":889,"andler":890,"Ġsup":891,"valid":892,"ved":893,"Ġk":894,"ĠF":895,"for":896,"Ġtype":897,"ync":898,"msg":899,"sh":900,"Str":901,"attern":902,"16":903,"Ġint":904,"24":905,"Ġlist":906,"arg":907,"OR":908,"opt":909,"ĠIn":910,"ine":911,"Ġ!=":912,"17":913,"run":914,"\")":915,"tadata":916,"Ġargs":917,"Ġth":918,"ly":919,"ron":920,"ail":921,"ST":922,"intern":923,"tp":924,"AN":925,"cmd":926,"default":927,"parser":928,"stall":929,"ann":930,"Ġ68":931,"Ġcl":932,"14":933,"heel":934,"ibute":935,"ream":936,"ssion":937,"pa":938,"headers":939,"ert":940,"Ġit":941,"HT":942,"cache":943,"internal":944,"Ġnew":945,"ey":946,"ptional":947,"())<":948,"Ġbe":949,"19":950,"//":951,"request":952,"sub":953,"ĠN":954,"DE":955,"64":956,"CH":957,"ery":958,"Di":959,"Ġreq":960,"bug":961,"Ġ4":962,"script":963,"lic":964,"lob":965,"[:":966,"Key":967,"zip":968,"ep":969,"ix":970,"lient":971,"urllib":972,"find":973,"].":974,"release":975,"html":976,"**":977,"Ġmatch":978,"pos":979,"om":980,"().":981,"ude":982,"Ġal":983,"Ġtime":984,"Ġassert":985,"Ġevent":986,"use":987,"dirs":988,"Ġhas":989,"ore":990,"ans":991,"unc":992,"perty":993,"fe":994,"uple":995,"ï¸":996,"pected":997,"15":998,"index":999,"temp":1000,"Ġof":1001,"op":1002,"85":1003,"ï¸ı":1004,"ttr":1005,"ens":1006,"Ġbase":1007,"ting":1008,"Res":1009,"ight":1010,"ph":1011,"ME":1012,"direct":1013,"ave":1014,"viron":1015,"FF":1016,">@":1017,"Ġca":1018,"ĠĠĠĠĠĠĠĠĠ":1019,"Pro":1020,"ress":1021,"Ġ[<":1022,"ns":1023,"Ġlog":1024,"ote":1025,"root":1026,"String":1027,"Ġwh":1028,"swith":1029,"clude":1030,"Ġattr":1031,"num":1032,"ffect":1033,"var":1034,"([":1035,"method":1036,"package":1037,"son":1038,"ody":1039,"python":1040,"ctions":1041,"par":1042,"ument":1043,"ull":1044,"13":1045,"property":1046,"win":1047,"Ġch":1048,"':<":1049,"Ġstart":1050,"open":1051,"Ġdefault":1052,"Ġpl":1053,"SS":1054,"ffective":1055,"tag":1056,"Ġ5":1057,"Ġline":1058,"cheme":1059,"elp":1060,"query":1061,"inal":1062,"object":1063,"andi":1064,"))":1065,"Ġlogger":1066,"âĹ":1067,"files":1068,"ak":1069,"log":1070,"Version":1071,"row":1072,"count":1073,"effective":1074,"auth":1075,"Ġmax":1076,"ql":1077,"SION":1078,"model":1079,"LE":1080,"cre":1081,"move":1082,"lose":1083,"Ġyield":1084,"expr":1085,"23":1086,"nection":1087,"CK":1088,"spec":1089,"da":1090,"xA":1091,"Ġ{}":1092,"namespace":1093,"emp":1094,"Ġ8":1095,"ĠĠĠĠĠĠĠĠĠĠĠĠĠĠĠĠĠĠĠĠĠĠĠĠĠĠĠĠĠĠĠĠĠĠĠ":1096,"âĸ":1097,"tes":1098,"rst":1099,"max":1100,"map":1101,"Ġcur":1102,"ĠRe":1103,"ĠĠĠĠĠĠ":1104,"Ġobj":1105,"json":1106,"led":1107,"write":1108,"egg":1109,"ton":1110,"ValueError":1111,"Ġfilename":1112,"Ġsuper":1113,"ĠE":1114,"Ġcol":1115,"process":1116,"Ġpy":1117,"lock":1118,"{}":1119,"eg":1120,"tin":1121,"ters":1122,"vel":1123,"ition":1124,"'):<":1125,"gth":1126,"tree":1127,"Expr":1128,"ated":1129,"items":1130,"wnload":1131,"fil":1132,"ttribute":1133,"Ġend":1134,"http":1135,"utton":1136,"ound":1137,"cs":1138,"admin":1139,"LO":1140,"Token":1141,"mark":1142,"00000":1143,"SE":1144,"ft":1145,"List":1146,"Lo":1147,"ute":1148,"State":1149,"element":1150,"debug":1151,"IT":1152,"icode":1153,"ra":1154,"rame":1155,"ject":1156,"Ġbuild":1157,"result":1158,"quires":1159,"ou":1160,"']<":1161,"'.":1162,"main":1163,"prefix":1164,"ant":1165,"Ġoutput":1166,"AL":1167,"ifier":1168,"â¬":1169,"itle":1170,"mb":1171,"(_":1172,"nore":1173,"pattern":1174,"Ġitem":1175,"ĠW":1176,"arts":1177,"Ġ{<":1178,"Set":1179,"strip":1180,"29":1181,"Ġpack":1182,"async":1183,"so":1184,"option":1185,"Ġopen":1186,"call":1187,"Ġ:":1188,"Ġan":1189,"output":1190,"Ġlink":1191,"¼ï¸ı":1192,"âĹ¼ï¸ı":1193,"test":1194,"su":1195,"Un":1196,"Ġ]<":1197,"table":1198,"compile":1199,"[-":1200,"FA":1201,"warn":1202,"target":1203,"input":1204,"40":1205,"Ġiter":1206,"ork":1207,"Ġrepl":1208,"50":1209,"]:<":1210,"stream":1211,"lobal":1212,"ĠValueError":1213,"source":1214,"Ġle":1215,"distribution":1216,"arr":1217,"lete":1218,"\"):<":1219,"lower":1220,"assert":1221,"host":1222,"86":1223,"mode":1224,"metadata":1225,"kip":1226,"Ġchar":1227,"Ġspec":1228,"ĠOptional":1229,"Ġcontext":1230,"Handler":1231,"Ġcomp":1232,"\"]<":1233,"event":1234,"80":1235,"30":1236,"Ġtest":1237,"header":1238,"Ġ'%":1239,"Ġby":1240,"iv":1241,"ĠG":1242,"content":1243,"requirement":1244,"xy":1245,"print":1246,"platform":1247,"Ġ(\"":1248,"ask":1249,"label":1250,"Ġrequest":1251,"replace":1252,"dow":1253,"imp":1254,"ick":1255,"ded":1256,"Ġ|":1257,"yst":1258,"ID":1259,"Ġwhile":1260,"environ":1261,"Ġwr":1262,"ost":1263,"oved":1264,"Ġ{}<":1265,"point":1266,"ĉĉĉĉ":1267,"EL":1268,"umn":1269,"tinue":1270,"ping":1271,"Ġsub":1272,"current":1273,"De":1274,"net":1275,"qual":1276,"amp":1277,"FI":1278,"Ġoptions":1279,"send":1280,"21":1281,"status":1282,"alled":1283,"libr":1284,"late":1285,"})<":1286,"unk":1287,"reg":1288,"close":1289,"Ġlogging":1290,"UT":1291,"Ġform":1292,"context":1293,"andidate":1294,"utf":1295,"ystem":1296,"ĠĠĠĠĠĠĠĠĠĠĠĠĠĠĠĠĠĠĠĠĠĠĠĠĠĠĠĠĠĠĠĠĠĠĠĠĠĠĠ":1297,"AD":1298,"Ġpos":1299,"ĠParse":1300,"])":1301,"Ġcontinue":1302,"Ġ'.":1303,"old":1304,"Ġdistutils":1305,"Ġmodel":1306,"Ġon":1307,"Ġinstall":1308,"SSL":1309,"lines":1310,"27":1311,"ãĥ":1312,"RO":1313,"55":1314,"reak":1315,"26":1316,"abs":1317,"],<":1318,"keys":1319,"EX":1320,"ener":1321,"location":1322,"Ġpackage":1323,"==":1324,"Ġim":1325,"man":1326,"Ġcheck":1327,"hash":1328,"ED":1329,"ele":1330,"Ġ7":1331,"client":1332,"startswith":1333,"Imp":1334,"ont":1335,"Elements":1336,"gex":1337,"func":1338,"Ġinstring":1339,"ĠDist":1340,"new":1341,"ists":1342,"ne":1343,"Ġnum":1344,"amb":1345,"Ġopt":1346,"((":1347,"uct":1348,"Ġexc":1349,"99":1350,"â¬Ľ":1351,"expected":1352,"Ġrange":1353,"gger":1354,"://":1355,"Ġuse":1356,"Ġval":1357,"ools":1358,"PE":1359,"db":1360,"ĠMoved":1361,"modules":1362,"ast":1363,"ĠĠĠĠĠĠĠĠĠĠĠĠĠ":1364,"errors":1365,"cls":1366,"response":1367,"Ġbreak":1368,"resource":1369,"TP":1370,"Chars":1371,"ci":1372,"Ġsh":1373,"ĠCo":1374,"requires":1375,"ocket":1376,"ict":1377,"ain":1378,"ffer":1379,"remove":1380,"vert":1381,"Attribute":1382,"inter":1383,"90":1384,"sing":1385,"Ġfind":1386,"types":1387,"Ġadd":1388,"En":1389,"Ġcan":1390,"encode":1391,"copy":1392,"ambda":1393,"Ġext":1394,"Ġ'\\":1395,"pop":1396,"exec":1397,"Ġconfig":1398,"Ġbool":1399,"pass":1400,"ĠĠĠĠĠĠĠĠĠĠĠĠĠĠĠĠĠĠĠĠĠĠĠĠĠĠĠĠĠĠĠĠĠĠĠĠĠĠĠĠĠĠĠĠĠĠĠ":1401,"37":1402,"ango":1403,"first":1404,"34":1405,"DO":1406,"Ġcommand":1407,"com":1408,"({":1409,"Ġapp":1410,"CO":1411,"HTTP":1412,"annel":1413,"src":1414,"sys":1415,"ING":1416,"UN":1417,"not":1418,"Ġcls":1419,"Ġ)":1420,"ension":1421,"Ġtr":1422,"lim":1423,"ld":1424,"Ġbot":1425,"000":1426,"CT":1427,"length":1428,"io":1429,"we":1430,"Ġ'<":1431,"Ġinput":1432,"Ġ['":1433,"kg":1434,"Ġthis":1435,"\"],":1436,"idth":1437,"ormal":1438,".\")<":1439,"Ġtarget":1440,"jango":1441,"title":1442,"Ġ\".":1443,"Ġresponse":1444,"local":1445,"uld":1446,"Result":1447,"opts":1448,"DI":1449,"âĹ¼ï¸ıâĹ¼ï¸ı":1450,"Ġgetattr":1451,"SER":1452,"select":1453,"ign":1454,"image":1455,"LT":1456,"instring":1457,"sl":1458,"File":1459,"tras":1460,"Action":1461,"wheel":1462,"aint":1463,"cript":1464,"namespaces":1465,">_":1466,"endor":1467,").__":1468,"ie":1469,"cape":1470,"56":1471,"Ġ>=":1472,"ĠUn":1473,"28":1474,"Ġtag":1475,"are":1476,"04":1477,"Ġprefix":1478,"ll":1479,"'],":1480,"cert":1481,"decode":1482,"Ġcall":1483,"Ġsql":1484,"ols":1485,")):<":1486,"Ġformat":1487,"AND":1488,"directory":1489,"work":1490,"77":1491,"\"))<":1492,"otal":1493,"ams":1494,"board":1495,"][":1496,"ĠĠĠĠĠĠĠĠĠĠĠĠĠĠĠĠĠ":1497,"iler":1498,".\",<":1499,"RL":1500,"lags":1501,"60":1502,"inary":1503,"cond":1504,"Ġfiles":1505,"Ġsu":1506,"Ġmin":1507,"38":1508,"Not":1509,"pace":1510,"ĠDistutils":1511,"releases":1512,"Ġreply":1513,"ESSION":1514,"sup":1515,"49":1516,"ref":1517,"ĠH":1518,"encoding":1519,"Ġnode":1520,"Ġstring":1521,"orch":1522,"sha":1523,"39":1524,"ĠCon":1525,"etime":1526,"vendor":1527,"Ġfil":1528,"'t":1529,"ong":1530,"loat":1531,"Ġver":1532,"ason":1533,"scheme":1534,"fed":1535,"ibutes":1536,"ENT":1537,"36":1538,"names":1539,"escape":1540,"35":1541,"lean":1542,"Do":1543,"play":1544,"Ġ/":1545,"view":1546,"Types":1547,"Ġheaders":1548,"mpty":1549,"Ġelement":1550,"scri":1551,"acy":1552,"ces":1553,"PI":1554,"Ġnp":1555,"Ġty":1556,"ĠSESSION":1557,"straint":1558,"lass":1559,"75":1560,"post":1561,"xFC":1562,"quote":1563,"acters":1564,"96":1565,"48":1566,"Ġht":1567,"arnings":1568,"Ġdict":1569,"values":1570,"Ġindex":1571,"Ġdest":1572,"exists":1573,"Ġpar":1574,"46":1575,"Ġgroup":1576,"Ġno":1577,"body":1578,"Ġrun":1579,"parent":1580,"LA":1581,"df":1582,"ify":1583,"mber":1584,"Ġfound":1585,"76":1586,"its":1587,"03":1588,"Ġdir":1589,"ager":1590,"datetime":1591,"project":1592,"tract":1593,"tings":1594,"ized":1595,"ner":1596,"Ġtemp":1597,"Ġplatform":1598,"Ġ\"\"<":1599,"Ġextra":1600,"train":1601,"Ġ{\"":1602,"Ġhasattr":1603,"VER":1604,"Text":1605,"utable":1606,"packages":1607,"ical":1608,"https":1609,"Ġparser":1610,"ally":1611,"Ġ[\"":1612,"SH":1613,"page":1614,"AME":1615,"ump":1616,"ctype":1617,"Ġmodule":1618,"...":1619,"Ġstat":1620,"doc":1621,"EE":1622,"how":1623,"ignore":1624,"Ġhelp":1625,"ific":1626,"av":1627,"(*":1628,"52":1629,"izer":1630,"delete":1631,"urity":1632,"AB":1633,"LER":1634,"Ġcontent":1635,"ĠList":1636,"make":1637,"ecurity":1638,"Ġcache":1639,"argument":1640,"(?":1641,"Ġ<=":1642,"lay":1643,"78":1644,"Ġcurrent":1645,"Module":1646,"HAND":1647,"xFF":1648,"Ġtuple":1649,"ax":1650,"Ġmetadata":1651,"Ġ\\":1652,"Met":1653,"Ġarch":1654,"andom":1655,"ML":1656,"ported":1657,"ffset":1658,"(),":1659,"Command":1660,"Que":1661,"66":1662,"Ġinst":1663,"gram":1664,"atcher":1665,"ide":1666,"Context":1667,"ader":1668,"70":1669,"tok":1670,"dis":1671,"perator":1672,"tain":1673,"pi":1674,"CHE":1675,"Ġclass":1676,"Ġhash":1677,"cord":1678,"iteral":1679,"Ġparts":1680,"End":1681,"core":1682,"02":1683,"bl":1684,"Ġzip":1685,"handler":1686,"Ġscript":1687,"arserElement":1688,"74":1689,"of":1690,"download":1691,"Ġcre":1692,"Equal":1693,"91":1694,"af":1695,"ĠException":1696,"Results":1697,"Qu":1698,"Ġ}<":1699,"Queue":1700,"Data":1701,"Ġcmd":1702,"filter":1703,"LI":1704,"HANDLER":1705,"Ġinfo":1706,"pp":1707,"92":1708,"98":1709,"upt":1710,"ĠCommand":1711,"level":1712,")))<":1713,"95":1714,"lowed":1715,"wh":1716,"insert":1717,"site":1718,"Ġexpr":1719,"oo":1720,"ĠĠĠĠĠĠĠĠĠĠĠĠ":1721,"Ġjson":1722,"gest":1723,"array":1724,"library":1725,"Ġall":1726,"'))<":1727,"entry":1728,"â¬Ľâ¬Ľ":1729,"rol":1730,"ccess":1731,"Characters":1732,"vis":1733,">)<":1734,"Ġyou":1735,"api":1736,"rectory":1737,"PY":1738,"93":1739,"ative":1740,"47":1741,"ĠSecurity":1742,"email":1743,"fn":1744,"env":1745,"Ġaction":1746,"ps":1747,"Ġtorch":1748,"Base":1749,"fg":1750,"CA":1751,"bytes":1752,"frame":1753,"dia":1754,"ĠR":1755,"raw":1756,"Ġdel":1757,"ret":1758,"Ġwarnings":1759,"ULT":1760,"âĢ":1761,"45":1762,"essage":1763,"72":1764,"Request":1765,"Ġpa":1766,"has":1767,"ern":1768,"Ġtyping":1769,">__":1770,"----":1771,"âł":1772,"Ġquery":1773,"sed":1774,"orig":1775,"ample":1776,"node":1777,"iss":1778,"Ġstate":1779,"Ġerror":1780,"scription":1781,"'\\":1782,"last":1783,"Form":1784,"Ġoption":1785,"mment":1786,"Ġpattern":1787,"skip":1788,"his":1789,"Ġsize":1790,"Ġencoding":1791,"cr":1792,"68":1793,"Ġup":1794,"apper":1795,"Start":1796,"save":1797,"Ġid":1798,"44":1799,"Ġz":1800,"ĠNot":1801,"trol":1802,"require":1803,"885":1804,"Ġobject":1805,"let":1806,"ĠMovedAttribute":1807,"97":1808,"ght":1809,"(),<":1810,"ren":1811,"Ġwheel":1812,"NO":1813,"pri":1814,"Ġsource":1815,"ward":1816,"rag":1817,"create":1818,"Ġvar":1819,"Ġrequirement":1820,"comm":1821,"ĠType":1822,"extend":1823,"extension":1824,"mportError":1825,"idget":1826,"Or":1827,"paths":1828,"setup":1829,"Ġnext":1830,"YPE":1831,"Class":1832,"mod":1833,"ĠĠĠĠĠĠĠĠĠĠĠĠĠĠĠĠĠĠĠĠĠĠĠĠĠĠĠĠĠĠĠĠĠĠĠĠĠĠĠĠĠĠĠĠĠĠĠĠĠĠĠĠĠĠĠĠĠĠĠĠĠĠĠĠ":1834,"BA":1835,"\"\\":1836,"31":1837,"Ġscheme":1838,"Ġ'/":1839,"ĠstartTag":1840,"41":1841,"58":1842,"Ġ),<":1843,"Ġcode":1844,"Warning":1845,"dout":1846,"uptools":1847,"Ġglobal":1848,"Ġso":1849,"73":1850,"ence":1851,"Ġlabel":1852,"xt":1853,"dirname":1854,"Ġerr":1855,"compat":1856,"Ġtmp":1857,"buffer":1858,"mary":1859,"ĠĠĠĠĠĠĠĠĠĠ":1860,"User":1861,"FAULT":1862,"65":1863,"wd":1864,"can":1865,"help":1866,"width":1867,"79":1868,"warning":1869,"MA":1870,"password":1871,"Id":1872,"Ġ\"-":1873,"limit":1874,"71":1875,"\").":1876,"Col":1877,"tokenQueue":1878,"order":1879,"USER":1880,"Ġorig":1881,"fun":1882,"sv":1883,"trans":1884,"be":1885,")[":1886,"Ġser":1887,"den":1888,"Ġmake":1889,"WN":1890,"8859":1891,"Ġmust":1892,"):":1893,"extra":1894,"Ar":1895,"ĠImportError":1896,"mov":1897,"IO":1898,"iso":1899,"lear":1900,"Actions":1901,"\"],<":1902,"action":1903,"exprs":1904,"81":1905,"author":1906,"vars":1907,"54":1908,"cro":1909,"Ġsrc":1910,"('.":1911,"Dict":1912,"vice":1913,"Ġnamed":1914,"Ġedit":1915,"coder":1916,"ny":1917,"xFA":1918,"LS":1919,"05":1920,"ĠParserElement":1921,"HTML":1922,"extras":1923,"gress":1924,"vid":1925,"bose":1926,"include":1927,"Ġasync":1928,"ĠCall":1929,"cy":1930,"endswith":1931,"94":1932,"Ġ\"%":1933,"Ġ\\<":1934,"ĠtokenTypes":1935,"ations":1936,"prec":1937,"Ca":1938,"Ġnet":1939,"only":1940,"down":1941,"ĠKey":1942,"dest":1943,"Ùħ":1944,"He":1945,"sep":1946,"curs":1947,"Ġhost":1948,"51":1949,"Ġmode":1950,"field":1951,"__)<":1952,"Ġfn":1953,".\"<":1954,"indow":1955,"Ġig":1956,"resources":1957,"({\"":1958,"Ġdis":1959,"window":1960,"vide":1961,"seg":1962,"Pre":1963,"spatcher":1964,"Wh":1965,"07":1966,"Ġ`":1967,"Implement":1968,"69":1969,"88":1970,"may":1971,"xFD":1972,"ures":1973,"Ġroot":1974,"42":1975,"ible":1976,"67":1977,"timeout":1978,"cii":1979,"Ġread":1980,"63":1981,"spect":1982,"oi":1983,"img":1984,"(__":1985,"annot":1986,"session":1987,"08":1988,"Bu":1989,"global":1990,"â£":1991,"connection":1992,"57":1993,"82":1994,"ðŁĶ":1995,"etch":1996,"position":1997,"Se":1998,"ual":1999,"TH":2000,"channel":2001,"Ġj":2002,"part":2003,"chem":2004,"parts":2005,"83":2006,"00001":2007,"Len":2008,"cope":2009,"ill":2010,"61":2011,"43":2012,"Ġurllib":2013,"Ġdatetime":2014,"},<":2015,"repr":2016,"moves":2017,"lect":2018,"fore":2019,"sy":2020,"Ġtele":2021,"okie":2022,"scripts":2023,"Ġlast":2024,"links":2025,"PP":2026,"hould":2027,"53":2028,"Ġat":2029,"84":2030,"ython":2031,"Ġ&":2032,"marker":2033,"cc":2034,"TO":2035,"box":2036,"Ġimage":2037,"Ġconn":2038,"phase":2039,"Button":2040,"Ġbody":2041,"andle":2042,"Implemented":2043,"setName":2044,"dation":2045,"ĠNotImplemented":2046,"orted":2047,"lambda":2048,"Ġfin":2049,"username":2050,"lied":2051,"Ġexec":2052,"std":2053,"Int":2054,"connect":2055,"Ġsend":2056,"uture":2057,"ow":2058,"ses":2059,"ank":2060,"89":2061,"ink":2062,"plat":2063,"ARK":2064,"FO":2065,"\\\\":2066,"06":2067,"0001":2068,"Requirement":2069,"ĠĠĠĠĠĠĠĠĠĠĠĠĠĠĠĠĠĠĠĠĠ":2070,"range":2071,"Ġprocess":2072,"Ġtf":2073,"ET":2074,"MP":2075,"next":2076,"ux":2077,"django":2078,"mult":2079,"entity":2080,"color":2081,"proxy":2082,"classmethod":2083,"full":2084,"search":2085,"Ġkwargs":2086,"Ġback":2087,"Ġop":2088,"lang":2089,"Ġsa":2090,"binary":2091,"Ġab":2092,"gra":2093,"Ġ{'":2094,"Ġold":2095,"Ġtimeout":2096,"Ġparent":2097,"ĠCh":2098,"leep":2099,"txt":2100,"ous":2101,"ĠParseException":2102,"pare":2103,"system":2104,"=[":2105,"block":2106,"sum":2107,"87":2108,"CF":2109,"apping":2110,"Distribution":2111,"pth":2112,"settings":2113,"issing":2114,"(?:":2115,"sql":2116,"HE":2117,"Keyboard":2118,"models":2119,"urls":2120,"={":2121,"unicode":2122,"ush":2123,"EXT":2124,"static":2125,"ssl":2126,"lementation":2127,"Spec":2128,"gener":2129,"62":2130,"To":2131,"Ġabs":2132,"uto":2133,"ched":2134,"NAME":2135,"Ġmark":2136,"Ġ10":2137,"DEFAULT":2138,"\"{":2139,"ialize":2140,"Field":2141,"hook":2142,"Invalid":2143,"errmsg":2144,"flags":2145,"Widget":2146,"pdate":2147,"IG":2148,"Empty":2149,"ities":2150,"except":2151,"mage":2152,"cp":2153,"ĠĠĠĠĠĠĠĠĠĠĠĠĠĠĠĠĠĠĠĠ":2154,"Ġpart":2155,"Ġ'-":2156,"59":2157,"uration":2158,"requirements":2159,"lineKeyboard":2160,"Ġfi":2161,"iled":2162,"Ġwrite":2163,"ites":2164,"CON":2165,"rel":2166,"dd":2167,"openElements":2168,"Qt":2169,"CE":2170,"Ġfinally":2171,"RA":2172,"pip":2173,"ident":2174,"final":2175,"socket":2176,"feat":2177,"member":2178,"press":2179,"Format":2180,"tocol":2181,"dates":2182,"prereleases":2183,"ban":2184,"Ġ9":2185,"ero":2186,"chine":2187,"conn":2188,"Mode":2189,"By":2190,"}\"<":2191,"\"})<":2192,"Match":2193,"Named":2194,"ĠTypeError":2195,"__()<":2196,"It":2197,"cor":2198,"dim":2199,"Ġignore":2200,"ĠV":2201,"Ġnamespace":2202,"stack":2203,"Ġact":2204,"aries":2205,"ParseAction":2206,"chunk":2207,"candidate":2208,"ffix":2209,"td":2210,"Info":2211,"Ret":2212,"Ġare":2213,"Ġpkg":2214,"logger":2215,"Ġad":2216,"sa":2217,"iable":2218,"icker":2219,"Ġenv":2220,"ĠdoActions":2221,"Ġ'--":2222,"hase":2223,"').":2224,"compiler":2225,"assertEqual":2226,"conds":2227,"CHECK":2228,"ormalize":2229,"return":2230,"left":2231,"address":2232,"'])<":2233,"ustr":2234,"Ġdf":2235,"âĸĪ":2236,"Ġindent":2237,"09":2238,"onical":2239,"Repr":2240,"quence":2241,"invalid":2242,"Connection":2243,"strRepr":2244,"batch":2245,"ateg":2246,"You":2247,"URL":2248,"=',":2249,"lections":2250,"IS":2251,"ATA":2252,"vider":2253,"VERSION":2254,"air":2255,"Ġmethod":2256,"Ġ\"__":2257,"]+":2258,"Optional":2259,"br":2260,"No":2261,"attributes":2262,"ascii":2263,"Ġcert":2264,"fli":2265,"Ġresource":2266,"Ġany":2267,"ustom":2268,"oc":2269,"sole":2270,"ister":2271,"ĠHTTP":2272,"currentToken":2273,"Comp":2274,"tags":2275,"Ġlib":2276,"round":2277,"okup":2278,"Ġdirectory":2279,"case":2280,"button":2281,"Ġinclude":2282,"struct":2283,"vious":2284,"Cache":2285,"MO":2286,"future":2287,"Ġcount":2288,"Return":2289,"exc":2290,")'),<":2291,"leg":2292,"istr":2293,"Ref":2294,"ĠĠĠĠĠĠĠĠĠĠĠĠĠĠĠĠĠĠĠĠĠĠĠĠĠĠĠĠĠĠĠĠĠĠ":2295,".*":2296,"denc":2297,"pendenc":2298,"Le":2299,"ĠCol":2300,"ome":2301,"ĠDi":2302,"tries":2303,"EST":2304,"exp":2305,"Ġfunc":2306,"params":2307,"The":2308,"right":2309,"Ġproject":2310,"store":2311,"Ġ\"{":2312,"nown":2313,")]<":2314,"ãĤ":2315,"Ġhtml":2316,"lat":2317,"ailed":2318,"abled":2319,"cfg":2320,"editable":2321,"âĶ":2322,"height":2323,"top":2324,"ids":2325,"Time":2326,"sudo":2327,"maining":2328,"lication":2329,"KE":2330,"og":2331,"umer":2332,"cli":2333,"any":2334,"Ġentry":2335,"Ġcreate":2336,"dexError":2337,"tools":2338,"âķ":2339,"!\")<":2340,"OS":2341,"Ro":2342,"ĠInstall":2343,"poch":2344,"})":2345,"Ġauth":2346,"Get":2347,"Fil":2348,"Ġadmin":2349,"vision":2350,"Ġrev":2351,"ORT":2352,"IC":2353,"Ġrow":2354,"Ġoperator":2355,"ragment":2356,"Ġ''<":2357,"ĠUpdate":2358,"Ġinit":2359,"isdir":2360,"ell":2361,"ĠIter":2362,"Ġmodels":2363,"Ġ\",":2364,"Ġlambda":2365,"Ġallow":2366,"tail":2367,"flict":2368,"conv":2369,"vironment":2370,"hostname":2371,"Ent":2372,"pool":2373,"linux":2374,"ĠKeyError":2375,"spective":2376,"filters":2377,"wer":2378,"installed":2379,"bar":2380,"ek":2381,"total":2382,"inner":2383,"ublic":2384,"mi":2385,"Ġunicode":2386,"Table":2387,"Ġbyte":2388,"ug":2389,"Ġimp":2390,"ias":2391,"ĠTuple":2392,"Ġ82":2393,"Ġtokens":2394,"MARK":2395,"manager":2396,"itespace":2397,"Ġyour":2398,"Ġfont":2399,"Logger":2400,"andidates":2401,"Ġpaths":2402,"ĠOS":2403,"Node":2404,"Ġnamedtype":2405,"untime":2406,":]<":2407,"shape":2408,"Ġskip":2409,"contr":2410,"Ġparsed":2411,"commands":2412,"Item":2413,"On":2414,"Ġresp":2415,"ors":2416,"Ġwe":2417,"Ġchunk":2418,"after":2419,"zen":2420,"Ġpassword":2421,"Ġstatus":2422,"meta":2423,"moved":2424,"esc":2425,"Ġclient":2426,"Ġstream":2427,"libraries":2428,"KEY":2429,"Ġ--":2430,"fp":2431,"backend":2432,"ðŁĮ":2433,"]))<":2434,"ynt":2435,"Ġlines":2436,"Ġrequire":2437,"Ġextract":2438,"Ġload":2439,"dio":2440,"clear":2441,"ĠPro":2442,"ceptions":2443,"000001":2444,"bject":2445,"Ġmult":2446,"Ġssl":2447,"come":2448,"resol":2449,"TER":2450,"ĠAttribute":2451,"record":2452,"rozen":2453,"eger":2454,"ĠInvalid":2455,"yntax":2456,"uage":2457,"Ġfed":2458,"ĠĠĠĠĠĠĠĠĠĠĠĠĠĠ":2459,"vali":2460,"exe":2461,"unexpected":2462,"ĠendTag":2463,"literal":2464,"contrib":2465,"control":2466,"âłĢ":2467,"PAT":2468,"az":2469,"BU":2470,"RI":2471,"emb":2472,"acter":2473,"mask":2474,"ParseError":2475,"idx":2476,"else":2477,"aph":2478,"SA":2479,"Loc":2480,"ait":2481,"gine":2482,"now":2483,"Ġper":2484,"Ġimg":2485,"ĠNotImplementedError":2486,"basename":2487,"olute":2488,"uf":2489,"xFE":2490,"INFO":2491,"igr":2492,"ðĲ":2493,"norm":2494,"</":2495,"dev":2496,"ifest":2497,"aging":2498,"gging":2499,"eval":2500,"SU":2501,"Ġ\"_":2502,"Ġinter":2503,"convert":2504,"ĠĠĠĠĠĠĠĠĠĠĠĠĠĠĠĠĠĠĠĠĠĠ":2505,"Ġfull":2506,"ĠDE":2507,"mention":2508,"chars":2509,"del":2510,"Ġattrs":2511,"Ġsession":2512,"GG":2513,"wrap":2514,"results":2515,"number":2516,"Ġfun":2517,"contain":2518,"Ġconnection":2519,"extensions":2520,"pkg":2521,"stdout":2522,">\"":2523,"Ġdownload":2524,"template":2525,"Ġreason":2526,"here":2527,"Comment":2528,"ls":2529,"Regex":2530,"strict":2531,"Ġfinal":2532,"Ġrandom":2533,"Config":2534,"Ġcollections":2535,"As":2536,"ware":2537,"Ġbytes":2538,"Po":2539,"ITE":2540,"MENT":2541,"iterable":2542,"Ġmeta":2543,"Ġsetuptools":2544,"reason":2545,"Ġsetup":2546,"Install":2547,"âĸĴ":2548,"Ġparams":2549,"sure":2550,"Ġne":2551,"ready":2552,"chema":2553,"ATION":2554,"Message":2555,"Ġsplit":2556,"Ġsorted":2557,"Ġexpected":2558,"Ġ\"`":2559,"hs":2560,"float":2561,"loader":2562,"users":2563,"ia":2564,"Ġutil":2565,"document":2566,"ĠColumn":2567,"original":2568,"Ġlocation":2569,"messages":2570,"ning":2571,"ook":2572,"sleep":2573,":</":2574,"ĠĠĠĠĠĠĠĠĠĠĠĠĠĠĠĠĠĠ":2575,"Ġcopy":2576,"ĠAttributeError":2577,"EC":2578,"BO":2579,"More":2580,"Ġmod":2581,"tk":2582,"apped":2583,"xff":2584,"Ġfield":2585,"âĻ":2586,"older":2587,"org":2588,"Ġconvert":2589,"Ġinstalled":2590,"Test":2591,"onent":2592,"wner":2593,"oice":2594,"acklist":2595,"xx":2596,"place":2597,"ĠConfig":2598,"(\".":2599,"Ġtrans":2600,"cale":2601,"quot":2602,"preter":2603,"256":2604,"GS":2605,"PA":2606,"ng":2607,"Ġshow":2608,"Ġarg":2609,")),<":2610,"VE":2611,"DOWN":2612,"Window":2613,"hod":2614,"section":2615,"oto":2616,"grade":2617,"Ġabsolute":2618,"aded":2619,"'s":2620,"Impl":2621,"tmp":2622,"Ġrequests":2623,"ificate":2624,"umerate":2625,"active":2626,")\"":2627,"Ġwarn":2628,"Ġ..":2629,"reqs":2630,"Ġdjango":2631,"(\"\\":2632,"xml":2633,"Ġlocal":2634,"setParseAction":2635,"ĠMovedModule":2636,"Ġtable":2637,"Ġfirst":2638,"Ġtotal":2639,"Method":2640,"'],<":2641,"points":2642,"OrMore":2643,"Ġbuf":2644,"ARS":2645,"\"])<":2646,"Call":2647,"ĠUser":2648,"words":2649,"Ġ'(":2650,"Ġshould":2651,"nn":2652,"umb":2653,"Ġprereleases":2654,"staticmethod":2655,"ĠĠĠĠĠĠĠĠĠĠĠĠĠĠĠĠĠĠĠĠĠĠĠĠĠĠĠĠĠ":2656,"100":2657,"executable":2658,"Ġsoup":2659,"fetch":2660,"oun":2661,"Ġ',":2662,"Whitespace":2663,"Path":2664,"function":2665,"fer":2666,"legacy":2667,"Parser":2668,"Sec":2669,"uri":2670,"Ġord":2671,"Ġtypes":2672,"Up":2673,"duct":2674,"ERS":2675,"xFB":2676,")\",":2677,"Ġwin":2678,"â£¿":2679,"Ġsocket":2680,"rp":2681,"exceptions":2682,"\"].":2683,"Ġjoin":2684,"stderr":2685,"','":2686,"Ġenumerate":2687,"Auth":2688,"Ġq":2689,"ĉĉĉ":2690,"imple":2691,"resh":2692,"517":2693,"Ser":2694,"description":2695,"-%":2696,"mt":2697,"Response":2698,"uid":2699,"ĠVersion":2700,"ERR":2701,"ĠDict":2702,"033":2703,"mdo":2704,"Ġpri":2705,"Ġfloat":2706,"Ġio":2707,"pg":2708,"six":2709,"tuple":2710,"ðŁĵ":2711,"ined":2712,"mbols":2713,"exception":2714,"weight":2715,">{":2716,"ðĿ":2717,"Ġsystem":2718,"callback":2719,"âĸĪâĸĪ":2720,"idd":2721,"parsed":2722,"\"),":2723,"force":2724,"ÙĬ":2725,"oundation":2726,"getLogger":2727,"FD":2728,"aw":2729,"Foundation":2730,"ĠInlineKeyboard":2731,"Ġbest":2732,"Ġerrors":2733,"Ġrv":2734,"ailable":2735,"enter":2736,"ker":2737,"mdoptions":2738,"asses":2739,"true":2740,"jor":2741,"exit":2742,"Ġdst":2743,"rest":2744,"rt":2745,"dump":2746,"Option":2747,"ORD":2748,"font":2749,"Ġheader":2750,"Ġusername":2751,"objects":2752,"iddle":2753,"Model":2754,"ution":2755,"Prober":2756,"dispatcher":2757,"Frame":2758,"bdist":2759,"ĠĠĠĠĠĠĠĠĠĠĠĠĠĠĠĠĠĠĠĠĠĠĠĠĠ":2760,"%(":2761,"Ġnn":2762,"markup":2763,"retry":2764,"Mark":2765,"TE":2766,"Ġverbose":2767,"fl":2768,"Ġfe":2769,"digest":2770,"patch":2771,"column":2772,"(**":2773,"Ġlevel":2774,"Ġ'__":2775,"implementation":2776,"Ġexist":2777,"subprocess":2778,"river":2779,"Ġhttp":2780,"ĠCallback":2781,"Ġconstraint":2782,"BC":2783,"sm":2784,"step":2785,"200":2786,"ensor":2787,"dry":2788,"ots":2789,"tar":2790,"EndTag":2791,"vate":2792,"allowed":2793,"ms":2794,"attribute":2795,"Ġ\"(":2796,"compare":2797,"dence":2798,"ish":2799,"fc":2800,"seconds":2801,"toklist":2802,"mayReturn":2803,"mayReturnEmpty":2804,"SI":2805,"Ġ[]":2806,"rain":2807,"LOCK":2808,"ctx":2809,"setdefault":2810,"ĠK":2811,"Ġmo":2812,"unpack":2813,"Chat":2814,"âĸĴâĸĴ":2815,"ĠĠĠĠĠĠĠĠĠĠĠĠĠĠĠĠĠĠĠĠĠĠĠĠĠĠĠĠ":2816,"=(":2817,"__<":2818,"Ġthat":2819,"Ġdistribution":2820,"Ġtitle":2821,"Ġasyncio":2822,"tokens":2823,"register":2824,"exclude":2825,"rm":2826,"udio":2827,"__(<":2828,"Ġcallback":2829,"hex":2830,"Ġ\"/":2831,"server":2832,"__.":2833,"Ġonly":2834,"np":2835,"application":2836,"Ġdry":2837,"rev":2838,"regex":2839,"show":2840,"Ġpost":2841,"Ġbasestring":2842,"ERROR":2843,"charset":2844,"rozenset":2845,"Ġsuccess":2846,"rypt":2847,"Ġsetattr":2848,"]]":2849,"prepare":2850,"actory":2851,"bool":2852,"reen":2853,"commit":2854,"buf":2855,"dered":2856,"Ġwill":2857,"apt":2858,"Ġcv":2859,"Ġdb":2860,"(\\":2861,"ble":2862,"Def":2863,"layer":2864,"Expected":2865,"Ġ\"--":2866,"archive":2867,"Ġhave":2868,"ParseMode":2869,"Ġnetloc":2870,"Ġresults":2871,"NamedType":2872,"parseError":2873,"ww":2874,"chain":2875,"Ġtelegram":2876,"aceback":2877,"Ġsearch":2878,"Ġensure":2879,"Ġ+<":2880,"ten":2881,"ĠRequirement":2882,"hel":2883,"Ġsy":2884,"xed":2885,"SHA":2886,"xfe":2887,"Ġcanonical":2888,"rat":2889,"packaging":2890,"ensure":2891,"Ġproxy":2892,"ĠCore":2893,"eq":2894,"groups":2895,"SET":2896,"ĠCommandHandler":2897,"best":2898,"Ident":2899,"NING":2900,"[:-":2901,"CC":2902,"xdc":2903,"Build":2904,"redirect":2905,"Ġport":2906,"ports":2907,"ants":2908,"ĠCoreFoundation":2909,"\"]:<":2910,"phases":2911,"Ġstack":2912,"ABLE":2913,"Ġblock":2914,"Encoding":2915,"ializer":2916,"Ġfl":2917,"raise":2918,"Ġegg":2919,"ĠDistribution":2920,"istory":2921,"xcf":2922,"ĠStr":2923,"abspath":2924,"__,":2925,"game":2926,"}\")<":2927,"Ġresol":2928,"pression":2929,"ĠZ":2930,"Ġfp":2931,"Ġman":2932,"pred":2933,"constraint":2934,"Ð¾":2935,"xab":2936,"ther":2937,"Group":2938,"Ġreplace":2939,"Ġ).":2940,"Ġselect":2941,"offset":2942,"comment":2943,"go":2944,"OK":2945,"Ġremove":2946,"TLS":2947,"gb":2948,"anch":2949,"real":2950,"loss":2951,"DIR":2952,"long":2953,"importer":2954,"Ġvalid":2955,"Ġsection":2956,"'].":2957,"ags":2958,"Ġtar":2959,"keep":2960,"Ġvalues":2961,"logging":2962,"ful":2963,"Ġshutil":2964,"Ġ\"'":2965,"extract":2966,"stop":2967,"tect":2968,"ĠĠĠĠĠĠĠĠĠĠĠĠĠĠĠĠĠĠĠĠĠĠĠĠĠĠ":2969,"ination":2970,"Ð°":2971,"libc":2972,"xB":2973,"soup":2974,"pendencies":2975,"}</":2976,"ĠOption":2977,"cla":2978,"Size":2979,"random":2980,"loaded":2981,"}\\":2982,"fs":2983,"ense":2984,"Ġremaining":2985,"xfb":2986,"netloc":2987,"ifiers":2988,"ĠBase":2989,"inder":2990,"Ġunpack":2991,"ĠMessage":2992,"Ġfrozenset":2993,"child":2994,"(\"%":2995,"xfa":2996,"This":2997,"Ġone":2998,"xea":2999,"OF":3000,"ĠImage":3001,"IME":3002,"Ġpackages":3003,"xD":3004,"ich":3005,"clean":3006,"}\".":3007,"Ġextras":3008,")\\":3009,"const":3010,"Ġfinder":3011,"okies":3012,"MM":3013,"attrs":3014,"olated":3015,"ĠGroup":3016,"pep":3017,"Ġfilter":3018,"emo":3019,"byte":3020,"defaults":3021,"plied":3022,"ctools":3023,"upported":3024,"â¬ľ":3025,"('/":3026,"media":3027,":%":3028,"dk":3029,"ØŃ":3030,"ĠLO":3031,"handle":3032,"Found":3033,"clo":3034,"Ø¬":3035,"Ġlength":3036,"optim":3037,"fter":3038,"Ġrequired":3039,"Ġsix":3040,"xAB":3041,"ater":3042,"home":3043,"stock":3044,"seq":3045,"upper":3046,"classes":3047,"ries":3048,"Ġthread":3049,"ðŁĵ¶":3050,"Ġdebug":3051,"()))<":3052,"Ġmember":3053,"posit":3054,"fail":3055,"xdb":3056,"Ġcandidate":3057,"Stack":3058,"epoch":3059,"Unexpected":3060,"Quote":3061,"Python":3062,"ake":3063,"sticker":3064,"windows":3065,"non":3066,"ĠPY":3067,"Ġdoes":3068,"matches":3069,"IL":3070,"asic":3071,"umns":3072,"xee":3073,"Ġword":3074,"ĠUnion":3075,"ĠRegex":3076,"StartTag":3077,"dataset":3078,"()[":3079,"Ġbutton":3080,"ĠAny":3081,"Ġ},<":3082,"Content":3083,"255":3084,"ĠOSError":3085,"known":3086,"nor":3087,"score":3088,"cent":3089,"change":3090,"Ġgener":3091,"ignoreExpr":3092,"icro":3093,"auto":3094,"[^":3095,"xfc":3096,"thread":3097,"Ġprospective":3098,"fr":3099,"vs":3100,"verse":3101,"parsing":3102,"empty":3103,"sent":3104,">]<":3105,"Bot":3106,"my":3107,"Any":3108,"Ġdescription":3109,"ir":3110,"reset":3111,"listdir":3112,"====":3113,"Const":3114,"istry":3115,"cros":3116,"mk":3117,"heck":3118,"ays":3119,"ĠparseImpl":3120,"anned":3121,"Ġbatch":3122,"Pl":3123,"xae":3124,"âĢİ":3125,"Ġsave":3126,"Ġargument":3127,"egacy":3128,"Ġro":3129,"atus":3130,"Ġ\">":3131,"Ġtrain":3132,"USERS":3133,"video":3134,"Ġcomment":3135,"ating":3136,"ĠSt":3137,"ted":3138,"áĦ":3139,"required":3140,"xbd":3141,"ply":3142,"ĠĠĠĠĠĠĠĠĠĠĠĠĠĠĠĠĠĠĠĠĠĠĠĠĠĠĠĠĠĠĠĠĠĠĠĠĠĠĠĠĠĠĠĠĠĠĠĠĠĠĠĠĠĠĠĠĠĠĠ":3143,"xcd":3144,"âłĢâłĢ":3145,"ts":3146,"WS":3147,"QU":3148,"mission":3149,"DS":3150,"like":3151,"())":3152,"iddleware":3153,"xbf":3154,"AS":3155,"paceCharacters":3156,"Ġallowed":3157,"Wr":3158,"execute":3159,"Ġ'_":3160,"fied":3161,"ALL":3162,"ĠTYPE":3163,"xC":3164,"indent":3165,"defined":3166,"Ġdoc":3167,"Cre":3168,"PRO":3169,"rb":3170,"Ġfilenames":3171,"Ġfilters":3172,"abi":3173,"ĠSyntax":3174,"Ġdecode":3175,"bin":3176,"ea":3177,"Ġquote":3178,"xaa":3179,"PRE":3180,"Ġ\"\".":3181,"--------":3182,"expand":3183,"ĠDe":3184,"ĠĠĠĠĠĠĠĠĠĠĠĠĠĠĠĠĠĠĠĠĠĠĠĠĠĠĠĠĠĠ":3185,"Pos":3186,"Ġright":3187,"=_":3188,"},":3189,"ĠLink":3190,"RUN":3191,"à´":3192,"xef":3193,"prober":3194,"âĢİðŁĵ¶":3195,"unit":3196,"xbb":3197,"vc":3198,"Ġstop":3199,"embed":3200,"finder":3201,"precated":3202,"ĠCallbackContext":3203,"elcome":3204,"xdf":3205,"helper":3206,"rop":3207,"Ġstd":3208,"xdd":3209,"LIST":3210,"Ġ_,":3211,"Ġsha":3212,"iltin":3213,"Ġrecord":3214,"Tree":3215,"UR":3216,"xfd":3217,"Ġarchive":3218,"Ġsuffix":3219,"Ġwork":3220,"ud":3221,"tokdict":3222,"API":3223,"ise":3224,"ling":3225,"xac":3226,"tyle":3227,"xies":3228,"Ġexp":3229,"BASE":3230,"eof":3231,"just":3232,"yle":3233,"Dir":3234,")\"<":3235,"Phase":3236,"soft":3237,"Ġcurr":3238,"sock":3239,"serve":3240,"doctype":3241,"Header":3242,"Dis":3243,"Map":3244,"nu":3245,"xeb":3246,"RED":3247,"xda":3248,"png":3249,"ZE":3250,"Metadata":3251,"YER":3252,"ationError":3253,"Ġitertools":3254,"Ġserver":3255,"ĠQt":3256,"Ġbinary":3257,"xec":3258,"Ġhead":3259,"Ġmy":3260,"ui":3261,"xce":3262,"Ġappname":3263,"'\"":3264,"ĠURL":3265,"ãĢ":3266,"buff":3267,"display":3268,"IP":3269,"ee":3270,"ified":3271,"Ġleft":3272,"private":3273,"Ġar":3274,"tn":3275,"ernel":3276,"('\\":3277,"Ġnumber":3278,"Ġframe":3279,"([<":3280,"egative":3281,"All":3282,"allow":3283,"Ġcolumn":3284,"Other":3285,"xcc":3286,"LAGS":3287,"LOAD":3288,"Ġitems":3289,"â£¿â£¿":3290,"operator":3291,"Ġdirs":3292,"FB":3293,"xde":3294,"web":3295,"umpy":3296,"Ġreg":3297,"Robot":3298,"plot":3299,"Ġconnect":3300,"uble":3301,"stract":3302,"Ġcookie":3303,"Ġiterable":3304,"OL":3305,"(.*":3306,"multip":3307,"FE":3308,"nsupported":3309,"equal":3310,"ĠBad":3311,"hand":3312,"ĠÐ":3313,"ules":3314,"UP":3315,"Ġflags":3316,"safe":3317,"Object":3318,"104":3319,"xaf":3320,"ctypes":3321,"Ġexcp":3322,"Ġmap":3323,"isfile":3324,"clause":3325,"entities":3326,"face":3327,"xbc":3328,"alph":3329,"div":3330,"network":3331,"xcb":3332,"ique":3333,"Ad":3334,"ertificate":3335,"_,":3336,"Ġmarker":3337,"OP":3338,"Ġrel":3339,"Ġforce":3340,"ĠString":3341,"mis":3342,"Î¹":3343,"elect":3344,"Ġvali":3345,"MIC":3346,"00002":3347,"Ġsubprocess":3348,"Body":3349,"An":3350,"BUG":3351,"Bar":3352,"dot":3353,"ESTRO":3354,"normalize":3355,"stamp":3356,"'),":3357,"confi":3358,"oolean":3359,"Pool":3360,"ATE":3361,"Ġrequirements":3362,"ESTROYER":3363,"verbose":3364,"Ðµ":3365,"Ġmain":3366,"sign":3367,"Back":3368,"``":3369,"dential":3370,"ĠCallable":3371,"dst":3372,"With":3373,"versions":3374,"Status":3375,"Al":3376,"Ġlang":3377,"().__":3378,"000000":3379,"plus":3380,"Identifier":3381,"xad":3382,"MES":3383,"zer":3384,"ature":3385,"Values":3386,"Ġsite":3387,"licit":3388,"owner":3389,"Default":3390,"ĠInlineKeyboardButton":3391,"pair":3392,"Ġcompile":3393,"Attr":3394,"pure":3395,"dl":3396,"iant":3397,"Widgets":3398,"ĠID":3399,"scope":3400,"Ġuniv":3401,"ĠUnicode":3402,")\",<":3403,"setting":3404,"manifest":3405,"hisdata":3406,"stockhisdata":3407,"graph":3408,"ÑĤ":3409,"Specifier":3410,"Ġwidth":3411,"ParseResults":3412,"DATA":3413,"ĠSe":3414,"Ġpage":3415,"domain":3416,"COL":3417,"channels":3418,"the":3419,"TION":3420,"ctionary":3421,"Ġglob":3422,",\"":3423,"Style":3424,"ding":3425,"Ġretries":3426,"rence":3427,"si":3428,"itch":3429,"DIST":3430,"GGER":3431,"Ġdispatcher":3432,"CHAT":3433,"cursive":3434,"aped":3435,"Ġ{}\".":3436,")]":3437,"Ġthreading":3438,"ĠSU":3439,"ormalized":3440,"Ġobjects":3441,"gt":3442,"sw":3443,"cookies":3444,"dated":3445,"/{":3446,"SL":3447,"blacklist":3448,"Line":3449,"folder":3450,"ĠDis":3451,"Ġmissing":3452,"extern":3453,"FC":3454,"none":3455,"candidates":3456,":-":3457,"columns":3458,"ingle":3459,"aa":3460,"xba":3461,"('--":3462,"Ġlock":3463,"chats":3464,"ob":3465,"Filters":3466,"Ġrelease":3467,"verify":3468,"ored":3469,"Ġ...":3470,"Ġredirect":3471,"Ġprogress":3472,"Ġkind":3473,"abc":3474,"Ġview":3475,"features":3476,"distutils":3477,"bound":3478,"....":3479,"GE":3480,"Th":3481,"got":3482,"Ġprevious":3483,".\\":3484,"DB":3485,"git":3486,"FFFF":3487,"cat":3488,"Candidate":3489,"precation":3490,"Su":3491,"For":3492,"eb":3493,"finit":3494,"formats":3495,"Vi":3496,"ger":3497,"common":3498,"Ġpo":3499,"Ġwas":3500,"([\"":3501,"Check":3502,"orary":3503,"Dist":3504,"pository":3505,"null":3506,"Ġ\")<":3507,"over":3508,"ï¼":3509,"ization":3510,"hashes":3511,"Ġbackend":3512,"mit":3513,"csv":3514,"Tokens":3515,"MARKER":3516,"tric":3517,"param":3518,"xbe":3519,"Ġopts":3520,"ategory":3521,"environment":3522,"symbols":3523,"ĉĉĉĉĉĉĉĉ":3524,"tl":3525,"Ġkeys":3526,"ĠSecurityConst":3527,"MODE":3528,"gen":3529,"Ġalready":3530,"Ġ((":3531,"sor":3532,"Ġ20":3533,"requests":3534,"mote":3535,"ĠMY":3536,"summary":3537,"SIZE":3538,"jpg":3539,".')<":3540,"dep":3541,"Ġlibrary":3542,"ze":3543,"Ġoffset":3544,"ĠĠĠĠĠĠĠĠĠĠĠĠĠĠĠĠĠĠĠĠĠĠĠĠĠĠĠĠĠĠĠĠĠĠĠĠĠĠĠĠĠĠĠĠĠĠĠĠĠĠĠĠĠĠĠĠĠĠĠĠĠĠĠ":3545,"()),<":3546,"ĠSSL":3547,"Ġcolor":3548,"(\"<":3549,"Ġstacklevel":3550,"sort":3551,"Ġchannel":3552,"math":3553,"ORM":3554,"FIG":3555,"Ġplay":3556,"Select":3557,"]):<":3558,"`\",<":3559,"mes":3560,"ackage":3561,"Ġ100":3562,"oid":3563,"pk":3564,"Ġav":3565,"Ġhook":3566,"INE":3567,"answer":3568,"PATH":3569,"queue":3570,"Ð¸":3571,"resolve":3572,"IndexError":3573,"adding":3574,"FIEL":3575,"Platform":3576,"Ġ85":3577,"upgrade":3578,"ÙĦ":3579,"ancel":3580,"labels":3581,"bind":3582,"Ġnames":3583,"variable":3584,"engine":3585,"ĠFile":3586,"ĠIndexError":3587,"CHARS":3588,"fields":3589,"AC":3590,"sele":3591,"Ġident":3592,"Ġclose":3593,"Ġcanonicalize":3594,"ĠEx":3595,"ged":3596,"Ġcharset":3597,"Ġbasename":3598,"fb":3599,"âĸĳ":3600,"OT":3601,"restype":3602,"Ġdelete":3603,"ending":3604,"nder":3605,"ĠIterator":3606,">'":3607,"ĠPython":3608,"Position":3609,"Ġlong":3610,"INTER":3611,"Ġposition":3612,"Arg":3613,"setuptools":3614,"Ġstdout":3615,"Ġidx":3616,"license":3617,"specifier":3618,"outputs":3619,"ear":3620,"Ġcr":3621,"short":3622,"`\")<":3623,"tkinter":3624,"ITH":3625,"ĠopExpr":3626,"cap":3627,"named":3628,"Ġsep":3629,"mbine":3630,"dataState":3631,"Integer":3632,"xca":3633,"APP":3634,"Ġsp":3635,"lice":3636,"acc":3637,"Provider":3638,"Ġeval":3639,"correct":3640,"]]<":3641,"cos":3642,"Ġbl":3643,"Ġ255":3644,"Fore":3645,"ators":3646,"lection":3647,"Only":3648,"ables":3649,"ĠBot":3650,"dentials":3651,"Ġ])<":3652,"device":3653,"Ġsum":3654,"Ġ-=":3655,"tf":3656,"Ġhandle":3657,"RUNNING":3658,"Mix":3659,"usic":3660,"Ġseen":3661,"Ġnormalize":3662,"ĠIterable":3663,"Ġfunctools":3664,"AES":3665,"argv":3666,"STR":3667,"Open":3668,"vers":3669,"dic":3670,"\",\"":3671,"track":3672,"compatible":3673,"BAN":3674,"thing":3675,"Ġsupported":3676,"Quot":3677,"Ġns":3678,"Ġ*<":3679,"Ġvis":3680,"__.__":3681,"resp":3682,"Ġfullname":3683,"ignoreExprs":3684,"public":3685,"](":3686,"à¶":3687,"Download":3688,"(%":3689,"128":3690,"mbers":3691,"ðŁĶ´":3692,"cure":3693,"atis":3694,"Ġmask":3695,"endored":3696,"tails":3697,"=(\"":3698,"Ġencode":3699,"Ġfailed":3700,"igh":3701,"']:<":3702,"closed":3703,"vides":3704,"ĠMYPY":3705,"ions":3706,"('%":3707,"Ġac":3708,"ðŁĮķ":3709,"sources":3710,"PO":3711,"lers":3712,"suffix":3713,"ray":3714,"multi":3715,"validate":3716,"gor":3717,"Cur":3718,"ox":3719,"Ġraw":3720,"Ġretry":3721,"fwd":3722,"typing":3723,"StringClass":3724,"literalStringClass":3725,"Ġ(%":3726,"idden":3727,"generate":3728,"done":3729,"Ġdirect":3730,"gorith":3731,"Of":3732,"So":3733,"ayload":3734,"mac":3735,"âĹ¼ï¸ıâĹ¼ï¸ıâĹ¼ï¸ıâĹ¼ï¸ı":3736,"example":3737,"asy":3738,"ĠParseResults":3739,"Timeout":3740,"Ġlimit":3741,"ama":3742,"fullname":3743,"abase":3744,")-":3745,"Ġchild":3746,"SO":3747,"svg":3748,"View":3749,"eds":3750,"Ġep":3751,"Ġexisting":3752,"ingState":3753,"Ġlabels":3754,"ji":3755,"aza":3756,"TYPE":3757,"Ġnon":3758,"progress":3759,"()):<":3760,"â¬ľâ¬ľ":3761,"Ġwait":3762,">\"<":3763,"ĠRequest":3764,"219":3765,"]*":3766,"Ġctypes":3767,"(\">":3768,"formation":3769,"\"'":3770,"Ġover":3771,"MD":3772,"_.":3773,"Ùī":3774,"deredDict":3775,"arm":3776,"parame":3777,"Ġbuffer":3778,"ĠInstallationError":3779,"QuoteChar":3780,"Formatting":3781,"Client":3782,"crypt":3783,"Ġafter":3784,"ĠOr":3785,"Ġrequires":3786,"rig":3787,"component":3788,"Ġtemplate":3789,"desc":3790,"white":3791,"ðŁĶµ":3792,")}":3793,"Ġtree":3794,"argtypes":3795,"Ġlet":3796,")).":3797,"Ġaddress":3798,"CHECKING":3799,"ates":3800,"Ġpython":3801,"feature":3802,"UM":3803,"platforms":3804,"(\"/":3805,"Directory":3806,"ead":3807,"ĠĠĠĠĠĠĠĠĠĠĠĠĠĠĠĠĠĠĠĠĠĠĠĠĠĠĠĠĠĠĠĠĠĠĠĠĠ":3808,"gorithm":3809,"â¬Ľâ¬Ľâ¬Ľâ¬Ľ":3810,"missions":3811,"TIME":3812,"Index":3813,"Ġ],<":3814,"Child":3815,"UTF":3816,"Iter":3817,"Literal":3818,"Ġcommands":3819,"Var":3820,"CS":3821,"OptionError":3822,"Ġcontain":3823,"major":3824,"Ġreqs":3825,"Ġorder":3826,"seless":3827,"contains":3828,"THON":3829,"Ġ32":3830,"misc":3831,"cookie":3832,"Ġag":3833,"Retry":3834,"caption":3835,"Ġexecutable":3836,"Ġexclude":3837,"agent":3838,"ORY":3839,"GET":3840,"Try":3841,"fragment":3842,"actor":3843,"ered":3844,"ĠJ":3845,"Ġoriginal":3846,"history":3847,"ĠSet":3848,"INDO":3849,"></":3850,"Ġpe":3851,"prob":3852,"Conv":3853,"Image":3854,"markdown":3855,"before":3856,"Ġcompiler":3857,"mat":3858,"itel":3859,"machine":3860,"VC":3861,"erce":3862,"ĠSpec":3863,"END":3864,"á¼":3865,"Ġverify":3866,"Filter":3867,"ik":3868,"vcs":3869,"Ġimportlib":3870,"ĠDistutilsOptionError":3871,"ĠBadRequest":3872,"âľ":3873,"Ġtk":3874,"Ġsafe":3875,"bg":3876,"dar":3877,"angle":3878,"apter":3879,"Sub":3880,"glob":3881,"Setup":3882,"ĠQtWidgets":3883,"na":3884,"sample":3885,"}.":3886,"Ġemail":3887,"mean":3888,"IF":3889,"ef":3890,"=%":3891,"WITH":3892,"supported":3893,"crement":3894,"Ø®":3895,"ĠCH":3896,"ELP":3897,"Ġmulti":3898,"Offset":3899,"dtd":3900,"Ġinsert":3901,"Ġversions":3902,"ĠFED":3903,"licy":3904,"Ġattributes":3905,"Tuple":3906,"Ð½":3907,"uppress":3908,"cached":3909,"Core":3910,"Ġprimary":3911,"ERATION":3912,"subtype":3913,"Ġzipfile":3914,"Ġabis":3915,"Ġlookup":3916,"Windows":3917,"cmdoptions":3918,"ood":3919,"ickle":3920,"Ġvars":3921,"univ":3922,"Unicode":3923,"eroOrMore":3924,"bit":3925,"photo":3926,"urlparse":3927,"[:,":3928,"ĠX":3929,"Ġvcs":3930,"stats":3931,"mayIndexError":3932,"Ġalph":3933,"OUT":3934,"side":3935,"Ġpool":3936,"lood":3937,"Ġpartial":3938,"Markup":3939,"Compiler":3940,"TEXT":3941,"Sequence":3942,"cv":3943,"rl":3944,"pypi":3945,"cause":3946,"finalized":3947,"off":3948,"Process":3949,":\\":3950,"ĠCom":3951,"retries":3952,"Ġnull":3953,"style":3954,"registry":3955,"Color":3956,"icrosoft":3957,"ĠY":3958,"ENSION":3959,"[:]<":3960,"Range":3961,"ĠCF":3962,"Exec":3963,"interpreter":3964,"Cannot":3965,">)":3966,"Ġ[(":3967,"contents":3968,"Head":3969,"ĠRE":3970,"driver":3971,"pol":3972,"Ġstruct":3973,"imation":3974,"many":3975,"tb":3976,"nsi":3977,"oog":3978,"Ġbuttons":3979,"jar":3980,"tg":3981,"Admin":3982,"ropo":3983,"Ġsign":3984,"Ġip":3985,"Ġsock":3986,"ender":3987,"RECT":3988,"translate":3989,"ĠLOGGER":3990,"ropout":3991,"specs":3992,"Ġcodecs":3993,"slots":3994,"cpu":3995,"'(":3996,"CONFIG":3997,"Ġcannot":3998,"Ġclean":3999,"distro":4000,"ĠChat":4001,"Ġ[])<":4002,"Session":4003,"Ġinterpreter":4004,"finity":4005,"lt":4006,"ĠPip":4007,"']),<":4008,"Control":4009,"ĠPy":4010,"Ġreal":4011,"posix":4012,"Ġvalidate":4013,"oogle":4014,">}<":4015,"áı":4016,"Ġappauthor":4017,"LU":4018,"Ġet":4019,"rate":4020,"preview":4021,"mbol":4022,"Ġvariable":4023,"ä¸":4024,"Ġmatches":4025,"depth":4026,"Ġpred":4027,"Label":4028,"Ġfragment":4029,"filelist":4030,"Ġgr":4031,"lr":4032,"Ġplat":4033,"term":4034,"heb":4035,"schema":4036,"Ġexact":4037,"mpath":4038,"grid":4039,"Ġhashes":4040,"purelib":4041,"Orig":4042,"audio":4043,"uate":4044,"MAX":4045,"Ġvendored":4046,"Wheel":4047,"ĠApp":4048,"fw":4049,"trust":4050,"Ġdeprecated":4051,"Count":4052,"ugin":4053,"rstrip":4054,"ÙĨ":4055,"('-":4056,"Ġminor":4057,"Ġ\"*":4058,"Ġ\"{}":4059,"Ġclear":4060,"ube":4061,"light":4062,"Ġ<<":4063,"under":4064,"Ġref":4065,"found":4066,"ECT":4067,"fname":4068,"precationWarning":4069,".\".":4070,"lookup":4071,"edString":4072,"peed":4073,"TagToken":4074,"ĠSpecifier":4075,"product":4076,"Ġtri":4077,"Ġdivision":4078,"ERT":4079,"language":4080,"certs":4081,"les":4082,"cast":4083,"AF":4084,"appname":4085,"Ġoper":4086,"ipv":4087,"Ġprev":4088,"DOWNLOAD":4089,"funcs":4090,"Ġdate":4091,"Stream":4092,"makedirs":4093,"fully":4094,";<":4095,"NA":4096,"000004":4097,"ĠĠĠĠĠĠĠĠĠĠĠĠĠĠĠĠĠĠĠĠĠĠĠĠĠĠĠĠĠĠĠĠĠĠĠĠĠĠĠĠĠĠĠ":4098,"Trans":4099,"INDOWS":4100,"codes":4101,"Ġchange":4102,"loads":4103,"Ġelf":4104,"prop":4105,"ped":4106,"xE":4107,"à¸":4108,"region":4109,"ĠðŁ":4110,"HO":4111,"losing":4112,"ĠĠĠĠĠĠĠĠĠĠĠĠĠĠĠĠĠĠĠĠĠĠĠĠĠĠĠĠĠĠĠĠĠ":4113,"ialog":4114,"Proxy":4115,"rows":4116,"mmon":4117,"ĠChar":4118,"alog":4119,"factory":4120,"mer":4121,"Ġexprs":4122,"Ġ`{":4123,"Items":4124,"Ġconv":4125,"modi":4126,"IGHT":4127,"Can":4128,"alle":4129,"Ġnow":4130,"opener":4131,"cursor":4132,"mem":4133,"Ġdisable":4134,"Builder":4135,"uce":4136,"211":4137,"Ġentity":4138,"alk":4139,"Ġcwd":4140,"Ġbg":4141,"provider":4142,"Ġunit":4143,"Ġparam":4144,"MODEL":4145,"ride":4146,"protocol":4147,"database":4148,"neOrMore":4149,"Ġurlparse":4150,"shared":4151,"Ġxml":4152,"cname":4153,"fd":4154,"Ġtok":4155,"']['":4156,"Ġletter":4157,"Ġpd":4158,"00011":4159,"Ġtelethon":4160,"Ġcp":4161,"codeError":4162,"FIELDS":4163,"Ġcaption":4164,"Protocol":4165,"Left":4166,",'":4167,"coerce":4168,"Ġzaza":4169,"Ġimplementation":4170,"getitem":4171,"builtin":4172,"ĠTime":4173,"Ġ~":4174,"ĠInstallRequirement":4175,"traceback":4176,"compress":4177,"Ġenvironment":4178,"ach":4179,"}{":4180,"minor":4181,"alw":4182,"ĠComp":4183,"PPORT":4184,"}`":4185,"Ġsysconfig":4186,"Ġdisplay":4187,"Par":4188,"Input":4189,"egacyVersion":4190,"VAL":4191,"Trust":4192,"WORD":4193,"less":4194,"ĠFil":4195,"Resol":4196,"=['":4197,"sender":4198,"Ġoptim":4199,"normpath":4200,"CB":4201,"task":4202,"members":4203,"Ġnorm":4204,"conf":4205,"NotFound":4206,"leted":4207,"Ġarguments":4208,"DIRECT":4209,"WAR":4210,"cal":4211,"Ġ._":4212,"Ġheight":4213,"Ġfields":4214,"ĠResponse":4215,"temporary":4216,"uess":4217,"BaseException":4218,"Ġavailable":4219,"cwd":4220,"cd":4221,"ference":4222,"mon":4223,"oper":4224,"FED":4225,"Ġinstead":4226,"rpm":4227,"MS":4228,"libException":4229,"ISO":4230,"BY":4231,"Man":4232,"Ġld":4233,")?":4234,"ĠYou":4235,"ĠIO":4236,"DA":4237,"Sh":4238,"Ht":4239,"Ġ16":4240,"ĠTo":4241,"Finder":4242,"ification":4243,"criter":4244,"Ġdigest":4245,"(['":4246,"virt":4247,"LEN":4248,"eno":4249,"conflict":4250,"rive":4251,"Point":4252,"ĠInt":4253,"+\"":4254,"ĠDo":4255,"Scope":4256,"Ġ,":4257,"Ġplt":4258,"cb":4259,"ivation":4260,"igrations":4261,"Create":4262,"(-":4263,"Ġphase":4264,"sdist":4265,"âĹ¼ï¸ı\\":4266,"ategy":4267,"'{":4268,"ĠIN":4269,"uring":4270,"Bytes":4271,"Ġpad":4272,"Could":4273,"Code":4274,"Ġexit":4275,"ĠTemp":4276,"implied":4277,"hooks":4278,"ĠAnsi":4279,"//\",<":4280,"Environment":4281,"lineno":4282,"PYTHON":4283,"Block":4284,"ĠEnt":4285,"platlib":4286,"Link":4287,"reater":4288,"Ġpreloc":4289,"Ġisolated":4290,"Ġbut":4291,"suppress":4292,"cursion":4293,"ĠEn":4294,"Ġspecifier":4295,"Ġ\"-//":4296,"confidence":4297,"Net":4298,"ĠValues":4299,"ĠĠĠĠĠĠĠĠĠĠĠĠĠĠĠĠĠĠĠĠĠĠĠĠĠĠĠĠĠĠĠĠĠĠĠĠ":4300,"Right":4301,"ian":4302,"forward":4303,"Ð¾Ð":4304,"WH":4305,"Ġinstr":4306,"HELP":4307,"eded":4308,"orld":4309,"210":4310,"Ġ?":4311,"Ã©":4312,"unch":4313,"Ġ15":4314,"postargs":4315,"Byte":4316,"inish":4317,"ESS":4318,"skipWhitespace":4319,"Ġhome":4320,"Console":4321,"Column":4322,"__,<":4323,"ĠCOS":4324,"\"][\"":4325,"Ġgroups":4326,"IVE":4327,"à·":4328,"Ġlibraries":4329,"mute":4330,"ĠĠĠĠĠĠĠĠĠĠĠĠĠĠĠĠĠĠĠĠĠĠĠĠĠĠĠĠĠĠĠĠĠĠĠĠĠĠĠĠĠĠĠĠĠĠĠĠĠĠĠĠĠĠĠĠĠĠĠĠĠĠĠĠĠĠĠĠĠĠĠ":4331,"area":4332,"$\",":4333,"entries":4334,"transform":4335,",)<":4336,"Please":4337,"rand":4338,"Øª":4339,"Ġextension":4340,"dfstockhisdata":4341,"ĠSyntaxWarning":4342,"Ġdev":4343,"ĠDESTROYER":4344,"Ġwrapper":4345,"iple":4346,"ONE":4347,"ĠEmpty":4348,"iase":4349,"Ġcfg":4350,"than":4351,"ðĲ³":4352,"Ġax":4353,"Ġvisit":4354,"App":4355,"choice":4356,"MARKDOWN":4357,"HA":4358,"access":4359,"ĠCOSMIC":4360,"ĠEOF":4361,"HEAD":4362,"!\",<":4363,"Ig":4364,"flow":4365,"ssible":4366,"Dialog":4367,"ume":4368,"Ġmention":4369,"alance":4370,"CharsOrig":4371,"FormattingElements":4372,"'m":4373,"Ġnumpy":4374,"velo":4375,"fill":4376,"delta":4377,"215":4378,"uild":4379,"atal":4380,"velist":4381,"single":4382,"alker":4383,"Ġwrapped":4384,"âĢ¢":4385,"Ġ//":4386,"ĠĠĠĠĠĠĠĠĠĠĠĠĠĠĠĠĠĠĠĠĠĠĠĠĠĠĠĠĠĠĠĠĠĠĠĠĠĠĠĠĠĠĠĠĠĠĠĠĠĠĠĠĠĠĠ":4387,"Ġempty":4388,"should":4389,"lex":4390,"termin":4391,"Ġgen":4392,"CU":4393,"âĪ":4394,"ilt":4395,"ground":4396,"æĹ":4397,"Buffer":4398,"constants":4399,"CommandHandler":4400,"latin":4401,"__\",<":4402,"getattr":4403,"Query":4404,"[<":4405,"_(":4406,"Ġ\"\")<":4407,"Ġred":4408,"isinstance":4409,"ĠWin":4410,"eta":4411,"Attributes":4412,"Ġ\"[":4413,"upload":4414,"Ġusing":4415,"ĠWord":4416,"Ġdirname":4417,"CR":4418,"rogram":4419,"pared":4420,"Ġerrno":4421,"revision":4422,")\")<":4423,"dator":4424,"Ġstep":4425,"SetProber":4426,"ĠDistlibException":4427,"âķĲ":4428,"Font":4429,"\\\"":4430,"LOW":4431,"ua":4432,"used":4433,"canonical":4434,"spa":4435,"DEBUG":4436,"Mapping":4437,"Ġwant":4438,"Keyword":4439,"eration":4440,"utes":4441,"Ġ{}'.":4442,"ainer":4443,"Ġcmdoptions":4444,"distributions":4445,"EA":4446,"satis":4447,"Ġmath":4448,"ONS":4449,"LACK":4450,"Ø§":4451,"Ġnote":4452,"thumb":4453,"+'":4454,"Ġ\":":4455,"Ġattribute":4456,"cmp":4457,"repository":4458,"scan":4459,"screen":4460,"DEF":4461,"ÑĢ":4462,"Ġreset":4463,"Ġchars":4464,"chemy":4465,"Mixin":4466,"lstrip":4467,"push":4468,"loop":4469,"but":4470,"www":4471,"ĠDisable":4472,"NT":4473,"EXTENSION":4474,"âĽ":4475,"Ġsw":4476,"Ġusers":4477,"Double":4478,"Entity":4479,"Able":4480,"allback":4481,"Names":4482,"Ġcallable":4483,"zero":4484,"Ġireq":4485,"Ġshort":4486,"ECD":4487,"aly":4488,"previous":4489,"Ġstrict":4490,"Ġstderr":4491,"ĠFEDERATION":4492,"InlineKeyboard":4493,"Resource":4494,"Certificate":4495,"wrapper":4496,"initialize":4497,"ĠIP":4498,"layers":4499,"scr":4500,"Ġ200":4501,"Ġkeyword":4502,"{}`":4503,"available":4504,"Ġplatforms":4505,"Ġdep":4506,"ðŁİ":4507,"optimize":4508,"wo":4509,"tempt":4510,"Lib":4511,"fileobj":4512,"blue":4513,"splitext":4514,"requested":4515,"images":4516,"origin":4517,"âĸĴâĸĴâĸĴâĸĴ":4518,"pendency":4519,"Ġap":4520,"[:]":4521,"]['":4522,"UL":4523,"]|":4524,"áħ":4525,"prev":4526,"Ġtop":4527,"Ġscope":4528,"Temp":4529,"iven":4530,"dialect":4531,"darwin":4532,"torch":4533,"Ġquot":4534,"ster":4535,"matchLen":4536,"Ġtempfile":4537,"manylinux":4538,".%":4539,"Ġinvalid":4540,"ĠDisableAble":4541,"atures":4542,"very":4543,"character":4544,"day":4545,"metric":4546,"lopen":4547,"PlatformError":4548,"Ġprepare":4549,"success":4550,"Ġ%<":4551,"kind":4552,"Ġws":4553,"Ġmachine":4554,"road":4555,"ipFile":4556,"rank":4557,"Ġgot":4558,"INT":4559,"118":4560,"Ac":4561,"Ġvariant":4562,"Ġflag":4563,"Ġ'{":4564,"imum":4565,"Ġabi":4566,"dependencies":4567,"ĠĠĠĠĠĠĠĠĠĠĠĠĠĠĠĠĠĠĠĠĠĠĠĠĠĠĠĠĠĠĠĠĠĠĠĠĠĠ":4568,"support":4569,"wb":4570,"\"]})<":4571,"hers":4572,"Ġ'')<":4573,"versed":4574,"Constraint":4575,"IST":4576,"Next":4577,"tty":4578,"Ġcandidates":4579,"macros":4580,"Ġsent":4581,"Author":4582,"pathname":4583,"sport":4584,"prospective":4585,"ĠparseElement":4586,"****":4587,"213":4588,"Ġ()<":4589,"prerelease":4590,"remaining":4591,"Ġ((\"":4592,"Ġdependencies":4593,"inputs":4594,"Ġremoved":4595,"Ġcombine":4596,"Ġkernel":4597,"abil":4598,"allel":4599,"(\"-":4600,"ĠProb":4601,"âĸĳâĸĳ":4602,"Ġ'\"":4603,"mapper":4604,"mapping":4605,"Ġrepr":4606,"ibling":4607,"fire":4608,"Ġloss":4609,"Ġstride":4610,"ĠWheel":4611,"Ġused":4612,"âĢİðŁĵ¶âĢİðŁĵ¶":4613,"İâĽ":4614,"ĵâĻ":4615,"Ġfg":4616,"Ġcontextlib":4617,"âĻĵâĻ":4618,"ðŁĶ´ðŁĶµ":4619,"ðŁĮķâĻĵâĻ":4620,"ĠComb":4621,"İâĽİ":4622,"ðŁĶ´ðŁĶµðŁĮķâĻĵâĻ":4623,"ðŁĶ´ðŁĶµðŁĮķâĻĵâĻİâĽİ":4624,"cip":4625,"Ġ60":4626,"slash":4627,"ï½":4628,"Length":4629,"Ġneed":4630,"flush":4631,"gn":4632,"Num":4633,"Ġmore":4634,"Ġbeen":4635,"hance":4636,"alys":4637,"Ġinte":4638,"Ġruntime":4639,"Ġrhs":4640,"ĠSuppress":4641,"icip":4642,"Unknown":4643,"impliedTagToken":4644,"sage":4645,"Ġschema":4646,"Doctype":4647,"212":4648,"SpaceCharacters":4649,"rection":4650,"RSA":4651,"_{":4652,"ories":4653,"Ġ'*":4654,"counter":4655,"dapt":4656,"Ġpathname":4657,"Ġvc":4658,"LAT":4659,"fy":4660,"Ø³":4661,"ART":4662,"Date":4663,"cores":4664,"alysis":4665,"Ġdistro":4666,"pad":4667,"collect":4668,"Ġcached":4669,"Ġwrap":4670,")*":4671,"buttons":4672,"Ġfix":4673,"Ġsettings":4674,"Ġwhen":4675,"login":4676,"container":4677,"Py":4678,"report":4679,"dialog":4680,"cell":4681,"nored":4682,"UND":4683,"Ġweight":4684,"ASE":4685,"Ġappend":4686,"service":4687,"ĠPO":4688,"FIX":4689,"ĠUnsupported":4690,"achine":4691,"nam":4692,"normal":4693,"circ":4694,"ðŁĴ":4695,"TR":4696,"inv":4697,"keywords":4698,"Ġborg":4699,"insertElement":4700,"cu":4701,"false":4702,"rok":4703,"Help":4704,"checkpoint":4705,"ĠFor":4706,"handlers":4707,"=-":4708,"menu":4709,"Read":4710,"methods":4711,"Matches":4712,"normcase":4713,"outube":4714,"Ġwhich":4715,"Add":4716,"pages":4717,"AsList":4718,"EB":4719,"der":4720,"cpp":4721,"keyword":4722,"saveAsList":4723,"spawn":4724,"]{":4725,"where":4726,"urlopen":4727,"Ġseconds":4728,"Ġmajor":4729,"player":4730,"Ġserialize":4731,"IM":4732,"trig":4733,"Ġ_(":4734,"oks":4735,"UNK":4736,"PK":4737,"tension":4738,"Ġmat":4739,"Expression":4740,"224":4741,"áĥ":4742,"Ġkw":4743,"Debug":4744,"contextmanager":4745,"note":4746,"proxies":4747,"GRO":4748,"ĠProbingState":4749,"Ġok":4750,"Ġtransform":4751,"hebang":4752,"Html":4753,"FLAGS":4754,"glibc":4755,"Ġ12":4756,"frameset":4757,"0338":4758,"TOCOL":4759,"ĠDisableAbleCommandHandler":4760,"á½":4761,"ersal":4762,"Ġuserbot":4763,"Ġcast":4764,"scale":4765,"Policy":4766,"Ari":4767,"Ġsavelist":4768,"ĠCombine":4769,"ĠPOINTER":4770,"robot":4771,"endTag":4772,"Ġinstaller":4773,"ĠIOError":4774,"]),":4775,"olation":4776,"Ġdomain":4777,"codepoint":4778,"()]<":4779,"startTag":4780,"Lay":4781,"cf":4782,"custom":4783,"sim":4784,"deps":4785,"Ġepoch":4786,"unknown":4787,"][\"":4788,"At":4789,"rix":4790,"Ġinstrlen":4791,"SCHE":4792,"=\",":4793,"hoto":4794,"middleware":4795,"æľ":4796,"Ġmetavar":4797,"Adapt":4798,"Closing":4799,"Ġcompat":4800,"EXP":4801,"reader":4802,"ansport":4803,"Decoder":4804,"Ñģ":4805,"Ġtags":4806,"INGS":4807,"car":4808,"Middleware":4809,"VARS":4810,"alias":4811,"ector":4812,"Ġhandler":4813,"CFA":4814,"ĠBy":4815,"flag":4816,"Arial":4817,"diff":4818,"ĠCa":4819,"literals":4820,"Server":4821,"percent":4822,"AA":4823,"Microsoft":4824,"CharSetProber":4825,"Ġlinks":4826,"Out":4827,"imal":4828,"SSLContext":4829,"Ġdocument":4830,"ments":4831,"lenv":4832,"svc":4833,"virtua":4834,"virtualenv":4835,"System":4836,"Ġ':":4837,"REQU":4838,"Ġchats":4839,"ĠlastExpr":4840,"Vali":4841,"pires":4842,"Ġctx":4843,"ift":4844,"Ġstrip":4845,"azy":4846,"Ġpublic":4847,"ĠReg":4848,"Ġtyp":4849,"click":4850,"Ġlike":4851,"vided":4852,"ats":4853,"()).":4854,"anguage":4855,"visit":4856,"Ġ`{}`":4857,"Pass":4858,"rules":4859,"Ø±":4860,"ĠPath":4861,"Ġklass":4862,"MethodType":4863,"gz":4864,"ĠĠĠĠĠĠĠĠĠĠĠĠĠĠĠĠĠĠĠĠĠĠĠĠĠĠĠĠĠĠĠĠĠĠĠĠĠĠĠĠ":4865,"ested":4866,"ĠOpen":4867,"decoder":4868,"makefile":4869,"Ġinitialize":4870,"VAR":4871,"simple":4872,"uc":4873,"strategy":4874,"abet":4875,"integer":4876,"ometry":4877,"mathml":4878,"velop":4879,"card":4880,"alchemy":4881,"getter":4882,"unlink":4883,"emoji":4884,"Ġexists":4885,"Recursion":4886,"Inst":4887,"initial":4888,"Ġprober":4889,"writ":4890,"PreParse":4891,")),":4892,"alect":4893,"Ġsingle":4894,"Ġbr":4895,"(\"_":4896,"(\"`":4897,"ends":4898,"destination":4899,"IFI":4900,"Ġhand":4901,"Enhance":4902,"ĠNo":4903,"anked":4904,"Ġfinalize":4905,"ĠEntry":4906,"?\\":4907,"BE":4908,"sn":4909,"foo":4910,"tokenizer":4911,"feed":4912,"(\",":4913,"Ġcursor":4914,"Tensor":4915,"patcher":4916,"Ġiss":4917,"unce":4918,"Ġwindow":4919,"Ġoutputs":4920,"void":4921,"Ġrep":4922,"{}\".":4923,"ADATA":4924,"214":4925,"CD":4926,"('_":4927,"ireq":4928,"verter":4929,"ords":4930,"Ġ(%(":4931,"dicate":4932,"Mult":4933,"peat":4934,"ĠĠĠĠĠĠĠĠĠĠĠĠĠĠĠĠĠĠĠĠĠĠĠĠĠĠĠĠĠĠĠĠĠĠĠĠĠĠĠĠĠĠĠĠĠĠĠĠĠĠĠĠĠĠĠĠĠĠĠĠĠĠĠĠĠĠĠĠĠĠĠĠĠĠĠĠĠĠĠ":4935,"ĠĠĠĠĠĠĠĠĠĠĠĠĠĠĠĠĠĠĠĠĠĠĠĠĠĠĠĠĠĠĠĠĠĠĠĠĠĠĠĠĠĠ":4936,"scriptData":4937,"elementIn":4938,"Ð»":4939,"ĠHTML":4940,"Ġmedia":4941,"med":4942,"pin":4943,"Ġarray":4944,"second":4945,"unique":4946,"ums":4947,"âķĲâķĲ":4948,">(":4949,"CTYPE":4950,"CHAR":4951,"Ġpyrogram":4952,"while":4953,"Ġnamespaces":4954,"ĠmatchExpr":4955,"going":4956,"ĠSpecifierSet":4957,"ĠparseElementList":4958,"300":4959,"Ġtod":4960,"itertools":4961,"disable":4962,"lm":4963,"uff":4964,"pathsep":4965,"tele":4966,"markers":4967,"Ġpygame":4968,"Analysis":4969,"dit":4970,"Ġdists":4971,"Ġresolve":4972,"Ùĩ":4973,"Ġ\"ðŁ":4974,"Ġargparse":4975,"trace":4976,"¼'),<":4977,"Ġpair":4978,"ĠDistutilsSetup":4979,"Ġhashlib":4980,"ĠDistutilsSetupError":4981,"ĠÌ":4982,"ntil":4983,"ĠAs":4984,"Progress":4985,"PIPE":4986,"ograph":4987,"CRE":4988,"ĠName":4989,"detect":4990,"ollow":4991,"this":4992,"Ġconflict":4993,"ĠTLS":4994,"Ġmacros":4995,"Ġrequested":4996,"EF":4997,"ape":4998,"Simple":4999,"isolated":5000,"Marker":5001,"sorted":5002,"Ġ[],":5003,"Ġ30":5004,"letion":5005,"CERT":5006,"ParserElement":5007,"»ï¸ı":5008,"ines":5009,"TY":5010,"Ġauto":5011,"Ġtraceback":5012,"Soup":5013,"And":5014,"Ġfs":5015,"nounce":5016,"OD":5017,"Ġescape":5018,"ĠPackage":5019,"Ġprops":5020,"ldflags":5021,"robotparser":5022,"-\\":5023,"grad":5024,"logits":5025,"CM":5026,"Ġ{!":5027,"Ġdataset":5028,"undle":5029,"Ġdown":5030,"FFFE":5031,"SecTrust":5032,"Func":5033,"Ġapi":5034,"Conflict":5035,"}'":5036,"seek":5037,"Ġinstance":5038,"Esc":5039,"Ġutils":5040,"Ġlhs":5041,"ElementEnhance":5042,"Meta":5043,"cuda":5044,"FORM":5045,"repo":5046,"Ġsleep":5047,"Ġmd":5048,"Ġdon":5049,"Ġsecond":5050,"ĠcallPreParse":5051,"globals":5052,"preargs":5053,"calls":5054,"Ġactual":5055,"âĹ¼ï¸ıâĹ¼ï¸ıâĹ¼ï¸ıâĹ¼ï¸ıâĹ¼ï¸ı\\":5056,"Close":5057,"entic":5058,"REP":5059,"account":5060,"interval":5061,"ĠZeroOrMore":5062,"âĹ»ï¸ı":5063,"ness":5064,"ĠOrderedDict":5065,"Ġcc":5066,"elements":5067,"Ġcontents":5068,"Ġshared":5069,"jac":5070,"Ø´":5071,"Ġmon":5072,"complete":5073,"QL":5074,"Ġalias":5075,"Ġupload":5076,"BLACK":5077,"fa":5078,"same":5079,"splitlines":5080,"âĸĪâĸĪâĸĪâĸĪ":5081,"elementInScope":5082,"Ġ1000":5083,"rences":5084,"æĹ¥":5085,"Ġmay":5086,"heet":5087,"maxsize":5088,"Ġeditable":5089,"Det":5090,"Fi":5091,"á´":5092,"cont":5093,"provides":5094,"Ġproxies":5095,"ickers":5096,"â±":5097,"Ġ]":5098,"inline":5099,"enabled":5100,"Ġformats":5101,"WNER":5102,"Ġmanifest":5103,"PREFIX":5104,"bz":5105,"arrow":5106,"Infinity":5107,"Ġcomponent":5108,"downloaded":5109,"expanduser":5110,"During":5111,"GO":5112,"ĠPre":5113,"price":5114,"WHITE":5115,"Ġprop":5116,"Ġwinreg":5117,"Manager":5118,"endQuoteChar":5119,"mount":5120,"Ġcriter":5121,"DuringTry":5122,"AUT":5123,"ipe":5124,"secure":5125,"Req":5126,"builder":5127,"parameters":5128,"((\"":5129,"Ġ'{}":5130,"ATCH":5131,"created":5132,"SETT":5133,"getcwd":5134,"CharField":5135,"110":5136,"called":5137,"POST":5138,"Union":5139,"locations":5140,"Ġhooks":5141,"217":5142,"Ġsample":5143,"Ġpreserve":5144,"From":5145,"NI":5146,"Ġ%(":5147,"Argument":5148,",))<":5149,"Ïī":5150,"exist":5151,"events":5152,"PM":5153,"stub":5154,"selfClosing":5155,"Ġtextwrap":5156,"Loader":5157,"ĠDEFAULT":5158,"216":5159,"â¡":5160,"Ġlay":5161,"recursive":5162,"details":5163,"varsall":5164,"Ġposix":5165,"ĠTempDirectory":5166,"}:":5167,"'][":5168,">\",":5169,"missing":5170,"Ġzf":5171,"Ġmanager":5172,"bstract":5173,"arcname":5174,"rome":5175,"units":5176,"Ġdone":5177,"REG":5178,"ĠRetry":5179,"packrat":5180,"CBC":5181,"Ġloader":5182,"agic":5183,"Ġdetect":5184,"ĠMA":5185,"Level":5186,"US":5187,"àµ":5188,"ismatches":5189,"RAG":5190,"Ġpadding":5191,"(',":5192,"latten":5193,"[\\":5194,"Ġsame":5195,"locator":5196,"locals":5197,"warnings":5198,"wise":5199,"Ġreport":5200,"MET":5201,"processor":5202,"systemId":5203,"duration":5204,"Ġrest":5205,"Ġinformation":5206,"Ġ14":5207,"Ġ@_":5208,"cessed":5209,"Ġauthor":5210,"Ġmigrations":5211,"ibil":5212,"ĠCO":5213,"nsfw":5214,"winterm":5215,"ocab":5216,")\"),<":5217,":])<":5218,"ĠĠĠĠĠĠĠĠĠĠĠĠĠĠĠĠĠĠĠĠĠĠĠĠĠĠĠĠĠĠĠĠĠĠĠĠĠĠĠĠĠ":5219,"========":5220,"Url":5221,"nums":5222,"Arrow":5223,"prefer":5224,"Ġsources":5225,"validation":5226,"Ġpp":5227,"Ġfetch":5228,"appro":5229,"ĠThis":5230,"zeros":5231,"mar":5232,"Ġfail":5233,"__',":5234,"subdir":5235,"ĠOpenSSL":5236,"Word":5237,"uted":5238,"Ġoptparse":5239,"popul":5240,"ĠspaceCharacters":5241,"oku":5242,"Ġtokenlist":5243,"Ġ|=":5244,"Ġgame":5245,"creen":5246,"(?:[^":5247,"announce":5248,"undefined":5249,"loy":5250,"Ġfunction":5251,"Ġgenerate":5252,"Escaped":5253,"macos":5254,"Encoder":5255,"weights":5256,"ExecError":5257,"HASH":5258,"mime":5259,"(\"'":5260,"tered":5261,"rpc":5262,"ilde":5263,"LOG":5264,"Ġsymbols":5265,"'}<":5266,"Be":5267,"fA":5268,"FILE":5269,"Ġfill":5270,"Ġaxis":5271,"dices":5272,"prefs":5273,"Ġdevice":5274,"streamline":5275,">\".":5276,"ice":5277,"restrict":5278,"Ġbound":5279,"tables":5280,"CAL":5281,"SON":5282,"READ":5283,"Ġbefore":5284,"ba":5285,"Ġrm":5286,"det":5287,"unget":5288,"toml":5289,"Ġsupport":5290,"Act":5291,"Ġcor":5292,"NameState":5293,"iases":5294,"Missing":5295,"acity":5296,"GROUP":5297,"\"}<":5298,"Ġdestination":5299,"Float":5300,"Ġ''.":5301,"Ġbind":5302,"EGG":5303,"basic":5304,"rew":5305,"ĠST":5306,"{})":5307,"manage":5308,"Ġworking":5309,":].":5310,"SConnection":5311,"pyproject":5312,"TOK":5313,"METADATA":5314,"Ġqueue":5315,"Channel":5316,"mock":5317,"tention":5318,"patterns":5319,"Ġupdated":5320,"Ġfire":5321,"dumps":5322,"pic":5323,"Ġtask":5324,"Ġ50":5325,"ĠParseBaseException":5326,"Writer":5327,"SM":5328,"ĠUSER":5329,"Ġposixpath":5330,":\",":5331,"SP":5332,"plt":5333,"welcome":5334,"stone":5335,"Ġmock":5336,"ential":5337,"findall":5338,"ĠmaxException":5339,"escChar":5340,"BOT":5341,"btn":5342,"ha":5343,"uname":5344,"vas":5345,"ĠData":5346,"QtCore":5347,"Ġexception":5348,"quare":5349,"IGNO":5350,"ography":5351,"EP":5352,"Ġstatic":5353,"chor":5354,"Ġcustom":5355,"Ġob":5356,"\"]),<":5357,"ICK":5358,"Mac":5359,"RC":5360,"ĠVERSION":5361,"sgi":5362,"tempdir":5363,"509":5364,"\"**":5365,"Sdk":5366,"rray":5367,"Ġreplied":5368,"acute":5369,"filenames":5370,"ĠCHAT":5371,"Dispatcher":5372,"Me":5373,"drop":5374,"helpers":5375,"tri":5376,"dists":5377,"Ġbecause":5378,"('.')<":5379,"Ġactive":5380,"bi":5381,"1252":5382,"Ġsome":5383,"Less":5384,"ðĲĵ":5385,"LENAME":5386,"satisfied":5387,"big":5388,"dc":5389,"walk":5390,"Ø¨":5391,"Ġ'$":5392,"tagFormat":5393,"Ġspecified":5394,"ĠCommandError":5395,")(":5396,":]":5397,"eric":5398,"clone":5399,"ĠLanguage":5400,"ernal":5401,"svn":5402,"collection":5403,"tagClass":5404,"ãĥ¼":5405,")])<":5406,"Syntax":5407,"ring":5408,"installation":5409,"ĠDistutilsExecError":5410,"Ġconnected":5411,"pairs":5412,"accum":5413,"EXTENSIONS":5414,"Ġround":5415,"edge":5416,"ileError":5417,"avg":5418,"Current":5419,"Ġrepo":5420,"Ġforward":5421,"ĠthisExpr":5422,".\"":5423,"DD":5424,"actions":5425,"libs":5426,"timestamp":5427,"Settings":5428,"Unsupported":5429,"branch":5430,"leave":5431,"Ġcb":5432,"maxLen":5433,"BUT":5434,"Ġent":5435,"Ġboolean":5436,"configuration":5437,"ObjectName":5438,"Ġmk":5439,"opf":5440,"impl":5441,"IX":5442,"ws":5443,"utif":5444,"acket":5445,"Ġdiff":5446,"Ġascii":5447,"macro":5448,"COS":5449,"partition":5450,"utiful":5451,"dll":5452,"optional":5453,"wsgi":5454,"Ġ(_":5455,"setObjectName":5456,"uman":5457,"mach":5458,"Reg":5459,"Ġadjust":5460,"reshold":5461,"Failed":5462,"bc":5463,"xlink":5464,"(\"[":5465,"embedding":5466,"msvc":5467,"nail":5468,"asList":5469,"ĠPlease":5470,"vices":5471,"Ġoutfile":5472,"Ġwhat":5473,"Gener":5474,"vol":5475,"analy":5476,"andard":5477,"sym":5478,"multipart":5479,"ĠTimeout":5480,"/%":5481,"Event":5482,"âĿ":5483,"TOKEN":5484,"Ġowner":5485,"ĠButton":5486,"errno":5487,"MethodDispatcher":5488,"ount":5489,"ym":5490,"ĠQ":5491,"...\")<":5492,"processors":5493,"xxxx":5494,"native":5495,"pm":5496,"Ġrender":5497,"Ġrunning":5498,"Ġplayer":5499,"Raise":5500,"hi":5501,"áİ":5502,"reinstall":5503,"Ġsm":5504,">{}</":5505,"ane":5506,"elif":5507,"Ġmany":5508,"Exc":5509,"sur":5510,"cei":5511,"')),<":5512,"Unable":5513,"ĠGet":5514,"ainWindow":5515,"ĠDistutilsError":5516,"ĠHash":5517,"Entry":5518,"IGNORE":5519,"bundle":5520,"itive":5521,"ĠSequence":5522,"bers":5523,"Ġpatterns":5524,"escaped":5525,"alpha":5526,"Password":5527,"Br":5528,"Ġter":5529,"DecodeError":5530,"ĠStringIO":5531,"Ġtg":5532,"Ġsetting":5533,"Ġregister":5534,"Ġdriver":5535,"span":5536,"writer":5537,"')[":5538,"SETTINGS":5539,"JECT":5540,"rary":5541,"ital":5542,"Ġmer":5543,"ĠMet":5544,"Ġanimation":5545,"high":5546,"construct":5547,"seen":5548,"Ġtrust":5549,"Ġcharacter":5550,"temporaryBuffer":5551,"Adapter":5552,"export":5553,"Ġslim":5554,"Ġrfc":5555,"Down":5556,"PKG":5557,"Import":5558,"define":5559,"ĠTele":5560,"ĠEU":5561,"ðŁĶ´ðŁĶµðŁĮķâĻĵâĻİâĽİðŁĶ´ðŁĶµðŁĮķâĻĵâĻİâĽİ":5562,"Ġinteger":5563,"href":5564,"remote":5565,"',),<":5566,"Ġrc":5567,"FFFD":5568,"soletes":5569,"SUPPORT":5570,"ĠSyntaxError":5571,"tracker":5572,"Basic":5573,"adjust":5574,"adapter":5575,"FILENAME":5576,"resultsName":5577,"Number":5578,"speed":5579,"roll":5580,"inger":5581,"curr":5582,"Ġsym":5583,"Success":5584,"fmt":5585,"Ġdecoder":5586,"ĠNode":5587,"cret":5588,"ðŀ":5589,"identity":5590,"center":5591,"yanked":5592,"ĠAnd":5593,"Ġinner":5594,"tableWidget":5595,"Custom":5596,"ii":5597,"MIN":5598,"Ġfname":5599,"trc":5600,"curacy":5601,"SERTION":5602,"Ġ')<":5603,"ĠmaxExc":5604,"trained":5605,"WithOffset":5606,"ParseResultsWithOffset":5607,"QuotedString":5608,"ĠmaxExcLoc":5609,"Sp":5610,"Ġpatch":5611,"Ġpop":5612,"attrib":5613,"usage":5614,"...,":5615,"oices":5616,"Ġwords":5617,"always":5618,"MIT":5619,"]=":5620,"]}":5621,"sq":5622,"á»":5623,"Ġthumb":5624,"contextlib":5625,"escapeRegex":5626,"whl":5627,"Ġupgrade":5628,"Serializer":5629,"factor":5630,"hour":5631,"Ġ:<":5632,"failed":5633,"cedence":5634,"Requires":5635,"RLock":5636,"White":5637,"vault":5638,"âĺ":5639,"ĠCandidate":5640,"Ġsticker":5641,"Ġcli":5642,"ParseElementEnhance":5643,"ĠOSStatus":5644,"Ġfeatures":5645,"\"^":5646,"'^":5647,"gits":5648,"Ġmapper":5649,"Output":5650,"Ġtb":5651,"Ġpayload":5652,"Ġglibc":5653,"ĠLegacyVersion":5654,"CCESS":5655,"__(*":5656,"symbol":5657,"Ġwhere":5658,"Ġcomes":5659,"refs":5660,"Ġscripts":5661,"TEMP":5662,"lation":5663,"mc":5664,"Ġkeep":5665,"alt":5666,"Ġconst":5667,"Ġproble":5668,"limited":5669,"New":5670,"Ġsl":5671,"Ġspace":5672,"VERBO":5673,"NOT":5674,"VERBOSE":5675,":\"":5676,"HER":5677,"dash":5678,"pose":5679,"Ġblacklist":5680,"itelist":5681,"ĠFilters":5682,"criteria":5683,"icon":5684,"á¹":5685,"att":5686,"attempt":5687,"Ġdl":5688,"bias":5689,"zone":5690,"ypes":5691,"Trace":5692,"ĠCustom":5693,"ĠDistutilsPlatformError":5694,"ResultsName":5695,"}')<":5696,"lish":5697,"Ġdraw":5698,"ĠTh":5699,"Ġwriter":5700,"âĶģ":5701,"Ass":5702,"Rect":5703,"Ġsel":5704,"digit":5705,"book":5706,"Ġsqlalchemy":5707,"})\"<":5708,"predict":5709,"ongest":5710,"wrapped":5711,"SSLSet":5712,"sens":5713,"abstract":5714,"ithub":5715,"ĠMARK":5716,"HEEL":5717,"componentType":5718,"sibling":5719,"orage":5720,"Ġreversed":5721,"ĠTag":5722,"cannot":5723,"pyparsing":5724,"ByteCharSetProber":5725,"uFFFD":5726,"mpt":5727,"console":5728,"ĠstartTagOther":5729,"EOF":5730,"GB":5731,"parseAction":5732,"tests":5733,"week":5734,"untimeError":5735,"[...,":5736,"COM":5737,"ĠMetadata":5738,":\")<":5739,"foot":5740,"amount":5741,"=\"%":5742,"LOB":5743,"LASS":5744,"Ġmove":5745,"roken":5746,"ingerprint":5747,"css":5748,"times":5749,"Ġ40":5750,"ĠWinColor":5751,"Per":5752,"sen":5753,"ĠĠĠĠĠĠĠĠĠĠĠĠĠĠĠĠĠĠĠĠĠĠĠĠĠĠĠĠĠĠĠĠĠĠĠĠĠĠĠĠĠĠĠĠĠĠĠĠĠ":5754,"ummy":5755,"quee":5756,"Ġevents":5757,"_)<":5758,"dm":5759,"}'<":5760,"/',":5761,"Row":5762,"ftime":5763,");":5764,"Ġli":5765,"Ġms":5766,"Ġpyparsing":5767,"NamedTypes":5768,"Ġ?(.*":5769,"arity":5770,"Ġdim":5771,"ĠmatchString":5772,"sysconfig":5773,"Part":5774,"tab":5775,"ĠMapping":5776,"running":5777,"ives":5778,"ppc":5779,"á¸":5780,"â²":5781,"ðĳ":5782,"erson":5783,"runner":5784,"credentials":5785,"functions":5786,"generator":5787,"ðĳ£":5788,"çĤ":5789,"(\"--":5790,"Ġwarning":5791,"Ġdue":5792,"'+":5793,"Ġbs":5794,"Ġdepth":5795,"Ġunique":5796,"Ġnewer":5797,"Ġspecify":5798,"HTTPError":5799,"ĠInlineKeyboardMarkup":5800,"!\"<":5801,"âĶĵ":5802,"Enter":5803,">\")<":5804,"Cancel":5805,"Gr":5806,"kernel":5807,"intainer":5808,"licitTag":5809,"Ġpoint":5810,"RangeChars":5811,"Ġbranch":5812,"escapeRegexRangeChars":5813,"ĠMARKER":5814,"readline":5815,"aitama":5816,"+-":5817,"dropout":5818,"Ġpickle":5819,"Ġclone":5820,"openstack":5821,"drive":5822,"Ġrgb":5823,"intypes":5824,"spatch":5825,"jacent":5826,"bb":5827,"STAT":5828,"ĠError":5829,"Ġdictionary":5830,"Ġei":5831,"aitamaRobot":5832,"Ġscore":5833,"First":5834,"Ġimporter":5835,"ĠLo":5836,"uses":5837,"SSLError":5838,"classifiers":5839,"iterkeys":5840,"DistributionAnalysis":5841,"512":5842,"SNI":5843,"ava":5844,"analyzer":5845,"hing":5846,"strftime":5847,"ĠCertificate":5848,"formatter":5849,"configure":5850,"Ġmatching":5851,"FILT":5852,".+":5853,"cle":5854,"dy":5855,"Ġmp":5856,"Ġpathlib":5857,"iteritems":5858,"Ġtrigger":5859,"ĠIPv":5860,"]),<":5861,"Callable":5862,"ĠPyPI":5863,"tagClassContext":5864,"++":5865,"await":5866,"gin":5867,"Ġgiven":5868,"RESH":5869,"')]<":5870,"CI":5871,"freq":5872,"setter":5873,"too":5874,"metaclass":5875,"Ġ\"**":5876,"____":5877,"Ġexport":5878,"Ġoutgoing":5879,"Ġfederation":5880,"nod":5881,"sr":5882,"cho":5883,"keyboard":5884,"NOWN":5885,"redirects":5886,"cloud":5887,"ĠEnvironment":5888,"Layout":5889,"SQL":5890,"ency":5891,"ular":5892,"clus":5893,"Ġhex":5894,"Raises":5895,"Ġtoo":5896,"Ġentries":5897,"utableMapping":5898,"comes":5899,"Resolution":5900,"macosx":5901,"Mo":5902,"Tests":5903,"StyleComment":5904,"DebugAction":5905,"sig":5906,"venv":5907,"Ġbdist":5908,"Ġdialect":5909,"Ġmarkup":5910,"ECDHE":5911,"Box":5912,"unquote":5913,"ileHeader":5914,"Ġenviron":5915,"FFileHeader":5916,"itional":5917,"ELFFileHeader":5918,"âłĦ":5919,"Ġtmpdir":5920,"Ġexecute":5921,"Ġdistributions":5922,"lue":5923,"Ġtail":5924,"Ġsk":5925,"ĠThe":5926,"ĠstartTagHandler":5927,"218":5928,"Package":5929,"Ġass":5930,"KEYS":5931,"Boolean":5932,"sequence":5933,"Ġdtype":5934,"partial":5935,"Ġlanguage":5936,"MAN":5937,"dns":5938,"uler":5939,"Ġstatement":5940,"payload":5941,"imported":5942,"ratio":5943,"curdir":5944,"Ġtimestamp":5945,"black":5946,"Ġmodal":5947,"DU":5948,"Is":5949,"Source":5950,"åħ":5951,"asn":5952,"ĠSaitamaRobot":5953,"Ġshell":5954,"384":5955,"uator":5956,"Ġ})<":5957,"aming":5958,"ĠStop":5959,"Ġsudo":5960,"extraction":5961,"ĸ¹":5962,"Ġ\"&":5963,"rot":5964,"bases":5965,"evaluate":5966,"DIRECTORY":5967,"BB":5968,"Edit":5969,"Ġ\"+":5970,"cket":5971,"training":5972,"tbody":5973,"wards":5974,"Ġfeed":5975,"va":5976,"â¢":5977,"sertion":5978,"Iteration":5979,"]\")<":5980,"Extension":5981,"ixed":5982,"TimeoutError":5983,"BER":5984,"NS":5985,"rx":5986,"tensor":5987,"render":5988,"Ġlower":5989,"Rec":5990,"question":5991,"lastExpr":5992,"Ġimages":5993,"Ġday":5994,"Ġknow":5995,"Ġresolved":5996,"Ġtoklist":5997,"accumNames":5998,"Page":5999,"Skip":6000,"numpy":6001,"ither":6002,"ĠEX":6003,"ConnectionError":6004,"publicId":6005,"FORMAT":6006,"Ġopenstack":6007,"ranges":6008,"Formatter":6009,"Foreign":6010,"Ġalphabet":6011,"ðŀ¤":6012,"ressed":6013,"\"][":6014,"ds":6015,"Ñĥ":6016,"Ġarr":6017,"inBody":6018,")\"))<":6019,"negative":6020,"diag":6021,"une":6022,"setText":6023,"uster":6024,"Dictionary":6025,"Ġiso":6026,"relu":6027,"bs":6028,"ParseExpression":6029,"{}'.":6030,"}'.":6031,"Ġhere":6032,"ana":6033,"ision":6034,"Doc":6035,"Ġmodules":6036,"Vector":6037,"draw":6038,"ameter":6039,"Ġfban":6040,"ĠDEBUG":6041,"Run":6042,"easy":6043,"hidden":6044,"Ġtor":6045,"Ġcont":6046,"ĠCON":6047,"userid":6048,"Ġprovided":6049,"400":6050,"inery":6051,"cremental":6052,"latest":6053,"eer":6054,"tach":6055,"variant":6056,"----------------":6057,"machinery":6058,"314":6059,"Ġcategory":6060,"riend":6061,"profile":6062,"statement":6063,"2312":6064,"Ġfiltered":6065,"))),<":6066,"NotIn":6067,"igrate":6068,"igration":6069,"ĠCompileError":6070,"äº":6071,"Ġmapping":6072,"ĠClient":6073,"verting":6074,"Pa":6075,"Stop":6076,"lg":6077,"ĠInput":6078,"Ġinputs":6079,"metrics":6080,"google":6081,"Ø¦":6082,"unix":6083,"DeprecationWarning":6084,"ĠendTagOther":6085,"preparer":6086,"ĠLabel":6087,"cols":6088,"Ġconfigparser":6089,"rs":6090,"(':":6091,"perm":6092,"strings":6093,"letter":6094,"escri":6095,"Ġgraph":6096,"RAGONS":6097,"URI":6098,"ENV":6099,"Ġappro":6100,"ðĿħ":6101,"comments":6102,"eautiful":6103,"github":6104,"Ġsupports":6105,"capital":6106,"Lazy":6107,"USE":6108,"guess":6109,"afk":6110,"CheckList":6111,"Ġseg":6112,"LAY":6113,"termine":6114,"REQUI":6115,"Script":6116,"ctet":6117,"uninstall":6118,"ĉĉĉĉĉ":6119,"}/":6120,"Ðº":6121,"Ùĥ":6122,"separ":6123,"utron":6124,"NAError":6125,"CFArray":6126,"cut":6127,"Øµ":6128,"ï¾":6129,"reString":6130,"serial":6131,"consu":6132,"ĠWINDOWS":6133,"SAGE":6134,"CHATS":6135,"ability":6136,"'d":6137,"1000":6138,"states":6139,"ãĥ³":6140,"connected":6141,"Document":6142,")'":6143,"åı":6144,"ĠÍ":6145,"isolation":6146,"000011":6147,"ĠAd":6148,"ĠForward":6149,"LY":6150,"ties":6151,"Ġprotocol":6152,"ĠOneOrMore":6153,"constraints":6154,"AUTH":6155,"escription":6156,"\\.":6157,"mail":6158,"Distutils":6159,"collector":6160,"finish":6161,"gate":6162,"reserve":6163,"000010":6164,"Ġ{})<":6165,"Ġformatted":6166,"aving":6167,"áº":6168,"êĿ":6169,"ĠERROR":6170,"Ġsaved":6171,"Ġ\"/\"":6172,"have":6173,"master":6174,"Ġ'\\\\":6175,"440":6176,"category":6177,"runtime":6178,"',)),<":6179,"Extra":6180,"Ġsens":6181,"specifiers":6182,"ãĥ«":6183,"FileError":6184,"Installed":6185,"COSMIC":6186,"={}":6187,"SPE":6188,"tls":6189,"226":6190,"BIN":6191,"DK":6192,"ae":6193,"pu":6194,"Ġhe":6195,"Ġcommon":6196,"initCharsOrig":6197,"Ġ1024":6198,"GCM":6199,"setResultsName":6200,"THRESH":6201,"boxes":6202,"yes":6203,"ãģ":6204,"Ġ99":6205,"Ġ'',":6206,"minLen":6207,"debugActions":6208,"callDuringTry":6209,"EXPR":6210,"RecCheckList":6211,"CASE":6212,"bad":6213,"Ġproperty":6214,"installer":6215,"ĠRead":6216,"ĠRuntimeError":6217,"ĠDeprecationWarning":6218,"çĤ¹":6219,"mul":6220,"Ġanchor":6221,"multiple":6222,"ĠĠĠĠĠĠĠĠĠĠĠĠĠĠĠĠĠĠĠĠĠĠĠĠĠĠĠĠĠĠĠĠĠĠĠĠĠĠĠĠĠĠĠĠĠ":6223,"pypy":6224,"Ġdetails":6225,"ĠDownload":6226,"year":6227,"ollowed":6228,"most":6229,"background":6230,"Ġchoice":6231,"PROTOCOL":6232,"BD":6233,"dw":6234,"assertRaises":6235,"Ġinstallation":6236,"Ġcredentials":6237,"DESTROYER":6238,"UE":6239,"cen":6240,"reverse":6241,"unparse":6242,"Ġlow":6243,"Ġcoding":6244,"'])":6245,"mdHelp":6246,"SSLv":6247,"ILD":6248,"(('":6249,"]).":6250,"Ø¹":6251,"enable":6252,"Ġscale":6253,"ARY":6254,"bye":6255,"Ġfeature":6256,"ĠpublicId":6257,"IGNORECASE":6258,">\",<":6259,"flatten":6260,"Ġosname":6261,"Ġduration":6262,"ĠText":6263,"INST":6264,"ĠUN":6265,"Ġcomments":6266,"OLD":6267,"boundary":6268,"population":6269,"232":6270,"Ġsecure":6271,"LED":6272,"â£¿â£¿â£¿â£¿":6273,"Ġcriterion":6274,"ĠStopIteration":6275,"Ġconfi":6276,"istic":6277,"matrix":6278,"iki":6279,"ĠBytes":6280,"LD":6281,"WINDOWS":6282,"bf":6283,"Indent":6284,"StringIO":6285,"framework":6286,"ĠendTagHandler":6287,"realpath":6288,"swig":6289,"month":6290,"313":6291,"gi":6292,"Ġentities":6293,"Ġeasy":6294,"views":6295,"Ġagent":6296,"lap":6297,"ðĸ¹":6298,"inf":6299,"uplic":6300,"dom":6301,"accept":6302,"LEAN":6303,"supplied":6304,"LIMIT":6305,"Ġglobals":6306,"Ġdownloaded":6307,"beg":6308,"BLACKLIST":6309,".'<":6310,"dt":6311,"lar":6312,"mal":6313,"Ġcell":6314,"fic":6315,"Ġwelcome":6316,"REN":6317,"crit":6318,"BACK":6319,"Ġoperation":6320,"HAS":6321,"gwin":6322,"seed":6323,"Ġpat":6324,"series":6325,"Ġsepar":6326,"'):":6327,"roadcast":6328,"sections":6329,"dient":6330,"iline":6331,"Ġdirection":6332,"reduce":6333,"CONT":6334,"innerHTML":6335,"MLT":6336,"`\"<":6337,"Ġcs":6338,"ĠLiteral":6339,"TIMEOUT":6340,"Ge":6341,"SV":6342,"Ġinspect":6343,"Ġdisabled":6344,"ĠMAX":6345,"Dash":6346,"EM":6347,"cancel":6348,"|%":6349,"men":6350,"Ġ25":6351,"ĠLoc":6352,"numeric":6353,"openssl":6354,"))))<":6355,"comma":6356,"chunked":6357,"Ġsummary":6358,"MainWindow":6359,"Ġuri":6360,"ceeds":6361,"ings":6362,"Ġsort":6363,"Ġdisc":6364,"ĠDO":6365,"Ġproduct":6366,"Cookie":6367,"FFIX":6368,"Ġtrack":6369,"compatibil":6370,"MATCH":6371,"Remo":6372,"fban":6373,"à¾":6374,"Exit":6375,"MAP":6376,"Cursor":6377,"UNKNOWN":6378,"Description":6379,"\")):<":6380,"adapt":6381,"tom":6382,"Ġgood":6383,"ĠTest":6384,"without":6385,"chunks":6386,"icipant":6387,"IFIER":6388,"Ġboundary":6389,"nodot":6390,"hat":6391,"Ġreverse":6392,"comb":6393,"ado":6394,"Ġaut":6395,"ĠNew":6396,"Ġ'.'.":6397,"ĠSocket":6398,"bypass":6399,"tablename":6400,"axis":6401,"wraps":6402,"operators":6403,"TON":6404,"WR":6405,"dp":6406,"preds":6407,">'<":6408,"alo":6409,"Ġsure":6410,"Ġfileobj":6411,"UnicodeText":6412,"LUE":6413,"merge":6414,"SC":6415,"}\"":6416,"Â°":6417,"Ġexpression":6418,"Ġconsole":6419,"quiet":6420,"Ġdump":6421,"Ġmessages":6422,"])))<":6423,"Ġbytearray":6424,"WARNING":6425,"!`\",<":6426,"DAT":6427,"RIGHT":6428,"Î¸":6429,"Ġlinux":6430,"Ġretval":6431,"Ġcsv":6432,"Ġengine":6433,"Character":6434,"Users":6435,"Ġarity":6436,"egativeInfinity":6437,"!\".":6438,"OneOrMore":6439,"Peer":6440,"SK":6441,"Ġpending":6442,"assed":6443,"ulate":6444,"Ġ\\\"":6445,"randint":6446,"eautifulSoup":6447,".\",":6448,"ELE":6449,"åį":6450,"Ġviews":6451,"ĠCertificateError":6452,".',<":6453,"flood":6454,"pf":6455,"deprecated":6456,"ues":6457,"ĠModule":6458,"Ġmaxloc":6459,"=[<":6460,"âłĢâłĢâłĢâłĢ":6461,"Ġpossible":6462,"Ġagain":6463,"__\",":6464,"iform":6465,"Ġdy":6466,"REC":6467,"targets":6468,"disabled":6469,"Ġetree":6470,"ĠCache":6471,"]\\":6472,"java":6473,"ï¿":6474,"ured":6475,"callable":6476,"ORMAL":6477,"Ġtodo":6478,"10000":6479,"GRE":6480,"Walker":6481,"bet":6482,"voice":6483,"ano":6484,"backends":6485,"Validator":6486,"Ġask":6487,"Ġseem":6488,"Namespace":6489,"Common":6490,"parallel":6491,"Ġdfstockhisdata":6492,"Ġmodi":6493,"Ġ\">\":<":6494,"Ġconflicting":6495,"Active":6496,"'[":6497,"inTable":6498,"reco":6499,"restr":6500,"Ġsong":6501,"':'":6502,"activeFormattingElements":6503,"zA":6504,"recv":6505,"concat":6506,"ĠDRAGONS":6507,"ĠWindow":6508,"Ġtmpl":6509,"rmtree":6510,"PositionToken":6511,"ĠTelegram":6512,"[[":6513,"bn":6514,"jis":6515,"Ġdoctype":6516,"steps":6517,"?\")<":6518,"Fun":6519,"slice":6520,"Ġ''))<":6521,"pyc":6522,"perties":6523,"rong":6524,"Local":6525,"Using":6526,"har":6527,"kick":6528,"prog":6529,"ENTIFIER":6530,"Ġreplacement":6531,"/\",":6532,"Enum":6533,"PUT":6534,"áĨ":6535,"Ġsuppress":6536,"weet":6537,"\"+":6538,"Ġpk":6539,"trim":6540,"plugin":6541,"alphas":6542,"Ġevery":6543,"=\")":6544,"finalize":6545,"cleanup":6546,"Nodes":6547,"Ġweb":6548,"Hash":6549,"irc":6550,"à¹":6551,"alar":6552,"addr":6553,"Ġmem":6554,"shell":6555,"ANN":6556,"examples":6557,"Ġredact":6558,"Ġshebang":6559,"adow":6560,"spinner":6561,"Ġkeyboard":6562,"')):<":6563,"SUFFIX":6564,"Ġbar":6565,"resnet":6566,"CFType":6567,"ĠvalidateTrace":6568,"NotFoundError":6569,"uncher":6570,"ĠBytesIO":6571,"Ġtensor":6572,"Ġwintypes":6573,"filepath":6574,"maintainer":6575,"Ġenable":6576,"feds":6577,"identifier":6578,"Ignor":6579,"FLO":6580,"lid":6581,"specific":6582,"Ġsensor":6583,"don":6584,"PASS":6585,"Before":6586,"trie":6587,"Converter":6588,"Ġtrail":6589,"Ġhostname":6590,"builtins":6591,"sensitive":6592,"Win":6593,"iel":6594,"expression":6595,"227":6596,"lause":6597,"ÑĮ":6598,"lem":6599,"Ġremote":6600,"chmod":6601,"Ġbo":6602,"quotes":6603,"TIONS":6604,"THRESHOLD":6605,"AE":6606,"Max":6607,"Use":6608,"wers":6609,"about":6610,"external":6611,"*\\":6612,"uuid":6613,"processStartTag":6614,"whitelist":6615,"ju":6616,"Ñı":6617,"Ġfuture":6618,"Ġbox":6619,"andbox":6620,"Ġdiv":6621,"tryParse":6622,"checkRecursion":6623,"callPre":6624,"ampler":6625,"Files":6626,"functools":6627,"ĠnamedItems":6628,"caseTokens":6629,"failOn":6630,"Wrapper":6631,"Assoc":6632,"callPreparse":6633,"=(<":6634,">).":6635,"scores":6636,"([^":6637,"COD":6638,"COMM":6639,"connections":6640,"Fetch":6641,"Ġfollow":6642,"lies":6643,"(\"{":6644,"Ġhistory":6645,"Reply":6646,"Ø¶":6647,"__\":<":6648,"ading":6649,"Ġborder":6650,"Ġlr":6651,"Ġcompress":6652,"returncode":6653,"SCHEMES":6654,"CCompiler":6655,"egr":6656,"fat":6657,"ĠExpected":6658,"Ġbad":6659,"Engine":6660,"generic":6661,"PATTER":6662,"Ġ\"'%":6663,"InlineKeyboardButton":6664,"Ùģ":6665,"disc":6666,"Ġthem":6667,"collections":6668,"checkfirst":6669,"Product":6670,"rowser":6671,"ĠWindows":6672,":.":6673,"ðŁĺ":6674,"Ġpyproject":6675,"ĠVar":6676,"Let":6677,"Your":6678,"Ġ90":6679,"packageName":6680,"Ġnodes":6681,"Ġnetwork":6682,"cheduler":6683,"SHARED":6684,"variables":6685,"ĠPackageFinder":6686,"cnt":6687,"ving":6688,"vocab":6689,"Ġem":6690,"getenv":6691,"activation":6692,"Enabled":6693,"Ġcreated":6694,"platbase":6695,"TLSv":6696,"PATTERN":6697,"Null":6698,"verage":6699,"Release":6700,"101":6701,"patched":6702,"bd":6703,"green":6704,"modal":6705,"Search":6706,"mkdir":6707,"=\":":6708,"__':<":6709,"Ġhref":6710,"\")),<":6711,"frames":6712,"OrderedDict":6713,"Ġmultiple":6714,"InstallRequirement":6715,"logg":6716,"Ġsdk":6717,"supports":6718,"crop":6719,"Ġadapter":6720,"Ġextensions":6721,"012":6722,"386":6723,"Min":6724,"Sign":6725,"decl":6726,"ĠBuild":6727,"LECT":6728,"needed":6729,"Inter":6730,"dims":6731,"IR":6732,"[(":6733,"ameters":6734,"charm":6735,"ĠAPI":6736,"Ġ31":6737,"Ġspinner":6738,"Ġqu":6739,"Ġsess":6740,"ĠBASE":6741,"pawn":6742,"EXEC":6743,"BOM":6744,"sertionError":6745,"ollowedBy":6746,"Wait":6747,"border":6748,"vec":6749,"Transport":6750,"Ġdm":6751,"222":6752,"REQ":6753,"Ġcharacters":6754,"ĠĠĠĠĠĠĠĠĠĠĠĠĠĠĠĠĠĠĠĠĠĠĠĠĠĠĠĠĠĠĠĠĠĠĠĠĠĠĠĠĠĠĠĠĠĠĠĠĠĠĠĠĠĠĠĠĠĠĠĠĠĠĠĠĠĠĠĠĠĠĠĠĠĠĠĠĠĠĠĠĠĠĠĠĠĠĠĠĠĠĠĠĠĠĠĠĠĠĠĠĠĠĠĠĠĠĠĠĠĠĠĠĠĠĠĠĠĠĠĠĠĠĠĠĠĠĠĠ":6755,"PAREN":6756,"socks":6757,"DL":6758,"tfoot":6759,"uint":6760,"enum":6761,"('\"":6762,"119":6763,"ĠcurCol":6764,"subject":6765,"Ġstrings":6766,":**":6767,"SITE":6768,"Ġdrop":6769,"answers":6770,"raction":6771,"Ġchunks":6772,"switch":6773,"Ġswitch":6774,"serializer":6775,"Ġbin":6776,"ĠĠĠĠĠĠĠĠĠĠĠĠĠĠĠĠĠĠĠĠĠĠĠĠĠĠĠĠĠĠĠĠĠĠĠĠĠĠĠĠĠĠĠĠĠĠ":6777,"zipfile":6778,"hosts":6779,"nodes":6780,"Ġadded":6781,"âĶĵâĶĵ":6782,"squee":6783,"ince":6784,"rename":6785,"Ġrunner":6786,"ormalizedName":6787,"DC":6788,"dispatch":6789,"Ġbuilt":6790,"maps":6791,"Ð°Ð":6792,"Ġcompatible":6793,"weekdata":6794,"ANNEL":6795,"'re":6796,"sdk":6797,"Ġvideo":6798,"Ġfactory":6799,"isual":6800,"108":6801,"Ġguess":6802,"Ġmac":6803,"boo":6804,"({<":6805,"\"\"<":6806,"Es":6807,"Ġct":6808,"Ġinto":6809,"apsed":6810,"ĠCMD":6811,"Ġchain":6812,"counts":6813,"ivate":6814,"wheels":6815,"ĠContent":6816,"reshape":6817,"Ġmor":6818,"linear":6819,"Ġthan":6820,"subregion":6821,"Ġsubpath":6822,"233":6823,"Sup":6824,"Ġ17":6825,"Ġla":6826,"ĠparseAll":6827,"ĠminElements":6828,"ĠindentStack":6829,"ĠsystemId":6830,"optimizer":6831,"ĠSUCCESS":6832,"ï¿£":6833,"Until":6834,"isabs":6835,"ĠPRO":6836,"shift":6837,"[::-":6838,"ĠsubRecCheckList":6839,"BUILD":6840,"tmpl":6841,"300000":6842,"êĻ":6843,"Ġmime":6844,"Ġexample":6845,"peri":6846,"Ġsequence":6847,"ĠConnection":6848,"PIP":6849,"ðĲĲ":6850,"!\\":6851,"CATION":6852,"Fed":6853,"neg":6854,"Ġban":6855,"Ġmatcher":6856,"Ġiterator":6857,"Ġexpand":6858,")')<":6859,"BF":6860,"El":6861,"Ġcom":6862,"Ġpyasn":6863,"Ġbuilder":6864,"Ġpackaging":6865,"ZipFile":6866,"lst":6867,"Ġut":6868,"route":6869,"Ġplugin":6870,"........":6871,"squeeze":6872,"Full":6873,"[{":6874,"fallback":6875,"enc":6876,"Report":6877,"Ġsupplied":6878,"Locator":6879,"CUMENT":6880,"contact":6881,"existing":6882,")',":6883,"âģ":6884,"repeat":6885,"ĠBack":6886,"START":6887,"CODE":6888,"ideo":6889,"Ġmarkers":6890,"smusic":6891,"PROJECT":6892,"parameter":6893,"315":6894,"Public":6895,"ression":6896,"sets":6897,"Ġworld":6898,"Ġwiki":6899,"job":6900,"Ġ|$":6901,"Ġorigin":6902,"Ġgenerated":6903,"316":6904,"alc":6905,"uffle":6906,"boolean":6907,"greater":6908,"Ġplease":6909,"exports":6910,"Ġneg":6911,"amd":6912,"Ġdecor":6913,"Upper":6914,"ĠZipFile":6915,"children":6916,"ĠSSLError":6917,"Sl":6918,"ilent":6919,"bugging":6920,"Ġmean":6921,"ARM":6922,"gif":6923,"isdigit":6924,"ĠBeautifulSoup":6925,"ORS":6926,"zipimporter":6927,"super":6928,"BaseVersion":6929,"SOUR":6930,"InlineKeyboardMarkup":6931,"entication":6932,"Geometry":6933,"fingerprint":6934,"gban":6935,"thead":6936,"|(?:":6937,"Îµ":6938,"oriz":6939,"Ġstyle":6940,"outfile":6941,"Ġvs":6942,"\"))":6943,"Ġactivation":6944,"Pri":6945,"hot":6946,"ould":6947,"Tags":6948,"We":6949,"learn":6950,"expect":6951,"uter":6952,"setGeometry":6953,"mkpath":6954,"override":6955,":'":6956,"dictions":6957,"mainder":6958,"ĠLay":6959,"Processing":6960,"abstractmethod":6961,"SPEC":6962,"Auto":6963,"LM":6964,"}\",":6965,"êŀ":6966,"secret":6967,"cluster":6968,"ĠasList":6969,"INSERTION":6970,"WhitespaceChars":6971,")(.*":6972,"nex":6973,"normalized":6974,"aris":6975,"318":6976,"Over":6977,"TS":6978,"ãħ":6979,"Ġsn":6980,"Ġsig":6981,"Ġsdist":6982,"Ġ[[":6983,"cay":6984,"Ġgreen":6985,"until":6986,"Ġfirebot":6987,"balance":6988,"cimal":6989,"fit":6990,"à¤":6991,"Ġrepository":6992,"iphers":6993,"Ġelem":6994,"suc":6995,"Ġwrit":6996,"MMMM":6997,"vcvarsall":6998,"Ignore":6999,"}\",<":7000,"Ġ(.*":7001,"METH":7002,"aster":7003,"OptionalNamedType":7004,"Ġtkinter":7005,"=('":7006,"]\",":7007,"ĠPEP":7008,"Copy":7009,"assertTrue":7010,"Fe":7011,"Ġlel":7012,"ichr":7013,"APPDATA":7014,"Ġcontains":7015,"modified":7016,"Ġissue":7017,"ainst":7018,"animation":7019,"Ġsee":7020,"ROOT":7021,"relative":7022,"Ġlocals":7023,"TreeBuilder":7024,"Network":7025,"Cho":7026,"å¤":7027,"cons":7028,"Ġhow":7029,"pointer":7030,"umeric":7031,"tenacity":7032,"nexia":7033,")[-":7034,"QRect":7035,"nested":7036,"Ġ'ãĢ":7037,"Ġbit":7038,"('<":7039,"Ġ11":7040,"))[":7041,"eggs":7042,"closer":7043,"Ġcharsets":7044,"Options":7045,"Socket":7046,"dedent":7047,"uml":7048,"compil":7049,"mtime":7050,"tod":7051,"Ġput":7052,"ĠMachine":7053,"228":7054,"prefixes":7055,">',<":7056,"Fatal":7057,"increment":7058,"ĠĠĠĠĠĠĠĠĠĠĠĠĠĠĠĠĠĠĠĠĠĠĠĠĠĠĠĠĠĠĠĠĠĠĠĠĠĠĠĠĠĠĠĠ":7059,"ĠLine":7060,"({'":7061,"primary":7062,"aut":7063,"Ġ\"\",":7064,"Ġtake":7065,"expires":7066,"STICK":7067,"obsoletes":7068,"Ġtrailing":7069,"::":7070,"Machine":7071,"ven":7072,"listener":7073,"via":7074,"boot":7075,"SHORT":7076,"ĠConfiguration":7077,"Linear":7078,"Ġweights":7079,"Detail":7080,"BasicAuth":7081,"ActiveFormattingElements":7082,"500":7083,"Tk":7084,"XML":7085,"way":7086,"Ġrules":7087,"Ġcould":7088,"scalar":7089,"ĠMark":7090,"'))":7091,"hexdigest":7092,"Ġproblem":7093,"Cert":7094,"Ġdat":7095,"usersite":7096,"logo":7097,"isect":7098,"LOBAL":7099,"iou":7100,"oke":7101,"into":7102,"importlib":7103,"Ġeither":7104,"ĠSO":7105,"wordChars":7106,"quoteChar":7107,"bodyCharsOrig":7108,"Ġtmploc":7109,"CONN":7110,"MODU":7111,"ĠtokensStart":7112,"whiteChars":7113,"Resolver":7114,"calc":7115,"trigger":7116,"limitedList":7117,"MODULE":7118,"'\"<":7119,"XX":7120,"must":7121,"cygwin":7122,"DateTime":7123,"WA":7124,"Î¼":7125,"Ġ96":7126,"ĠSer":7127,"Array":7128,"InstallDir":7129,"Ġfspath":7130,"319":7131,"]\"),<":7132,"='',":7133,"ferences":7134,"DOCUMENT":7135,"condition":7136,"stacktrace":7137,"tz":7138,"Ġ))<":7139,"Ġphoto":7140,"Ġtimes":7141,"hashcmp":7142,"Authorization":7143,"BLUE":7144,"Post":7145,"ĠTr":7146,"indices":7147,"delay":7148,"Ġcontrol":7149,"attrgetter":7150,"userbase":7151,"replacement":7152,"Ġcounter":7153,"ĠIDNAError":7154,"OM":7155,"Ġcred":7156,"ket":7157,"laRobot":7158,"'\",":7159,"PES":7160,"Raw":7161,"âļ":7162,"serialize":7163,"AllMatches":7164,"Parent":7165,"332":7166,"317":7167,"Zip":7168,"pstr":7169,"Ġstrg":7170,"Ġproc":7171,"Ġ512":7172,"ABI":7173,"800":7174,"ient":7175,"loor":7176,"Ġcrypt":7177,"Ġunquote":7178,"ABC":7179,"arguments":7180,"Ġpermissions":7181,"nonce":7182,"plotlib":7183,"Ġcookiejar":7184,"tagFormatSimple":7185,"Title":7186,"Ö¼'),<":7187,"Ġlineno":7188,"Ġwithout":7189,"winreg":7190,"={'":7191,"\"}":7192,"GI":7193,"Ġinv":7194,"Ġnegative":7195,"istent":7196,"ĠNegativeInfinity":7197,"OSIT":7198,"OPEN":7199,"Ä±":7200,"storage":7201,"('\\\\":7202,"Ġam":7203,"some":7204,"LIB":7205,"FOUND":7206,"istrator":7207,"âĶĥ":7208,"BytesIO":7209,"ĠMachineState":7210,"=[\"":7211,"Dlg":7212,"Opt":7213,"]'":7214,"ĠElement":7215,"orn":7216,"ĠOWNER":7217,"JSON":7218,"]]:<":7219,"du":7220,"hits":7221,"meth":7222,"Ġnormalized":7223,"ĠUse":7224,"colgroup":7225,"HOST":7226,"eager":7227,"mid":7228,"ÙĤ":7229,"Ġnt":7230,"linker":7231,"DOCTYPE":7232,"ĠUnsupportedWheel":7233,"SdkDir":7234,"Usage":7235,"Ġ\"@":7236,"Ġfallback":7237,"setitem":7238,"threshold":7239,"permissions":7240,"FFF":7241,"creator":7242,"ĠcharStack":7243,"ĠRem":7244,"ĠprocessCharacters":7245,"Ġperform":7246,"Ġnullable":7247,"Letters":7248,"loggable":7249,"Â´":7250,"Ġ\"\":<":7251,"ancy":7252,"ĠintExpr":7253,"Ġcaseless":7254,"workers":7255,"CallState":7256,"Non":7257,"TA":7258,"uniform":7259,"ĠMult":7260,"Ġprovider":7261,"ĠNet":7262,"astype":7263,"={<":7264,"cards":7265,"managed":7266,"Case":7267,"pie":7268,"country":7269,"NODE":7270,"transaction":7271,"identChars":7272,"VALID":7273,"CUR":7274,"Ġ''":7275,"romote":7276,"Ġfilepath":7277,"Ġ256":7278,"itervalues":7279,"Ġtests":7280,"each":7281,":`":7282,"Total":7283,"bio":7284,"ÙĪ":7285,"ĠretTokens":7286,"lsb":7287,"Acct":7288,"telegra":7289,"anese":7290,"Update":7291,"ADD":7292,"need":7293,"selected":7294,"WARN":7295,"atin":7296,"Ġ({":7297,"utor":7298,"Ġseq":7299,"iltins":7300,"DF":7301,"If":7302,"zy":7303,"ªï¸ı":7304,"renc":7305,"anim":7306,"Ġpassed":7307,"lief":7308,"apanese":7309,"Ġ[('":7310,"Ġhour":7311,"Redirect":7312,"Insensitive":7313,"Provides":7314,"Ġadjacent":7315,"Ġroaming":7316,"âłĦâłĦ":7317,"lists":7318,"pretty":7319,"infos":7320,"223":7321,"pause":7322,"ĠInvalidSpecifier":7323,"ĠquoteChar":7324,"trusted":7325,"Ġrmtree":7326,"Greater":7327,"URE":7328,"lp":7329,"inde":7330,"rec":7331,"algorithm":7332,"using":7333,"229":7334,"song":7335,"ĠKan":7336,"memory":7337,"ĠLaylaRobot":7338,"'%":7339,"Cell":7340,"bos":7341,"dition":7342,"longest":7343,"keystone":7344,"ĠUndefined":7345,"Ġstats":7346,"Ġflask":7347,"Ġcorrect":7348,"centr":7349,"Cmp":7350,"SPA":7351,"udent":7352,"Ġembed":7353,"Ġrand":7354,"parseString":7355,"180":7356,"ObjectIdentifier":7357,"ĠSUDO":7358,"NUM":7359,"inct":7360,"Ġusage":7361,"present":7362,"ĠMutableMapping":7363,"reeze":7364,"UNT":7365,"Ġinitial":7366,"Soft":7367,"Ġmerge":7368,"700000":7369,"}/{":7370,"abis":7371,"ãĥĪ":7372,"Short":7373,"âĹ»ï¸ıâĹ»ï¸ı":7374,"InsensitiveDict":7375,"hid":7376,"udo":7377,"â³":7378,"roy":7379,"Ġfrag":7380,"appengine":7381,"certificate":7382,"Ġcallsmusic":7383,"ocument":7384,"Upload":7385,"FDATA":7386,"OPTIONS":7387,"getChat":7388,"odingState":7389,"etree":7390,"201":7391,"authorized":7392,"Ġflush":7393,"Ġrelative":7394,"odingStateMachine":7395,"åĲ":7396,"ipher":7397,"agers":7398,"111":7399,"ĠForm":7400,"ship":7401,"Ġparents":7402,"ĠHTTPError":7403,"MESSAGE":7404,"+-]":7405,"begin":7406,"LegacyVersion":7407,"Security":7408,"ZeroOrMore":7409,"dn":7410,"ĠResource":7411,"dependency":7412,"Ġchr":7413,"ĠtagStr":7414,"ĠProxy":7415,"atty":7416,"Ġgetfed":7417,"\"])":7418,"ĠprocessEOF":7419,"Ġsuffixed":7420,"!\",":7421,"gent":7422,"Ð´":7423,"Ġ}":7424,"vect":7425,"prepared":7426,"pretrained":7427,"âĸªï¸ı":7428,"eki":7429,"Forward":7430,"fk":7431,"gers":7432,"stickers":7433,"Role":7434,"3000":7435,"gpu":7436,"ttl":7437,"LOCAL":7438,"visual":7439,"tor":7440,"ĠDocument":7441,"ValueSize":7442,"Ġspecifiers":7443,"digests":7444,"ĠUnicodeDecodeError":7445,"compatibilities":7446,"ValueSizeConstraint":7447,"erence":7448,"ÛĮ":7449,"anums":7450,"stride":7451,"([])<":7452,"ALLOW":7453,"Ġleg":7454,"...\"<":7455,"arison":7456,"+=":7457,"ÏĨ":7458,"decay":7459,"Ġrecursive":7460,"etf":7461,"properties":7462,"']))<":7463,"ĠTO":7464,"LEG":7465,"Ġ::":7466,"Ġchardet":7467,"DEFINE":7468,"âĸĴâĸĴâĸĴâĸĴâĸĴâĸĴâĸĴâĸĴ":7469,"_<":7470,"`{":7471,"ä»":7472,"des":7473,"Ġexe":7474,"tainer":7475,"ĠKeyword":7476,"Ġdoesn":7477,"Thread":7478,"Ġbuffering":7479,"CII":7480,")+":7481,"Ġslice":7482,"Ġbanned":7483,"islink":7484,"Ġdropout":7485,"Ġbuilding":7486,"ificates":7487,"686":7488,"Ġ'':<":7489,"Ġ\"\").":7490,"Ġlogin":7491,"ĠPipSession":7492,"gl":7493,"hr":7494,"Ġdatabase":7495,"divid":7496,"__:<":7497,"Ġaccess":7498,"Ġcomm":7499,"Ġuserid":7500,"Ġprep":7501,"ĠLegacy":7502,"{}.":7503,"MAG":7504,"resolver":7505,"Successfully":7506,"gui":7507,"ÏĢ":7508,"Ġ\"))<":7509,"peer":7510,"\":\"":7511,"Ġ64":7512,"ontal":7513,"Filename":7514,"ĠConverting":7515,"Classifier":7516,"CFRelease":7517,"ĠDirect":7518,"orizontal":7519,"GHT":7520,"TMP":7521,"ĉĉĉĉĉĉĉ":7522,"ĠParseMode":7523,"Ġelements":7524,"ĠRPM":7525,"Ġdecoded":7526,"ĠFilter":7527,"Ġmatplotlib":7528,"malloc":7529,"bosity":7530,"500000":7531,"WHEEL":7532,"clib":7533,"vg":7534,"decompress":7535,"ĠCase":7536,"actual":7537,"asha":7538,"zipinfo":7539,"Program":7540,"Ġ:,":7541,"Ġlocked":7542,"CursorPosition":7543,"ACT":7544,"Gui":7545,"IZ":7546,"pickle":7547,"1024":7548,"ĠlistAllMatches":7549,"encodings":7550,"LIGHT":7551,"Ġsender":7552,"Ġhandlers":7553,")/":7554,")'<":7555,"/'<":7556,"GR":7557,"LINE":7558,"lhs":7559,"orph":7560,"ntity":7561,"ily":7562,"('')<":7563,"ĠMax":7564,"istrators":7565,"Ġadmins":7566,"ĠBaseException":7567,"Ġevaluate":7568,"ĠexcludeChars":7569,"criterion":7570,"TRA":7571,"Ġ^":7572,"Ġà¶":7573,"agr":7574,"DEV":7575,"working":7576,"Ġhttplib":7577,"ĠSUPPORT":7578,"alwidget":7579,"nexiaBot":7580,"centralwidget":7581,"600000":7582,"Maint":7583,"world":7584,"Ġprepared":7585,"CKR":7586,"SELECT":7587,"âľł":7588,"âģĦ":7589,"`\\":7590,"afe":7591,"wind":7592,"Ø«":7593,"Ġimported":7594,"prune":7595,"CKS":7596,"UTE":7597,"SCRI":7598,"Ġurls":7599,"Location":7600,"Frameset":7601,"ãĢĢ":7602,"ĠSession":7603,"ULL":7604,"framesetOK":7605,"Banned":7606,"Don":7607,"LIN":7608,"Ġpin":7609,"Ġoptional":7610,"ider":7611,"whitespace":7612,"OSError":7613,"Ġresolver":7614,"Ġdirectories":7615,"conflicts":7616,"dividual":7617,"SDK":7618,"ari":7619,"ĠSystem":7620,"Ġdoct":7621,"ietf":7622,"once":7623,"ptime":7624,"Ġus":7625,"Ġ['.":7626,"ĠAl":7627,"ðŁļ":7628,"subscri":7629,"Ġjust":7630,"ĠinsertBefore":7631,"Ġcryptography":7632,"Big":7633,"Finish":7634,"Too":7635,"Ġexceeds":7636,"ĠDistutilsFileError":7637,"Ġignored":7638,"âĢİðŁĵ¶â¬Ľ":7639,"/'":7640,":(%":7641,"Moved":7642,"Mismatches":7643,"ĠselfTag":7644,"usr":7645,"ĠendQuoteChar":7646,"olders":7647,"escQuote":7648,"convertTo":7649,"ĠidentChars":7650,"Ġcpu":7651,"velopment":7652,"132":7653,"600":7654,"rf":7655,"Ïģ":7656,"Ø·":7657,"digits":7658,"Ġmaker":7659,"ĠAbstract":7660,"spaceCharacters":7661,"eps":7662,"IDL":7663,"Ġ'.'":7664,"Ġzlib":7665,"]+)\\":7666,"pc":7667,"Ġoff":7668,"unn":7669,"ĠĠĠĠĠĠĠĠĠĠĠĠĠĠĠĠĠĠĠĠĠĠĠĠĠĠĠĠĠĠĠĠĠĠĠĠĠĠĠĠĠĠĠĠĠĠĠĠ":7670,"Ġdeque":7671,"Change":7672,"Ġdefaults":7673,"ĠEgg":7674,"SetConsole":7675,"ĠConnect":7676,"players":7677,"closing":7678,"VALUE":7679,"Address":7680,"ArgumentParser":7681,"Ġappropri":7682,"Hook":7683,"Rem":7684,"Za":7685,"llocator":7686,"migrate":7687,"é»":7688,"als":7689,"Ġ([":7690,"Ġra":7691,"Ġ\"\\\\":7692,"CSIDL":7693,">',":7694,"hp":7695,"atest":7696,"projects":7697,"ĠDEV":7698,"Installation":7699,"unpacked":7700,"Ġchanged":7701,"Ġquotes":7702,"padding":7703,"Ø¯":7704,"ining":7705,"ather":7706,"Ġwrong":7707,"prep":7708,"Ġpredict":7709,"suite":7710,"CFString":7711,"changed":7712,"ĠCaseInsensitiveDict":7713,">=":7714,"=''):<":7715,"poll":7716,"Ġfatal":7717,"getvalue":7718,"Ġprefer":7719,"3456":7720,"ower":7721,"('/')<":7722,"!!":7723,"DJ":7724,"Width":7725,"lask":7726,"Ñĩ":7727,"Ġ'âĸ":7728,"epar":7729,"kinds":7730,"Ġtransforms":7731,"TABLE":7732,"tt":7733,"ufe":7734,"Ġscreen":7735,"Ġdelim":7736,"delitem":7737,"Quoted":7738,"ose":7739,"decor":7740,"setFilter":7741,"Ġexpect":7742,"('',":7743,"licable":7744,"Ġalgorithm":7745,"('.')":7746,"conflicting":7747,"ĠInteger":7748,"HEADERS":7749,"AM":7750,"widget":7751,"attention":7752,"ceph":7753,"serv":7754,"idl":7755,"aper":7756,"Ġ128":7757,"ĠĠĠĠĠĠĠĠĠĠĠĠĠĠĠĠĠĠĠĠĠĠĠĠĠĠĠĠĠĠĠĠĠĠĠĠĠĠĠĠĠĠĠĠĠĠĠĠĠĠĠ":7758,"Ġidentifier":7759,"SSLContextRef":7760,"Ġlegacy":7761,"Mat":7762,"qdm":7763,"ually":7764,"yy":7765,"ste":7766,"alert":7767,"unbound":7768,"Ġ[%":7769,"matching":7770,"Ġminutes":7771,"Ġrows":7772,"Ġtranslate":7773,"CONNECT":7774,"JK":7775,"Oper":7776,"ium":7777,"Ñĭ":7778,"Øº":7779,"Ġexpires":7780,"LETE":7781,"Ġleave":7782,"selectable":7783,"relpath":7784,"ĠAnsiFore":7785,"thumbnail":7786,"LazyModule":7787,"Ġ|$)(.*":7788,"âľłâľł":7789,":',":7790,"Abstract":7791,"PER":7792,"Tilde":7793,"gzip":7794,"ons":7795,"Ġpth":7796,"proj":7797,"preprocess":7798,"addParseAction":7799,"Ġthey":7800,"CHANNEL":7801,"Args":7802,"EmptyTag":7803,"controller":7804,"Algorithm":7805,"ĠAnsiBack":7806,"TYPES":7807,"Escape":7808,"QuotedState":7809,"Draw":7810,"DATE":7811,"LES":7812,"NED":7813,"hd":7814,"vance":7815,"Ġcalc":7816,"peak":7817,"namic":7818,"PC":7819,"Ð¼":7820,"ParseException":7821,"testing":7822,"selection":7823,"saved":7824,"Ġkinds":7825,"ĠasciiLetters":7826,"recogn":7827,":]:<":7828,"euc":7829,"tx":7830,"Ġ'',<":7831,"isatty":7832,"Ġ24":7833,"caller":7834,"ĠerrSSL":7835,"Ġ&=":7836,"Ġmultip":7837,"FatalException":7838,"(\"*":7839,"Ġhide":7840,"Ġ:**":7841,"dbl":7842,"coming":7843,"ĠProtocol":7844,"Ġoptimizer":7845,"ĠAssertionError":7846,"Ġsklearn":7847,"PORT":7848,"gh":7849,"å¾":7850,"ĠinnexiaBot":7851,"Ġbias":7852,"keychain":7853,"109":7854,"ĠInfinity":7855,"Ġ'-'":7856,"legal":7857,"ĠMarker":7858,"shebang":7859,"uation":7860,"Îº":7861,"urlen":7862,"Ġpol":7863,"Ġmismatches":7864,"andas":7865,"Ġ[{":7866,"maker":7867,"RESS":7868,"Ġlogits":7869,"ãĥ»":7870,"frac":7871,"ĠCharacter":7872,"Ġborderwidth":7873,"urlencode":7874,"Lock":7875,"\\'":7876,"lab":7877,"Ġnums":7878,"segment":7879,"ugh":7880,"CallBack":7881,"icipants":7882,"Ġsegment":7883,"CallBacks":7884,".',":7885,"NE":7886,"éĩ":7887,"ences":7888,"geometry":7889,"ildcards":7890,"ASCII":7891,"Ġ<<=":7892,"Ġterm":7893,"anoseconds":7894,"Factory":7895,"appauthor":7896,"resize":7897,"ĠSub":7898,"Require":7899,"ĠPos":7900,"\"]))<":7901,"Construct":7902,"matcher":7903,"ĠFrozen":7904,"phone":7905,"cruntime":7906,"RoBot":7907,"(\"./":7908,"ðŁİĩ":7909,"Cls":7910,"Music":7911,"Ne":7912,"mut":7913,"rer":7914,"fier":7915,"Ġaio":7916,"Include":7917,"ĠIt":7918,"))):<":7919,"Loss":7920,"ACY":7921,"DOWNLOADS":7922,"ekiRobot":7923,"Numeric":7924,"gid":7925,"åĨ":7926,"linked":7927,"assertSelect":7928,"Ġbackup":7929,"anchor":7930,"Ġcolorama":7931,"protocols":7932,"ely":7933,"=\"\",":7934,"ĠAL":7935,"acle":7936,"Ġ{}\\":7937,"ITS":7938,"Ġprefixes":7939,"Ġmultiline":7940,"good":7941,"Ġtarfile":7942,"closure":7943,"BLOCK":7944,"QP":7945,"anel":7946,"undef":7947,"izes":7948,"aml":7949,"codecs":7950,"Ġurljoin":7951,"ĠNO":7952,"Ġ{},":7953,"PEP":7954,"Ġservice":7955,"evaluator":7956,"TLSProtocol":7957,"ashaRoBot":7958,"DENT":7959,"GLOBAL":7960,"åĪ":7961,"Ġ\"]":7962,"(\"\")<":7963,"Ġchoices":7964,"blank":7965,"ĠChannel":7966,"Software":7967,"Video":7968,"ball":7969,"}|":7970,"mpeg":7971,"dil":7972,"Ġeach":7973,"Reader":7974,"heads":7975,"220":7976,"ĠLib":7977,"Ġlocator":7978,"ANGO":7979,"CACHE":7980,"ĠInvalidRequirement":7981,"Ġexplicit":7982,"Ġappropriate":7983,"Ġregex":7984,"Ġbtn":7985,"Ġyoutube":7986,"Ġtagname":7987,"BANNED":7988,"Ġoverride":7989,"}]":7990,"memo":7991,"Ġfriend":7992,"253":7993,"subdirectory":7994,"iversal":7995,"Dataset":7996,"Internal":7997,"AsInt":7998,"Ġhttps":7999,"Multiple":8000,"LAYERS":8001,"RECORD":8002,"401":8003,":],":8004,"MI":8005,"Welcome":8006,"Ġspawn":8007,"iday":8008,"props":8009,"ĠUp":8010,"indexes":8011,"letters":8012,"Order":8013,"LSB":8014,"ĠThread":8015,"537":8016,"700":8017,"Ġ'+":8018,"ysql":8019,"ðŁĳ":8020,"eggdir":8021,"thingEl":8022,"probers":8023,"Ġpairs":8024,"EscapedState":8025,"unnel":8026,"thingElse":8027,"ale":8028,"uck":8029,"çĶ":8030,"served":8031,"plan":8032,"Ġthere":8033,"writel":8034,"ĠFollowedBy":8035,"ĠtagAttr":8036,"rella":8037,"Ġsdkdir":8038,"+-]?\\":8039,"DJANGO":8040,"gd":8041,"tup":8042,"Ġ';":8043,"Ġconf":8044,"built":8045,"ĠToken":8046,"directive":8047,"CKET":8048,"ITY":8049,"charsUntil":8050,"Skipping":8051,"FORMATS":8052,",)":8053,"GH":8054,"TF":8055,"XY":8056,"éĽ":8057,"ĠIf":8058,"Ġuninstall":8059,"shadow":8060,"Ġtimed":8061,"epochs":8062,"Ġpreparer":8063,"Ġmonth":8064,"Ġlayer":8065,"inderella":8066,"Norm":8067,"updated":8068,"subs":8069,"ðŁĶ²":8070,"Ġvariables":8071,"ðŁİĨ":8072,"Details":8073,"tunnel":8074,"Ġtd":8075,"lined":8076,"amma":8077,"gray":8078,"==\"":8079,"]])<":8080,"_'":8081,"ggs":8082,"erc":8083,"Ġurlfetch":8084,"accuracy":8085,"solid":8086,"ĠcharEncoding":8087,"Ġsqltypes":8088,"Ġaccept":8089,"invite":8090,"written":8091,"AutoField":8092,"'(?":8093,"oci":8094,"inplace":8095,"prompt":8096,"bert":8097,"ELLOW":8098,"stdlib":8099,"tuples":8100,"leaveWhitespace":8101,"((<":8102,"Ali":8103,"AGE":8104,"OWNER":8105,"cred":8106,"jp":8107,"Ġrelief":8108,"edited":8109,"lazy":8110,"ĠMessageHandler":8111,"Ġmorning":8112,"Reporter":8113,"ĠKanekiRobot":8114,"JIS":8115,"Ġson":8116,"Ġunexpected":8117,"ĠopenTag":8118,"dbapi":8119,"Ġminimum":8120,"Ġcreating":8121,"Ġserializer":8122,"ĠHTTPSConnection":8123,"Ġneeds":8124,"Identity":8125,"Ġmaps":8126,"crypted":8127,"Ġunittest":8128,"àµį":8129,"ĠAdmin":8130,"orphic":8131,"CY":8132,"Ob":8133,"Photo":8134,"]/":8135,"dtemp":8136,"unic":8137,"Ġexclus":8138,"ĠPIL":8139,"iterator":8140,"Ġthese":8141,"Ġnewline":8142,"neutron":8143,"ORDER":8144,"BUTTON":8145,"ymorphic":8146,"ĠMulti":8147,"hg":8148,"Ġrepeat":8149,"could":8150,"__\"<":8151,"pture":8152,"Ġbisect":8153,"(\"\".":8154,"Ġstandard":8155,"âĸĢ":8156,"asyncio":8157,"ĠTypes":8158,"ĠYour":8159,"abilities":8160,"''<":8161,"OID":8162,"_%":8163,"ks":8164,"tre":8165,"ĠVER":8166,"detach":8167,"Ġ\"\"),<":8168,"Ġgo":8169,"Ġenc":8170,"Ġmetric":8171,"Ġ300":8172,"Ġhasher":8173,"admins":8174,"COMP":8175,"Ġtempdir":8176,"Framework":8177,"ĠCallbackQuery":8178,"IFY":8179,"ĠNameError":8180,">):<":8181,"lxml":8182,"micro":8183,"rep":8184,"Ġdot":8185,"Ġenter":8186,"Ġoutfiles":8187,"Ġspecific":8188,"Ġabout":8189,"nonzero":8190,"STRING":8191,"ĠserializeElement":8192,"ÑģÑĤ":8193,"Ġ({})":8194,"Ġcookies":8195,"RENT":8196,"Ġ\"./":8197,"CAS":8198,"Arr":8199,"Getopt":8200,"small":8201,"GTH":8202,"magic":8203,"rgb":8204,"}_{":8205,"Ġnone":8206,"prod":8207,"ONG":8208,"EXTRA":8209,"Ġshape":8210,"FEDID":8211,"BYFEDID":8212,"ĠcomponentType":8213,"Balance":8214,"_=":8215,"apply":8216,"double":8217,"Ġdecl":8218,"Ġtools":8219,"ĠAuth":8220,"ĠBOT":8221,"ARCH":8222,"Ġmatched":8223,"netrc":8224,"Ġpercent":8225,"SUB":8226,"ConfigParser":8227,"ĠFormat":8228,"Dec":8229,"fns":8230,"remap":8231,"dif":8232,"unpatched":8233,"Ġho":8234,"Ġdeps":8235,"Combine":8236,"currences":8237,"wininst":8238,"nek":8239,"ðĿķ":8240,"â¬Ľâ¬Ľâ¬Ľâ¬Ľâ¬Ľ":8241,"æľĪ":8242,"Eval":8243,"Separ":8244,"UID":8245,"Web":8246,"rv":8247,"Ġurlopen":8248,"itor":8249,"Ġtqdm":8250,"exact":8251,"Ġspeed":8252,"Ġdesc":8253,"']):<":8254,"Ġaltern":8255,"initialized":8256,"surro":8257,"seudo":8258,"Ġ\"==":8259,"cedil":8260,"DEX":8261,"processEndTag":8262,"DOUT":8263,"ĠcurrentNode":8264,"ĠignoreEndTag":8265,"InfoDistribution":8266,"ðĿĲ":8267,"ResolutionError":8268,"SOURCE":8269,"guild":8270,"Ġpandas":8271,"ĠCodingStateMachine":8272,"ĠSu":8273,"BAS":8274,"Ġcodes":8275,"â¬ľâ¬ľâ¬ľâ¬ľ":8276,"Children":8277,"Ġcsbi":8278,"Ġdivmod":8279,"banned":8280,"qq":8281,"rsplit":8282,"reinitialize":8283,"colon":8284,"Ġvals":8285,"shake":8286,"operations":8287,"AI":8288,"Hel":8289,"IDE":8290,"vn":8291,"ada":8292,"(\"@":8293,"quential":8294,"icle":8295,"Sticker":8296,"rights":8297,"RGB":8298,"Sum":8299,"Tabs":8300,"UCT":8301,"equi":8302,"Ð²":8303,"ð£":8304,"coord":8305,"__):<":8306,"strs":8307,"Ġ[],<":8308,"ĠCCompiler":8309,"REDIRECT":8310,"ANG":8311,"000005":8312,"8601":8313,"mitted":8314,"!')<":8315,"/$":8316,"two":8317,"Ġ(-":8318,"Ġpretty":8319,"ĠOP":8320,"ĠFLAGS":8321,"There":8322,"Library":8323,"âĶģâĶģ":8324,"assertRaisesRegex":8325,"critical":8326,"Fill":8327,"hone":8328,"Ġpg":8329,"lier":8330,"Ġresname":8331,"Ġ21":8332,"basestring":8333,"assertRegex":8334,"ushButton":8335,"HEADER":8336,"âķĲâķĲâķĲâķĲ":8337,");\\":8338,"BI":8339,"Fail":8340,"Toks":8341,"mot":8342,"sk":8343,"Ġind":8344,"setWhitespaceChars":8345,"Ġest":8346,"ĠresTag":8347,"Ġdns":8348,"ĠMashaRoBot":8349,"2022":8350,"TypeID":8351,"ParseNext":8352,"ĠFound":8353,"LOGGER":8354,"TokenConverter":8355,"(_,":8356,"streamlined":8357,"Ġleast":8358,"ĠcheckRecursion":8359,"notChars":8360,"Ġcurrently":8361,"haskeys":8362,"ĠtmpReq":8363,"ĠbodyChars":8364,"Ġtarinfo":8365,"Ġencoded":8366,"selessLiteral":8367,"samples":8368,"MLTags":8369,"modalResults":8370,"ĠtmpReqd":8371,"cam":8372,"arge":8373,"ended":8374,"Ġ[]:<":8375,"Ġ80":8376,"playlist":8377,"={\"":8378,"bracket":8379,"********":8380,"Spinner":8381,"\"%":8382,"æķ":8383,"(\"|%":8384,"Ġhidden":8385,"ammit":8386,"Ġdt":8387,"packet":8388,"ĠAdd":8389,"oreset":8390,"Ġ500":8391,"ĠpostParse":8392,"ĠBuildEnvironment":8393,"assertSelects":8394,"My":8395,"].__":8396,"}%":8397,"noscript":8398,"filt":8399,"ĠpackageName":8400,"DIRS":8401,"Generator":8402,"volume":8403,"BLE":8404,"sun":8405,"align":8406,"itude":8407,"role":8408,"Ġtxt":8409,"Ġcinderella":8410,"dater":8411,"Ġeps":8412,"predicate":8413,"ĠPM":8414,"ĠAc":8415,"inalBalance":8416,"COUNT":8417,"parents":8418,"789":8419,"oose":8420,"lected":8421,"ĠimplicitTag":8422,"IPv":8423,"Ġoptimize":8424,"Warn":8425,"~/":8426,"atic":8427,"ename":8428,"Ġnl":8429,"2020":8430,"Ġ35":8431,"ĠFrame":8432,"CFLAGS":8433,"Fn":8434,"PN":8435,"fault":8436,"Ġ,<":8437,"sec":8438,"eroku":8439,"Ġexceptions":8440,"\")[":8441,"230":8442,"armup":8443,"REQUIRED":8444,"METHOD":8445,"Bal":8446,"chdir":8447,"utc":8448,"setstate":8449,"osx":8450,"ĠInst":8451,"foreign":8452,"constant":8453,"ï½¥":8454,"Bl":8455,"JP":8456,"city":8457,"ceeded":8458,"Ġbet":8459,"Ġisdir":8460,"ĠCmdHelp":8461,"\"][-":8462,"editor":8463,"blocks":8464,"Ġrecords":8465,"ĠPROTOCOL":8466,"Des":8467,"osh":8468,"Ġbeing":8469,"Ġ[\"--":8470,"xmlrpc":8471,"ingleByteCharSetProber":8472,"Ġaccount":8473,"Transform":8474,"Ġpprint":8475,"Ġclo":8476,"ssh":8477,"iflags":8478,"()}<":8479,"**\\":8480,"Lower":8481,"callbacks":8482,"Ġconstraints":8483,"Ġsocks":8484,"NAMES":8485,"Ġdecorator":8486,"010":8487,"Ver":8488,"}-":8489,"Ïĥ":8490,"Ġ98":8491,"star":8492,"stmt":8493,"endpoint":8494,"Ġhuman":8495,"ĠLIGHT":8496,"1254":8497,"ELFDATA":8498,"Ġapplication":8499,"Integr":8500,"Ġmethods":8501,"Ġcertificate":8502,"clip":8503,"FCLASS":8504,"SCHEME":8505,"Ġ?(.*)\",":8506,"ĠLocation":8507,"ĠTelegramError":8508,")==":8509,"Binary":8510,"Tee":8511,"clock":8512,"floor":8513,"sheet":8514,"turn":8515,"Ġque":8516,"stem":8517,"enu":8518,"Ġfore":8519,"izers":8520,"ĠĠĠĠĠĠĠĠĠĠĠĠĠĠĠĠĠĠĠĠĠĠĠĠĠĠĠĠĠĠĠĠĠĠĠĠĠĠĠĠĠĠĠĠĠĠĠĠĠĠĠĠĠ":8521,"charStack":8522,"locks":8523,"ĉĉĉĉĉĉ":8524,"ĠscriptData":8525,"generated":8526,"TreeWalker":8527,"REGEX":8528,"constructActiveFormattingElements":8529,"ĠDOCTYPE":8530,"QPushButton":8531,"scheduler":8532,"altern":8533,"Ġremainder":8534,"Ġwho":8535,"Reason":8536,"Ġ>>":8537,"logical":8538,"warns":8539,"Ġconfiguration":8540,"RAY":8541,"OKU":8542,"Ġclosed":8543,"OpenKey":8544,"Ġcells":8545,"Ġtensorflow":8546,"ĠFrozenSet":8547,"\"/":8548,"erAcct":8549,"stit":8550,"leting":8551,"lif":8552,"illi":8553,"nologo":8554,"parseImpl":8555,"Ġtokenizer":8556,"ests":8557,"Property":8558,"processSpaceCharacters":8559,"EndDialog":8560,"Ġsymbol":8561,"GroupProber":8562,"buffered":8563,"erAcctBal":8564,"After":8565,"dummy":8566,"pub":8567,"æĪ":8568,"roke":8569,"fifo":8570,"Ġ'/')<":8571,"Iterable":8572,"Multi":8573,"WRITE":8574,"__('":8575,"Ġlook":8576,"codename":8577,"more":8578,"distance":8579,"ĠFore":8580,"STDOUT":8581,"Ġ{})":8582,"ĠHe":8583,"regexp":8584,"Participant":8585,")}\\":8586,");<":8587,"Ra":8588,"fri":8589,"pid":8590,"direction":8591,"ĠretToks":8592,"Ġnormal":8593,"getstate":8594,"Ġ18":8595,"ĠSec":8596,"1040":8597,"fixt":8598,"Ġcheckpoint":8599,"Ġ\"-\":<":8600,"ĠHTTPS":8601,"resolution":8602,"difference":8603,"â°":8604,"ð¥":8605,"ð¦":8606,"ĠâĢ¢":8607,"Ġ\"â":8608,"proc":8609,"xFFA":8610,"interface":8611,"00010":8612,"ÙħÙħ":8613,"KEYWORD":8614,"ðĲĳ":8615,"FIELD":8616,"Importer":8617,"ELEMENT":8618,"Ġboard":8619,",%":8620,"days":8621,"ril":8622,"coords":8623,"__\"):<":8624,"libname":8625,"Ġprob":8626,"cmdclass":8627,"Ġplot":8628,"interp":8629,"okupError":8630,"ĠSSLContext":8631,"finished":8632,"bold":8633,"share":8634,"prefixlen":8635,"IDENTIFIER":8636,"cross":8637,"TestCase":8638,"quoted":8639,"confirm":8640,"FILTERS":8641,"Ġeverything":8642,"PASSWORD":8643,"$')<":8644,"*.":8645,"eam":8646,"kp":8647,"Ġinline":8648,"ilon":8649,"():":8650,"Ġdebugging":8651,"221":8652,"225":8653,"Ġkeyring":8654,"ĠFlask":8655,"Ġtimedelta":8656,"Ġparameters":8657,"Ġdbapi":8658,"CMD":8659,"Pr":8660,"[_":8661,"bat":8662,"tle":8663,"Ã¡":8664,"inc":8665,"leader":8666,"allp":8667,"Ġaudio":8668,"ĠPer":8669,"Ġyear":8670,"Ġsettype":8671,"readable":8672,"127":8673,"Ġthrow":8674,"creating":8675,"Ġarches":8676,"âķ±":8677,"fspath":8678,"Sheet":8679,"Screen":8680,"sNotIn":8681,"alive":8682,"Ġ13":8683,"ĠCheck":8684,"1251":8685,"shot":8686,"methodcaller":8687,"UNI":8688,"changelog":8689,"Ġmultipath":8690,"ĠCharsNotIn":8691,"Ġdepends":8692,"'ll":8693,"Octet":8694,"Scheme":8695,"mor":8696,"}.\",<":8697,"logs":8698,"Ġgui":8699,"building":8700,"ARGET":8701,"errSSL":8702,"radi":8703,"Height":8704,"=[]<":8705,"ĠcloseTag":8706,"RetryCallState":8707,"Application":8708,"ĠProtocolError":8709,"'}":8710,"+)":8711,"ccompiler":8712,"ves":8713,"medi":8714,"RESET":8715,"ĠLog":8716,"Ġdefaultdict":8717,"tagStr":8718,"printables":8719,"Ġabspath":8720,"Ġinterpre":8721,"Ġvcvarsall":8722,"GREEN":8723,"DHE":8724,"Jar":8725,"PH":8726,"ĠEND":8727,"ural":8728,"Ġprocessed":8729,"\")]<":8730,"DELETE":8731,"âĢĻ":8732,"RequestException":8733,"QtWidgets":8734,"âĸĳâĸĳâĸĳâĸĳ":8735,"ciphers":8736,"Ġdnsnames":8737,"PT":8738,"rule":8739,"Ġ\"!":8740,"Individual":8741,"0000000":8742,"))]<":8743,"Ġ['/":8744,"destroy":8745,"Ġjoined":8746,"Ġsuccessfully":8747,"cryptography":8748,"SPACE":8749,"âĸªï¸ıâĸªï¸ı":8750,"Required":8751,"Î·":8752,"reward":8753,"Ġ\")":8754,"Ġplist":8755,"strate":8756,"tobool":8757,"ĠDIS":8758,"notes":8759,"crt":8760,"CFData":8761,"})>\".":8762,"webp":8763,"Codepoint":8764,"Template":8765,"ðŁİĨðŁİĩ":8766,"Work":8767,"Ġperson":8768,"Ġsimple":8769,"Ġoc":8770,"appers":8771,"Ġhit":8772,"Ġconstruct":8773,"REMENT":8774,"Ġaliases":8775,"LOP":8776,"Ġcanvas":8777,"Ġsuch":8778,"Ġ'/'":8779,"ITEM":8780,"Ġ[]).":8781,"raised":8782,"uplicate":8783,"Mem":8784,"PLAT":8785,"Show":8786,"VS":8787,"ä½":8788,"Ġbits":8789,"Ġpathlist":8790,"activate":8791,"pendent":8792,"Ġenabled":8793,"1250":8794,"anger":8795,"ĠIncremental":8796,"cmdhelp":8797,"ĠstartTagTable":8798,"Component":8799,"Ġsigned":8800,"âĿĮ":8801,"DateTimeField":8802,"?\"<":8803,"NL":8804,"hard":8805,"rarr":8806,"reconstructActiveFormattingElements":8807,"urator":8808,"ðŁ¤":8809,"pythonpath":8810,"135":8811,"akes":8812,"VersionError":8813,"HTTPConnection":8814,"ĠĠĠĠĠĠĠĠĠĠĠĠĠĠĠĠĠĠĠĠĠĠĠĠĠĠĠĠĠĠĠĠĠĠĠĠĠĠĠĠĠĠĠĠĠĠĠĠĠĠĠĠĠĠĠĠĠĠĠĠĠĠĠĠĠĠĠĠĠĠĠĠĠĠĠĠĠĠĠĠĠĠĠĠĠĠĠĠĠĠĠĠĠĠĠ":8815,"trieve":8816,"*')<":8817,".]+":8818,"Agent":8819,"Fx":8820,"æŃ":8821,"êľ":8822,"ĠÙ":8823,"Ġ95":8824,"Ġunder":8825,"reload":8826,"pem":8827,"Ġstrtobool":8828,"Ġdn":8829,"Than":8830,"products":8831,"Ġoperations":8832,"Ġfixed":8833,"tw":8834,"instr":8835,"anded":8836,"Ġcase":8837,"setStyle":8838,"Ġamount":8839,"Ġmacos":8840,"opExpr":8841,"ELIST":8842,"structures":8843,"Ġarcname":8844,"embeddings":8845,"?[":8846,"ech":8847,"uch":8848,"enium":8849,"Ġod":8850,"amily":8851,"Ġgetmode":8852,"Ġurlunparse":8853,"ĠAr":8854,"MEM":8855,"Dev":8856,"Ġ\".\".":8857,"Ġfilt":8858,"validator":8859,"ConsoleOutput":8860,"hours":8861,"Running":8862,"WEL":8863,"]:":8864,"cas":8865,"eck":8866,"emen":8867,"enance":8868,"resume":8869,"CHA":8870,"sessions":8871,"tmpdir":8872,",(":8873,"CLEAN":8874,"QLabel":8875,"Score":8876,"Ġstmt":8877,"figure":8878,"Chunk":8879,"Valid":8880,"Statement":8881,"Ġsubclass":8882,"netmask":8883,"â¬Ľâ¬Ľâ¬Ľ":8884,"Ġidna":8885,"ceived":8886,"Ġdiscord":8887,"LINK":8888,"setStyleSheet":8889,"HKEY":8890,"Japanese":8891,"Pip":8892,"Suppress":8893,"]\"":8894,"kr":8895,"åĩ":8896,"getfiles":8897,"Ġmis":8898,"ystemen":8899,"Ġparallel":8900,"Ġcountry":8901,"ĠInvalidVersion":8902,"Ġtraining":8903,"rency":8904,"getfilesystemen":8905,"getfilesystemencoding":8906,"GA":8907,"borg":8908,"human":8909,"ways":8910,"å·":8911,"Ġ'').":8912,"Ġcf":8913,"Ġwind":8914,"against":8915,"processed":8916,"124":8917,"2010":8918,"httplib":8919,"ITELIST":8920,"ĠRange":8921,"=[],<":8922,"ĠLOG":8923,"percentage":8924,"$',":8925,",-":8926,"Batch":8927,"CLASS":8928,"sol":8929,"Ġpats":8930,"thn":8931,"Ġasn":8932,"xFAB":8933,"Ġkick":8934,"xABA":8935,"000003":8936,"pped":8937,"finite":8938,"HOME":8939,"Ġconstants":8940,"IndividualSpecifier":8941,"GT":8942,"VES":8943,"erent":8944,"|\\":8945,"reat":8946,"nth":8947,"Ġscan":8948,"Ġscores":8949,"okiel":8950,"acker":8951,"imer":8952,"fixers":8953,"**\")<":8954,"xyz":8955,"EncodeError":8956,"HTTPSConnection":8957,"Ġunicodedata":8958,"RetryError":8959,"gini":8960,"okielib":8961,"]))":8962,"fast":8963,"Î±":8964,"Î²":8965,"Î³":8966,"Ġuid":8967,"ĠattrValue":8968,"What":8969,"Ġmarkdown":8970,"Ġprivate":8971,"ĠZip":8972,"aloader":8973,"Fragment":8974,"ellow":8975,"112":8976,"ĠoptElements":8977,"HTTPServer":8978,"Ġwheels":8979,"precision":8980,"Ġstreamline":8981,"Removing":8982,"ĠMaxRetryError":8983,"memoized":8984,"PLAYERS":8985,"VED":8986,"uest":8987,"Ġsatis":8988,"stri":8989,"Ġgt":8990,"ĠWork":8991,"866":8992,"ROM":8993,"stdin":8994,"Ġlayers":8995,"CONTENT":8996,"ĠRemote":8997,"âī":8998,"Ġfolder":8999,"diction":9000,"unsupported":9001,").\",<":9002,"Ġeggs":9003,"caseless":9004,"subset":9005,"layout":9006,"skipping":9007,"sqlite":9008,"Ġ`{}`\".":9009,"Ġselenium":9010,"Function":9011,"Ġloop":9012,"ĠPost":9013,"Ġgoogle":9014,"ĠMy":9015,"Ġcause":9016,"Ġ{}\"<":9017,"Ġhashed":9018,"relation":9019,"(',')<":9020,"CustomFilters":9021,"INSTAL":9022,"/{}":9023,"Square":9024,"migrations":9025,"Ġà´":9026,"Ġpur":9027,"codec":9028,"ĠMatch":9029,"')))<":9030,"Ġalways":9031,"ĠSocketError":9032,"YELLOW":9033,"hint":9034,"kes":9035,"çĽ":9036,"inate":9037,"ĠSimple":9038,"ĠPage":9039,"initializer":9040,"Digest":9041,"srcdir":9042,"pipe":9043,"childNodes":9044,"ĠStream":9045,"ĠQtGui":9046,"deploy":9047,"BACKEND":9048,"?\",<":9049,"TEST":9050,"broadcast":9051,"hy":9052,"aliases":9053,"strptime":9054,"plain":9055,"Ġdetermine":9056,"Ġliteral":9057,"distinfo":9058,"Ġmacro":9059,"readlines":9060,"ĠWAR":9061,"Ġregistry":9062,"ï¼Į":9063,"}`\\":9064,"ECDSA":9065,"Ġconfidence":9066,"declare":9067,"Constructed":9068,"900":9069,"OB":9070,"au":9071,"bzip":9072,"cdata":9073,"given":9074,"tell":9075,"Î»":9076,"ches":9077,"elapsed":9078,"services":9079,"getopt":9080,"ĠSingleByteCharSetProber":9081,"Ġdeleted":9082,"Ġresultlist":9083,"Ġmaxsplit":9084,"ween":9085,"ĠHAS":9086,"Ġnonce":9087,"Processor":9088,"Ġreduce":9089,"Ġwraps":9090,"$\")<":9091,"Clause":9092,"FT":9093,"MONS":9094,"fraction":9095,"idi":9096,"ins":9097,"Ġsan":9098,"fromkeys":9099,"Ġrpm":9100,"ĠĠĠĠĠĠĠĠĠĠĠĠĠĠĠĠĠĠĠĠĠĠĠĠĠĠĠĠĠĠĠĠĠĠĠĠĠĠĠĠĠĠĠĠĠĠĠĠĠĠ":9101,"forms":9102,"ĠClose":9103,"Ġ28":9104,"ĠMS":9105,"Ġkeystore":9106,"Ġ('.":9107,"finditer":9108,"SECRE":9109,"ough":9110,"refresh":9111,"Ġcacheable":9112,"Ġcreator":9113,"transpose":9114,"Previous":9115,"Ġexecution":9116,"anythingElse":9117,"RIBUT":9118,"ĠstopOn":9119,"ĠSearch":9120,"Validation":9121,"FromTable":9122,"SUPPORTED":9123,"ĠReadTimeoutError":9124,"DashState":9125,"CookieJar":9126,"OSITORY":9127,"'ve":9128,"DRI":9129,"js":9130,"æĸ":9131,"ilar":9132,"Ġprompt":9133,"116":9134,"builds":9135,"numbers":9136,"akref":9137,"ĠParsed":9138,"cesses":9139,"ĠCommandInfo":9140,"CADE":9141,"HTMLElements":9142,")}:</":9143,"polymorphic":9144,"LENGTH":9145,"Ignoring":9146,"BRA":9147,"square":9148,"ä¹":9149,"roid":9150,"Ġuuid":9151,"Ġlocale":9152,"()]":9153,"Ġdependency":9154,"mouse":9155,"Ġ\"</":9156,"builders":9157,"reeBuilder":9158,"Service":9159,"REPOSITORY":9160,"Ġpoints":9161,"DATAB":9162,"ðŁĶ²ðŁĶ²":9163,"music":9164,"reference":9165,"reversed":9166,"enate":9167,"artist":9168,"mmutable":9169,"Ġprecedence":9170,"ixel":9171,"DIS":9172,"ENTA":9173,"Ġ\"{\"":9174,"Ġwere":9175,"OLVES":9176,"ĠNetwork":9177,"$\"))<":9178,"Migration":9179,"wf":9180,"ones":9181,"001":9182,"Ġ)),<":9183,"Ġcodec":9184,"annotations":9185,"ĠHTTPResponse":9186,"nowled":9187,"Ġsitedirs":9188,"âĢİðŁĵ¶âĢİðŁĵ¶âĢİðŁĵ¶âĢİðŁĵ¶":9189,"Ġfailure":9190,"MovedItems":9191,"!--":9192,"Legacy":9193,"yield":9194,"Ġge":9195,"Ġfh":9196,"hop":9197,"distinct":9198,"Strict":9199,"150":9200,"Ġzero":9201,"transfer":9202,"threads":9203,"canonicalize":9204,"ĠDISABLE":9205,"+)\\":9206,"Home":9207,"IMP":9208,"cpython":9209,"gcc":9210,"ices":9211,"mn":9212,"pat":9213,"uk":9214,"youtube":9215,"Ġincompatibilities":9216,"mao":9217,"Ġdays":9218,"Ġprovide":9219,"LF":9220,"wt":9221,"Ġanswer":9222,"stage":9223,"Ġ\"}\"<":9224,"choices":9225,"elc":9226,"Ġ</":9227,"Ġmone":9228,"Ġencoder":9229,"114":9230,"ĠIg":9231,"345":9232,"...')<":9233,"ĠĠĠĠĠĠĠĠĠĠĠĠĠĠĠĠĠĠĠĠĠĠĠĠĠĠĠĠĠĠĠĠĠĠĠĠĠĠĠĠĠĠĠĠĠĠĠĠĠĠĠĠĠĠĠĠĠĠĠĠĠĠĠĠĠĠĠĠĠĠĠĠĠĠĠĠĠĠĠĠĠĠĠ":9234,"sentence":9235,"SECRET":9236,"Long":9237,"åĬ":9238,"inception":9239,"mess":9240,"Ġ\"[\"":9241,"servers":9242,"isy":9243,"minutes":9244,"2021":9245,"defaultValue":9246,"ĠVersionConflict":9247,"irth":9248,"ĠVariable":9249,"ikey":9250,"·'),<":9251,"Î¶":9252,"decimal":9253,"Ġ'))<":9254,"Ġcpy":9255,"preParse":9256,"pyo":9257,"ĠdelimitedList":9258,"ĠtokenMap":9259,"matchWhite":9260,"Ġdouble":9261,"192":9262,"ĠmaxMatches":9263,"Exprs":9264,"TextFor":9265,"Ġexprtokens":9266,"ĠnextLoc":9267,"ĠnextLevel":9268,"ĠtmpOpt":9269,"canParseNext":9270,"ĠmakeOptional":9271,"Ġbodychars":9272,"ĠinitChars":9273,"keepTabs":9274,"failAction":9275,"LineEnd":9276,"ĠPipError":9277,"================":9278,"SyntaxException":9279,"consume":9280,"FLOOD":9281,"ĠnamedItemsOnly":9282,"Ġdoctag":9283,"convertToFloat":9284,"CASCADE":9285,"ĠthrowException":9286,"ĠnextLevelIndent":9287,"ĠmakeOptionalList":9288,"8000001":9289,">')<":9290,"kar":9291,"êļ":9292,"ģ'),<":9293,"Ġrestrict":9294,"__'":9295,"ablo":9296,"quo":9297,"listen":9298,"Ġ400":9299,"Profile":9300,"Ġiteritems":9301,"ãĥİ":9302,"InvalidELFFileHeader":9303,"ĠInvalidHeader":9304,"TECT":9305,"pypirc":9306,"Operation":9307,"ming":9308,"uction":9309,"inux":9310,"encoder":9311,"ĠCFA":9312,"cade":9313,"ĠMigration":9314,"fixed":9315,"lyph":9316,"execution":9317,"Ġnetrc":9318,"reshness":9319,"failures":9320,"Write":9321,"Ġlonger":9322,"({}":9323,"DG":9324,"ners":9325,"lis":9326,"Ġsections":9327,"curity":9328,"vari":9329,"canvas":9330,"Prepare":9331,"colors":9332,"Root":9333,"ĠÐ²":9334,"Downloading":9335,"Ġwriting":9336,"IAN":9337,"One":9338,"Tools":9339,"cm":9340,"gpg":9341,"irror":9342,"stroke":9343,"exchange":9344,"asgi":9345,"ceed":9346,"Ġhigh":9347,"appendChild":9348,"bottom":9349,"Ġits":9350,"ĠNAME":9351,"mbcs":9352,"Ġcodename":9353,"Ġfunctions":9354,"ĠDistributionNotFound":9355,"Ġrot":9356,"Ġ?(.*)\"))<":9357,"ĠElementTree":9358,"Ïĩ":9359,"__'):<":9360,"iling":9361,"Record":9362,"compute":9363,"Ġprog":9364,"charref":9365,"ople":9366,"Ġcolumns":9367,"mbed":9368,"Ġtesting":9369,"ĠGood":9370,"needs":9371,"IGERS":9372,"Ġtoday":9373,"sqrt":9374,"Permissions":9375,"350":9376,"âı":9377,"ross":9378,"vered":9379,"Tri":9380,"ReLU":9381,"Keychain":9382,"phot":9383,"tagSet":9384,"selector":9385,"TRAN":9386,"âĸĪâĸĪâĸĪâĸĪâĸĪâĸĪâĸĪâĸĪ":9387,"ĠCacheControl":9388,"Mis":9389,"pn":9390,"Ġlicense":9391,"deprecation":9392,"lig":9393,"Ġwildcards":9394,"apps":9395,"icense":9396,"matched":9397,"DETECT":9398,"{}*":9399,"LIENT":9400,"RAW":9401,"Ġchunked":9402,"ĠendTagTable":9403,"Caller":9404,"Alt":9405,"ĠCFString":9406,"HookCaller":9407,"Some":9408,"UUID":9409,"Ġans":9410,"deleted":9411,"predictions":9412,"()}":9413,"Ġunset":9414,"Ġunichr":9415,"grave":9416,"quotedString":9417,"PACK":9418,"}.{":9419,"operation":9420,"iased":9421,")',<":9422,"NORMAL":9423,"cxx":9424,"land":9425,"Ã³":9426,"åĭ":9427,"erase":9428,"Ġinc":9429,"Ġeq":9430,"Ġsed":9431,"ENCOD":9432,"paste":9433,"election":9434,"('.',":9435,"gbanned":9436,"Parsing":9437,"SecTrustResult":9438,"MANY":9439,"ICE":9440,"TU":9441,"Ġdid":9442,"tour":9443,"ewalker":9444,"tingElement":9445,"])):<":9446,"docinfo":9447,"Colgroup":9448,"Caption":9449,"Ġfnmatch":9450,"Ġselected":9451,"ĠFileNotFoundError":9452,"ĠExtension":9453,"SystemIdentifier":9454,"scriptDataDouble":9455,"ProgressBar":9456,".+?":9457,"CmpKey":9458,"Radio":9459,"rillic":9460,"/<":9461,"Math":9462,"RAT":9463,"px":9464,"Ġping":9465,"Ġincorrect":9466,"(';":9467,"urlsplit":9468,"emit":9469,"ĠsetUp":9470,"Ġmaxsize":9471,"SSLGet":9472,"encoded":9473,"Ġuts":9474,"+\\":9475,"CP":9476,"NET":9477,"_(<":9478,"ĠTrans":9479,"era":9480,"Ġintern":9481,"Ġreturned":9482,"pyver":9483,"INAL":9484,"cmds":9485,"intersection":9486,"IOError":9487,"ÙħØŃ":9488,"Ġoperators":9489,"ĉĉĉĉĉĉĉĉĉ":9490,"causes":9491,"ĠToml":9492,"PYTHONPATH":9493,"Bracket":9494,"\"^\\":9495,"Ġmemory":9496,"OPENSSL":9497,"bro":9498,"lag":9499,"nv":9500,"æł":9501,"standard":9502,"ordered":9503,"enums":9504,"Ġtx":9505,"Ġfd":9506,"dictionary":9507,"Ġwould":9508,"ammar":9509,"('/')":9510,"ĠUnicodeError":9511,"WheelFilename":9512,"CRT":9513,"NewMessage":9514,"FILTER":9515,"animate":9516,"040":9517,"Single":9518,"gm":9519,"Ġfmt":9520,"Ġdefine":9521,"trunc":9522,"ips":9523,"Ġhi":9524,"Ġvcruntime":9525,"Domain":9526,"lates":9527,"SizePolicy":9528,"Ð½Ð¸":9529,"hebrew":9530,"MATCHER":9531,"NUMBER":9532,"BASEN":9533,"*'<":9534,"CJP":9535,"kTLSProtocol":9536,"rewards":9537,"Ġbasic":9538,"(\"__":9539,"SSLProtocol":9540,"charsetprober":9541,"ĠEUCKR":9542,"STATUS":9543,"DistutilsError":9544,"0123456":9545,"Override":9546,"FillConsoleOutput":9547,"Icon":9548,"OFF":9549,"vv":9550,"determine":9551,"(\"\",":9552,"Ġrank":9553,"verbosity":9554,"ĠSCHE":9555,"Ġclasses":9556,"Ġcompiled":9557,"TableWidget":9558,"COMMENT":9559,"photos":9560,"/\"<":9561,"Handle":9562,"IAL":9563,"]],":9564,"nl":9565,"added":9566,"Ġacc":9567,"istered":9568,"ĠMeta":9569,"125":9570,"Ġmembers":9571,"\")))<":9572,"647":9573,"Ġ41":9574,"Ġpyversion":9575,"FILES":9576,"ĠParseFatalException":9577,"CharsNotIn":9578,"Ġzone":9579,"ĠignoreExpr":9580,"patches":9581,"longopt":9582,"(\"/\",":9583,"rollback":9584,"recognized":9585,"illiseconds":9586,"Last":9587,"cup":9588,"orry":9589,"Ġface":9590,"Ġsol":9591,"abiflags":9592,"fileno":9593,"Ġamt":9594,"Train":9595,"pyplot":9596,"['__":9597,"ĠOn":9598,"TypeError":9599,"ãĥŃ":9600,"Ġreading":9601,"OptionParser":9602,"ForeignKey":9603,"fx":9604,"holder":9605,"rpath":9606,"Ġnest":9607,"\"]',":9608,"locs":9609,"ĠMe":9610,"tokenMap":9611,"Ġshlex":9612,"fedlog":9613,"dfweekdata":9614,"Ġglobally":9615,"RCCommand":9616,"adapters":9617,"Ġfollowing":9618,"ĠInstalled":9619,"ĠWARN":9620,":')<":9621,"pers":9622,"è½":9623,"Ġ\"|":9624,"chal":9625,"quant":9626,"Ġlevels":9627,"clared":9628,"Ġchildren":9629,"VCInstallDir":9630,"Ġpadded":9631,"ĠDirectUrl":9632,"RATIO":9633,"ĠSCHEME":9634,"Hex":9635,"xz":9636,"xpath":9637,"ytd":9638,"already":9639,"Ġphone":9640,"locale":9641,"strap":9642,"dating":9643,"Ġisfile":9644,"ĠTable":9645,"1135":9646,"anging":9647,"ENER":9648,"CHUNK":9649,"Loop":9650,"cir":9651,"ĠStrict":9652,"CFAllocator":9653,"telegram":9654,"Ġdetector":9655,"AltName":9656,"\"',":9657,"Visual":9658,"ZIP":9659,"mro":9660,"nsp":9661,"à½":9662,"ĳ'),<":9663,"arator":9664,"expon":9665,"Ġeagers":9666,"Ġsec":9667,"moduleOr":9668,"Tokenizer":9669,"Ġinfos":9670,"RequestError":9671,"ÙħÙĬ":9672,"Ġskipped":9673,"(\".\",":9674,"ï½¡":9675,"ðĿħ¥":9676,"moduleOrReq":9677,",),":9678,"sandbox":9679,"Ġ'âĪ":9680,"ars":9681,"edata":9682,"Ġcost":9683,"ignored":9684,"Ġlarge":9685,"groupdict":9686,"ĠRequires":9687,"Ġcollection":9688,"ivity":9689,"sendMessage":9690,"Ġboth":9691,"scribe":9692,"ĠDefault":9693,"probs":9694,"Couldn":9695,"ĠDESTROYERbot":9696,"ĠCOSMICbot":9697,"ãħ¤":9698,"compilers":9699,"ĠFormatControl":9700,"âķ±âķ±":9701,"0123456789":9702,"'',":9703,"840":9704,"Bold":9705,"broken":9706,"Î´":9707,"Ïħ":9708,"ç¥":9709,"umask":9710,"000016":9711,"120":9712,"Ġattrname":9713,"ĠContext":9714,"Ġdelta":9715,"ĠstartTagHtml":9716,"extracted":9717,"theta":9718,"subtypeSpec":9719,"Ab":9720,"BZ":9721,"[%":9722,"beta":9723,"ei":9724,"retrieve":9725,"resiz":9726,"oscript":9727,"Ġvendor":9728,"INDEX":9729,"ĠAN":9730,"ENABLE":9731,"Ġspecification":9732,"ĠinfosetFilter":9733,"Groups":9734,"DISTRIBUT":9735,"MSG":9736,"caron":9737,"tagFormatConstructed":9738,"SUFFIXES":9739,"Choice":9740,"''.":9741,"RU":9742,"ttf":9743,"Ġcap":9744,"lip":9745,"Ġub":9746,"Ġuow":9747,"precedence":9748,"Ġpycompile":9749,"Ġitervalues":9750,"ĠGN":9751,"igned":9752,"Ġsoft":9753,"signature":9754,"approx":9755,"LessThan":9756,"ĠServer":9757,"Ġsongs":9758,"039":9759,"hist":9760,"want":9761,"Ġ\",<":9762,"Ġreader":9763,"Ġtl":9764,"Ġbook":9765,"Ġlatest":9766,"2019":9767,"acr":9768,"ĠNORMAL":9769,"succ":9770,"Ġ\".\"":9771,"777":9772,"HeaderDict":9773,"Î½":9774,"information":9775,"Ġrec":9776,"ingSet":9777,"Ġnotdone":9778,"optgroup":9779,"ĠNull":9780,")))":9781,"ongo":9782,"cycle":9783,"Ġtelethn":9784,"Ġbackground":9785,"ĠInvalidWheelFilename":9786,"separated":9787,"STICKER":9788,"Ġcommit":9789,"ðŁļĥ":9790,"surrogate":9791,"ENCODING":9792,"AG":9793,"break":9794,"ossible":9795,"sync":9796,"inHead":9797,"detail":9798,"Ġdefined":9799,"Ġcat":9800,"applicable":9801,"ĠPep":9802,"outname":9803,"ĠAR":9804,"reqts":9805,"ĠBoolean":9806,"reek":9807,"elem":9808,"ĠHTTPConnection":9809,"ASES":9810,"Ġframeset":9811,"INTERPRE":9812,"STRUCT":9813,"OpenState":9814,"Iterator":9815,"ĠComment":9816,"RightArrow":9817,"Ġissub":9818,"ForeignAttributes":9819,"SignState":9820,"LessThanSignState":9821,"EU":9822,"Mock":9823,"Sa":9824,"bon":9825,"jk":9826,"ycle":9827,"å¹":9828,"Ġemoji":9829,"onic":9830,"Ġ'?":9831,"transport":9832,"pymalloc":9833,"locate":9834,"Ġendpoint":9835,"skipped":9836,"Accept":9837,"Ġpkgs":9838,"INTERPRETER":9839,"kv":9840,"promote":9841,"Ø²":9842,"uro":9843,"uting":9844,"urlfetch":9845,"agate":9846,"lendar":9847,"Ġequal":9848,"Exists":9849,"ANCE":9850,"Collect":9851,"GetTypeID":9852,"Ġinterp":9853,"originalPhase":9854,"PoolError":9855,"GOO":9856,"ĠHashes":9857,"COMMAND":9858,"ĠSOCKS":9859,"Ġwindll":9860,"FREQ":9861,"MY":9862,"Schema":9863,"inet":9864,"Ġ'â":9865,"Ġpower":9866,"Ġpablo":9867,"Ġinplace":9868,"updates":9869,"urljoin":9870,"ayment":9871,"Ġprec":9872,"ĠWHEEL":9873,"ĠGB":9874,"Comparison":9875,"records":9876,"keras":9877,"ĠStart":9878,"Mixed":9879,"Ġmultiply":9880,"modifier":9881,"snap":9882,"DISTRIBUTION":9883,"(~":9884,"Ã§":9885,"Ġ\"~":9886,"('__":9887,"attrName":9888,"()])<":9889,"115":9890,"cessing":9891,"take":9892,"2014":9893,"MEDI":9894,"USERNAME":9895,"Ġnamedtuple":9896,"gradient":9897,"CFDictionary":9898,"IPV":9899,"IFEST":9900,"samefile":9901,")(*":9902,"Ð·":9903,"è¯":9904,"ĠRLock":9905,"Ġpipe":9906,"ctime":9907,"ceil":9908,"Trav":9909,"ableString":9910,"locn":9911,"acing":9912,"ĠTypeVar":9913,"Parameter":9914,"Ġmentions":9915,"Ġdifferent":9916,"Ġexclusions":9917,"ĠStrictVersion":9918,"+',":9919,"Bad":9920,"NormalizedName":9921,"aisy":9922,"bul":9923,"fake":9924,"ga":9925,"pull":9926,"rem":9927,"Ġmar":9928,"unsqueeze":9929,"Ġ[_":9930,"Ġ[])":9931,"ĠCSV":9932,"ONLY":9933,"Ġkeywords":9934,"byref":9935,"Ġshuffle":9936,"ĠDistutilsArg":9937,"PICAL":9938,"ĠsizePolicy":9939,"('/',":9940,"â¬ľâ¬ľâ¬ľ":9941,"TYPICAL":9942,"ValidationError":9943,"ĠDistutilsArgError":9944,")}<":9945,"]'<":9946,"uv":9947,"requ":9948,"elf":9949,"Ġmtime":9950,"unseen":9951,"pref":9952,"Ġmeth":9953,"acer":9954,"locked":9955,"Ġiterkeys":9956,"Ġaddr":9957,"âľħ":9958,"REQUEST":9959,"ĠSTART":9960,"ĠCustomFilters":9961,"BigAutoField":9962,"Ġ|$)(.*)\",":9963,"UNICODE":9964,"Dot":9965,"SESSION":9966,"pot":9967,"Ġfig":9968,"unsplit":9969,"setFont":9970,"bucket":9971,"[\"_":9972,"Ġtrying":9973,"Ġ224":9974,"Ġlmao":9975,"typ":9976,"Ġbases":9977,"Ġmaxlen":9978,"Ġcompletion":9979,"copyright":9980,"Ġformatter":9981,"Ġprice":9982,"tgcalls":9983,"(\"-\",":9984,"Ġgreenlet":9985,"Circ":9986,"MUTE":9987,"`.":9988,"ru":9989,"ryption":9990,"102":9991,"123":9992,"ATED":9993,"ĠWOLVES":9994,"ĠUninstall":9995,"LIC":9996,"CONF":9997,"ddd":9998,"ĠDEMONS":9999,"WindowsSdkDir":10000,"writing":10001,"Ġslots":10002,"bootstrap":10003,"Ġhours":10004,"\\*":10005,"nx":10006,"ÑĪ":10007,"Ġ\"\"":10008,"anon":10009,"otonic":10010,"getsize":10011,"urly":10012,"isol":10013,"preference":10014,"outdated":10015,"Ġpresent":10016,"1128":10017,"checked":10018,"launcher":10019,"LEFT":10020,"ADMIN":10021,"iterables":10022,"âĹ¼ï¸ıâĹ¼ï¸ıâĹ¼ï¸ıâĹ¼ï¸ıâĹ¼ï¸ı":10023,"{})\".":10024,"BINARY":10025,"BRACKET":10026,"ILS":10027,"night":10028,"ÏĪ":10029,"å®":10030,"uristic":10031,"Ġnpath":10032,"Ġmost":10033,"(\";":10034,"policy":10035,"ĠSup":10036,"Ġlater":10037,"Std":10038,"checkout":10039,"tpu":10040,"Ġsubstrate":10041,"chunkOffset":10042,"Callback":10043,"ĠLinkError":10044,"early":10045,"ProcessError":10046,"('-',":10047,"Ġswig":10048,"________":10049,"Ġmodified":10050,"ProductName":10051,"period":10052,"today":10053,"ercions":10054,"DRIVE":10055,".'":10056,"Blue":10057,"CUT":10058,"Folder":10059,"microsoft":10060,"Ġ'|":10061,"Ġ'['":10062,"ality":10063,"Ġreward":10064,"allfiles":10065,"ĠasKeyword":10066,"backup":10067,"Ġxrange":10068,"erring":10069,"Ġforms":10070,"firstMatch":10071,"Equals":10072,"Ġchannels":10073,"pkcs":10074,"Ġalpha":10075,"ĠInternal":10076,"InstallationCandidate":10077,"\"(":10078,"874":10079,"ÉĻ":10080,"Ġ'^":10081,"urse":10082,"quences":10083,"ĠPAT":10084,"initChars":10085,"ĠAfter":10086,"ĠFROM":10087,"HTM":10088,"Ġcols":10089,"555":10090,"localhost":10091,"Ġatt":10092,"datasets":10093,"CountEqual":10094,"\\\"\"":10095,"Instance":10096,"é»ĳ":10097,"MultipleMatch":10098,"Traversal":10099,"firstMatchChar":10100,"100000":10101,"Space":10102,"]',":10103,"hide":10104,"Ëĺ":10105,"à¨":10106,"å¼":10107,"Ĥ'),<":10108,"ķ'),<":10109,"erred":10110,"Ġflood":10111,"',)<":10112,"Ġnight":10113,"dirpath":10114,"intosh":10115,"Ġheroku":10116,"igu":10117,"ĠPhase":10118,"xFAD":10119,"1080":10120,"Ġgive":10121,"1255":10122,"ĠIS":10123,"))).":10124,"special":10125,"Predicate":10126,"Ġrights":10127,"Quotes":10128,"bzr":10129,"ï¾Ł":10130,"CYAN":10131,"Preparer":10132,"mg":10133,"}&":10134,"}').":10135,"Ġ97":10136,"deletion":10137,"Ġmixed":10138,"setItem":10139,"ĠCre":10140,"REMO":10141,"Ġkeystone":10142,"ĠNormalizedName":10143,"Delete":10144,"vertices":10145,"ragged":10146,"Specify":10147,"ĠDirectory":10148,"Authentication":10149,"eofs":10150,"Checking":10151,"ĠFEDS":10152,"Ġreferring":10153,"\\\"%":10154,"Ġ':'":10155,"vector":10156,"ALLOWED":10157,"Align":10158,"'-":10159,"BRE":10160,"MIME":10161,"XDG":10162,"zil":10163,"ĠValue":10164,"Ġvia":10165,"union":10166,"urlunparse":10167,"respon":10168,"Ġstark":10169,"RES":10170,"ĠBLOCK":10171,"ĠFinalBalance":10172,"Ġanother":10173,"ĠCount":10174,"Ġstates":10175,"realm":10176,"bytecode":10177,"ĠInputState":10178,"Features":10179,"}](":10180,"ÑĨ":10181,"Ġstick":10182,"ics":10183,"Ġmenu":10184,"Ġ'.'<":10185,"999":10186,"ĠCoords":10187,"Ġtargets":10188,"EEB":10189,"ĠCOM":10190,"Ġmkpath":10191,"CURRENT":10192,"GBAN":10193,"TARGET":10194,"]],<":10195,"aug":10196,"sider":10197,"Î¿":10198,"ÏĦ":10199,"learning":10200,"listing":10201,"105":10202,"ĠTIGERS":10203,"Ġseek":10204,"ĠIndex":10205,"âĸĦ":10206,"DOT":10207,"DataFrame":10208,"insertText":10209,"(?:%(":10210,"COLOR":10211,"ðŁĶµðŁĶµ":10212,"ï¾ī":10213,"ĠIgnored":10214,"Noscript":10215,"Tool":10216,"Vert":10217,"gre":10218,"gan":10219,"since":10220,"Î¾":10221,"Ġrect":10222,"Ġnested":10223,"Ġbf":10224,"doct":10225,"Exp":10226,"Ins":10227,"ATOR":10228,"Ġoutname":10229,"Com":10230,"333":10231,"defaultNamespace":10232,"Ġ404":10233,"Implied":10234,"EndTags":10235,"Sequential":10236,"ĠprocessSpaceCharacters":10237,"asciiUpper":10238,"[^\\":10239,"Ġnsmatch":10240,"iddenText":10241,"ĠtreeType":10242,"Ġpeople":10243,"stubs":10244,"preferred":10245,"CurrentToken":10246,"Ġmanylinux":10247,"discard":10248,"solidus":10249,"ImpliedEndTags":10250,"LPAREN":10251,"OLS":10252,"][-":10253,"classifier":10254,"ffff":10255,"blit":10256,"retch":10257,"Preferences":10258,"Ġpeer":10259,"Ġcriteria":10260,"Ġqueues":10261,"concatenate":10262,"consistent":10263,"OctetString":10264,"Mutable":10265,"Magic":10266,"QFont":10267,"security":10268,"inject":10269,"dependent":10270,"rough":10271,"Ġhits":10272,"__(**":10273,"():]<":10274,"ĠattrName":10275,"ĠGot":10276,"ELFCLASS":10277,"Ġconfigure":10278,"ĠHA":10279,"):]<":10280,"]+))":10281,"Ġ'_')<":10282,"clauses":10283,"Ġblank":10284,"ĠRequests":10285,"BYTE":10286,"ĠEXT":10287,"LEGACY":10288,"frica":10289,"WELCO":10290,"Ġissubclass":10291,"\"[{":10292,"Driver":10293,"WOR":10294,"hk":10295,"mag":10296,"mysql":10297,"memes":10298,"utures":10299,"strg":10300,"Errors":10301,"ifo":10302,"ĠSo":10303,"spam":10304,"company":10305,"Ġprov":10306,"Ġchrome":10307,"administrator":10308,"ĠGener":10309,"rength":10310,"\"\\\\":10311,"Ġapply":10312,"Ġ(.*)\",":10313,"BasicAuthHandler":10314,"Removed":10315,"ASS":10316,"BM":10317,"BUND":10318,"Enc":10319,"GIN":10320,"Sm":10321,"Tar":10322,"pur":10323,"}({":10324,"semi":10325,"student":10326,"Ġrepresent":10327,"Ġciphers":10328,"Ġmiddle":10329,"(\"=":10330,"provided":10331,"completion":10332,"Ġnumbers":10333,"Ġparameter":10334,"Ġ'/'<":10335,"Ġlibdir":10336,"triangle":10337,"uplicates":10338,"ADDR":10339,"Obsoletes":10340,"){":10341,"AU":10342,"Ciphers":10343,"ImportError":10344,"Menu":10345,"yaml":10346,"deep":10347,"delim":10348,"Ġnsp":10349,"getframe":10350,"(\"[\"":10351,"Ġrkp":10352,"ĠPK":10353,"csidl":10354,"Ġ70":10355,"...`\")<":10356,"(\".\"):<":10357,"Methods":10358,"Ġpreds":10359,"SKIP":10360,"Interface":10361,"Ġsettypeblacklist":10362,"AMP":10363,"Cipher":10364,"NONE":10365,"Pair":10366,"QTableWidget":10367,"Ġqual":10368,"restart":10369,"Ġ\").":10370,"Ġturn":10371,"utdown":10372,"ador":10373,"Ġmapped":10374,"(\"**":10375,"urlpatterns":10376,"does":10377,"tolist":10378,"1257":10379,"Ġpypi":10380,"Ġ):":10381,"Ġcodepoint":10382,"Buttons":10383,"editables":10384,"Ġclick":10385,"REQUIREMENT":10386,"planes":10387,"Tele":10388,"\\((":10389,"raries":10390,"åĮ":10391,"Ġpm":10392,"Ġbbox":10393,"Ġ\"\\\"":10394,"ĠCode":10395,"Ġkeyfile":10396,"ĠFed":10397,"orean":10398,"specified":10399,"compiled":10400,"dbm":10401,"CTW":10402,"Ġ['-":10403,"ToRe":10404,"InstallationError":10405,"SecCertificate":10406,"SecKeychain":10407,"showwarning":10408,"raises":10409,"ĠImageFont":10410,"ĠUnicodeEncodeError":10411,"Ġidentity":10412,"confstr":10413,"ConsoleScreen":10414,"BufferInfo":10415,"ĠEUCTW":10416,"rotli":10417,"dwCursorPosition":10418,"ĠNewConnectionError":10419,"PHAN":10420,"ConsoleScreenBufferInfo":10421,"'ãĢ":10422,"70000":10423,"Ke":10424,"Make":10425,"UB":10426,"hes":10427,"ios":10428,"tick":10429,"âŀ":10430,"å»":10431,"idna":10432,"(\":":10433,"Ġ*{}*":10434,"vie":10435,"Ġvoid":10436,"ĠUFD":10437,"Ġthreshold":10438,"))?":10439,"clients":10440,"Ġjsonify":10441,"ãĤ¤":10442,"failure":10443,"namedtuple":10444,"Remove":10445,"EXTRAS":10446,"Summary":10447,"lifetime":10448,"doctests":10449,"Egg":10450,"dark":10451,"eue":10452,"kCFType":10453,"arative":10454,"cover":10455,"__))<":10456,"Ġcar":10457,"Ġclosing":10458,"quad":10459,"Recursive":10460,"ĠgetLogger":10461,"Ġvol":10462,"Ġmaster":10463,"splitdrive":10464,"ĠBe":10465,"\"./":10466,"HTTPS":10467,"disposition":10468,"Ġfinish":10469,"\\\\]|":10470,"ĠlookupEncoding":10471,"pushbutton":10472,"PyPI":10473,"gztar":10474,"PasswordValidator":10475,"plugins":10476,"30003":10477,"Ġaiohttp":10478,"ĠCallbackQueryHandler":10479,"PHANUM":10480,".`\")<":10481,"CmdHelp":10482,"Operator":10483,"iloc":10484,"zlib":10485,"ÐĶ":10486,"outer":10487,"203":10488,"âĸĵ":10489,"Setting":10490,"Undefined":10491,"mkdtemp":10492,"WSGI":10493,"Ġipaddress":10494,"ISTORY":10495,"Grammar":10496,"Ġlauncher":10497,"unicate":10498,"ĠNetworkConnectionError":10499,"ĠCOMMENT":10500,")._":10501,"264":10502,"Lines":10503,"Mon":10504,"bslash":10505,"kref":10506,"pitem":10507,"you":10508,"ĠQuotedString":10509,"inx":10510,"ropped":10511,"Ġfreshness":10512,"peater":10513,"upcaseTokens":10514,"unban":10515,"Ġwkref":10516,"ErrorStop":10517,"asepitem":10518,"Ġcookielib":10519,"stringloc":10520,"Ġlazy":10521,"NameList":10522,"ashComment":10523,"dictvalue":10524,"shi":10525,"HTMLTags":10526,"Ġnewself":10527,"ĠmatchOrder":10528,"opAssoc":10529,"ĠmaxMismatches":10530,"LEntity":10531,"Ġendloc":10532,"TokenToRe":10533,"Ġaname":10534,"FAIL":10535,"ĠParseSyntaxException":10536,"ĠUnauthorized":10537,"ĠcallDuringTry":10538,"ĠstringEnd":10539,"ĠstringStart":10540,"postrelease":10541,"bodyChars":10542,"skipIgnor":10543,"Ġupdater":10544,"commasepitem":10545,"Ġtmptokens":10546,"Builtins":10547,"\\\\(?:[^":10548,"Matched":10549,"ĠVisual":10550,"Ġpermitted":10551,"AsStr":10552,"ĠconvertTo":10553,"WhitespaceEscape":10554,"Ġcvt":10555,"webdriver":10556,"ĠBadCommand":10557,"depends":10558,"ArgBuiltins":10559,"Ġcontainer":10560,"ĠoriginalTextFor":10561,"StreamHandler":10562,"ĠexprsFound":10563,"singleChar":10564,"cmpkey":10565,"ĠCaselessLiteral":10566,"ĠsingleArgBuiltins":10567,"CFTypeRef":10568,"SlashComment":10569,"|(?:\\\\(?:[^":10570,"piece":10571,"ĠleaveWhitespace":10572,"ĠtagAttrValue":10573,"Failure":10574,"StatementExpr":10575,"ĠMatchFirst":10576,"HTMLEntity":10577,"zilla":10578,"]+)))*":10579,"\\\\]|(?:":10580,"GrammarException":10581,"TokenToRepeater":10582,"skipIgnorables":10583,"WhitespaceEscapes":10584,"'(\\":10585,"*$\",":10586,"FM":10587,"everse":10588,"pd":10589,"rr":10590,"æī":10591,"Ġ),":10592,"Ġtgt":10593,"Ġnargs":10594,"etags":10595,"formed":10596,"zipimport":10597,"Ġ56":10598,"Ġarea":10599,"Ġ\"'\":<":10600,"URATION":10601,"Codec":10602,"Detector":10603,"approve":10604,"Federation":10605,"everseen":10606,"License":10607,"sampler":10608,"strong":10609,"continue":10610,"Ġloaded":10611,"Ġordered":10612,"addWidget":10613,"Ġvault":10614,"Ġ\"<\",":10615,"ĠInsecure":10616,"eye":10617,"VersionString":10618,"Ġpyver":10619,"communicate":10620,"Ġdfweekdata":10621,"Creating":10622,"multiplier":10623,"ðŁĶ´ðŁĶ´":10624,"cookiejar":10625,"Libraries":10626,"Layer":10627,"Media":10628,"ĠConnectionError":10629,"Maintenance":10630,"aisyX":10631,">[":10632,"SY":10633,"eled":10634,"horizontal":10635,"Ġ!":10636,"ropy":10637,"Ġtwo":10638,"advance":10639,"Ġcomb":10640,"()[-":10641,"outfiles":10642,"timedelta":10643,"ĠBUT":10644,"statefile":10645,"alledProcessError":10646,"ĠHt":10647,"Ġ\"%(":10648,"Ġattention":10649,"ãĤ¯":10650,"SUDO":10651,"Ġblue":10652,"Ġipv":10653,"Ġseparator":10654,"Ġproductdir":10655,"\"}:<":10656,"å¾®":10657,"Integration":10658,"Radiobutton":10659,"CLIENT":10660,"Yes":10661,"koi":10662,"pw":10663,"mens":10664,"Ġtile":10665,"Ġtho":10666,"Ġmute":10667,"ĠPool":10668,"minal":10669,"ansi":10670,"Ġonerror":10671,"slug":10672,"NotRegex":10673,"Ġserial":10674,"Matching":10675,"Ġadapt":10676,"signed":10677,"pkgs":10678,"SequenceOf":10679,"ĠCONFIG":10680,"Ġmetrics":10681,"Triangle":10682,"%\\":10683,"280":10684,"2000":10685,"30000":10686,"5000001":10687,"ti":10688,"áĩ":10689,"inations":10690,"stre":10691,"strength":10692,"Ġ'@":10693,"Ġ'[":10694,"arwin":10695,"Ġ\";":10696,"Ġts":10697,"covered":10698,"Ġcore":10699,"ĠScript":10700,"Ġder":10701,"107":10702,"='')<":10703,"ĠNOT":10704,"000002":10705,"assertIs":10706,"xFCD":10707,"xFCE":10708,"xFAC":10709,"xFDB":10710,"PPRESS":10711,"})\".":10712,"ĠInvalidURL":10713,"fetchall":10714,"ĠJSON":10715,"AFK":10716,"Ġphases":10717,"ĠINST":10718,"Ġassoci":10719,"morsel":10720,"WELCOME":10721,"\"\".":10722,"Hi":10723,"Host":10724,"Supported":10725,"Ġvirtualenv":10726,"Ġrem":10727,"Ġreinit":10728,"Ġ())<":10729,"distribut":10730,"pools":10731,"ĠPar":10732,"fixer":10733,"170":10734,"âĸ½":10735,"Ġresources":10736,"Ġwarned":10737,"unittest":10738,"Ġleftmost":10739,"Ġalphanums":10740,"ĠWheelCache":10741,"CESS":10742,"oin":10743,"åľ":10744,"ĠQueue":10745,"lef":10746,"Ġ\"\")":10747,"Ġpw":10748,"getroot":10749,"islice":10750,"ĠCan":10751,"ternal":10752,"Ġlongest":10753,"Ġdistance":10754,"subpath":10755,"Log":10756,"Ġcompute":10757,"disk":10758,"sqltypes":10759,"Ġ','.":10760,"indentation":10761,"Ġpady":10762,"Ġtracker":10763,"Support":10764,"ĠConfigurationError":10765,"ĠPATH":10766,"PAR":10767,"_):<":10768,"jam":10769,"rfind":10770,"mesh":10771,"cek":10772,"vals":10773,"Ġlooks":10774,"103":10775,"000030":10776,"Ġvlist":10777,"Ġvocab":10778,"Ġprofile":10779,"ATTR":10780,"shuffle":10781,"parsers":10782,"SECU":10783,"ĠcharAsInt":10784,"cient":10785,"AttributeNameState":10786,"encodeStrict":10787,"ĠHiddenText":10788,"pied":10789,"ToTable":10790,"DEFAULTUSER":10791,"StackToTable":10792,"Ġheading":10793,"Already":10794,"generateImpliedEndTags":10795,"Ġxmlrpc":10796,"FEDERATION":10797,"ĠUnsupportedVersionError":10798,"triggers":10799,"accounts":10800,"MANIFEST":10801,"better":10802,"FLOAT":10803,"ProgramFiles":10804,"IZED":10805,"emitCurrentToken":10806,"IntegrationPoint":10807,"CL":10808,"RAN":10809,"cer":10810,"Ñħ":10811,"Ġve":10812,"develop":10813,"Ġtek":10814,"Ġpi":10815,"Ġpure":10816,"cost":10817,"olf":10818,"Ġ150":10819,"Insert":10820,"246":10821,"Ġ75":10822,"âĢ¿":10823,"ategories":10824,"abcdef":10825,"MAGENTA":10826,"SECURE":10827,">>":10828,"AV":10829,"~~":10830,"Ã¼":10831,"çĪ":10832,"Ġquestion":10833,"incoming":10834,"atives":10835,"isode":10836,"formatted":10837,"compressed":10838,"ĠUTF":10839,"ESE":10840,"ENG":10841,"ops":10842,"ĠEvent":10843,"Units":10844,"404":10845,"implies":10846,"Ġsubtype":10847,"psis":10848,"syn":10849,"ĠÐ½":10850,"ĠðŁĺ":10851,"}:{":10852,"LocalType":10853,"PostDev":10854,"PostDevType":10855,".\"),<":10856,"browser":10857,"mixed":10858,"å½":10859,"eng":10860,"router":10861,"('(":10862,"acking":10863,"iglob":10864,"ĠSkip":10865,"ffered":10866,"Ġgnu":10867,"omatic":10868,"([\\":10869,"aken":10870,"radient":10871,"interactive":10872,"chedule":10873,"InvalidRequestError":10874,"Ġ320":10875,"Ġsignal":10876,"ĠHTMLParser":10877,"SUBSCRI":10878,"BatchNorm":10879,"StdHandle":10880,")+\"":10881,"=='":10882,"AP":10883,"IZE":10884,"Random":10885,"Vis":10886,"dr":10887,"vgg":10888,"atabase":10889,"Ġtre":10890,"expi":10891,"cha":10892,"Ġ[-":10893,"redact":10894,"Ġtimezone":10895,"Ġonce":10896,"Ġencodings":10897,"Ġabc":10898,"ĠHTTPHeaderDict":10899,"ĠMessageEntity":10900,"globs":10901,"ĠAppEngine":10902,"CreateModel":10903,"à·Ĭ":10904,"Ġmimetypes":10905,"EMP":10906,"Ġage":10907,"exclus":10908,"eline":10909,"__[":10910,"(\"</":10911,"External":10912,"timezone":10913,"argetPython":10914,"ARD":10915,"LEASE":10916,"velib":10917,"ĠnamespaceHTMLElements":10918,"mirror":10919,"Ġweakref":10920,"resolvelib":10921,"Ġ\"/\":<":10922,"Dirs":10923,"ĉĉĉĉĉĉĉĉĉĉ":10924,"Ġspam":10925,"Ġmasks":10926,"ĠYoutube":10927,"Ġtrusted":10928,"Ġthumbnail":10929,"HEROKU":10930,"Weight":10931,"*(":10932,"*([":10933,";\\":10934,"@{":10935,"gy":10936,"anish":10937,"Ġtell":10938,"Ġmid":10939,"Ġ19":10940,"article":10941,"()[:":10942,"osname":10943,"Ġlistener":10944,"disconnect":10945,"viders":10946,"ĠVCS":10947,"âķ¯":10948,"GetStdHandle":10949,"ERRORS":10950,"Ġgeneric":10951,"FBF":10952,"signal":10953,"EXPORT":10954,"Ġproblems":10955,"Graph":10956,"ĠPyPIRCCommand":10957,"BLACKLISTS":10958,"Collector":10959,"GN":10960,"Has":10961,"aes":10962,"guest":10963,"nanoseconds":10964,"âĮ":10965,"Ġaverage":10966,"ĠDB":10967,"Ġvstring":10968,"Ġcapt":10969,"ãĥª":10970,"hasattr":10971,"ĠColor":10972,"Ġqeue":10973,"rmdir":10974,"softmax":10975,"OpenKeyEx":10976,"urope":10977,"Pipe":10978,"_\"":10979,"gar":10980,"ire":10981,"èĩ":10982,"Ġ120":10983,"Export":10984,"Ġdrive":10985,"nova":10986,"Ġsecret":10987,"imated":10988,"Ġopener":10989,"Ġ:]<":10990,"IDTH":10991,"avig":10992,"moving":10993,"returning":10994,"Ġneeded":10995,"SecIdentity":10996,"facebook":10997,"agents":10998,"ĠCFIndex":10999,"ĠINSERTION":11000,"Ġmerged":11001,"ĠÍ¡":11002,"goodbye":11003,"390":11004,"TG":11005,"ja":11006,"æµ":11007,"Ġps":11008,"(\"^":11009,"Ġrate":11010,"ĠSp":11011,"Incremental":11012,"readonly":11013,"ĠBroken":11014,"optElements":11015,"aker":11016,"Deleting":11017,"Ġnumero":11018,"Ġroll":11019,"ĠcharsAsStr":11020,"CREEN":11021,"discord":11022,"Ġrandint":11023,"ĠTOML":11024,"ĠSystemExit":11025,"ĠEXTENSION":11026,"*:":11027,"Xml":11028,"à²":11029,"å¯":11030,"erature":11031,"stemp":11032,"alg":11033,"Ġtls":11034,"Ġfast":11035,"oti":11036,"('{}":11037,"Ġafk":11038,"lenge":11039,"inition":11040,"ONT":11041,"ĠIMP":11042,"ENO":11043,"Ġcomplete":11044,"Distributions":11045,"Ġcertificates":11046,"Ġimplement":11047,"Pointer":11048,"```":11049,"ÑĤÐµ":11050,"modify":11051,"normalizer":11052,"surface":11053,"ĠConnectTimeoutError":11054,"éĽħ":11055,"creds":11056,"è½¯":11057,"MagicMock":11058,"+)?":11059,".'.":11060,"Ð³":11061,"removed":11062,"Ġrewind":11063,"ĠSelection":11064,"pytgcalls":11065,"['_":11066,"locity":11067,"Ġgit":11068,"Ġyet":11069,"Condition":11070,"Container":11071,"anner":11072,"Ġalgo":11073,"Project":11074,"ĠUnknown":11075,"ĠðŁĳ":11076,"Ð¾Ð²":11077,"symlinks":11078,"equiv":11079,"Ġinterpret":11080,"aisyXMusic":11081,"SUBSCRIBER":11082,"'},<":11083,".`\",<":11084,"Bo":11085,"Go":11086,"Must":11087,"å±":11088,"Ġanswers":11089,"lent":11090,"alpn":11091,"lobj":11092,"Ġinception":11093,"sslobj":11094,"Ġbboxes":11095,"unset":11096,"Ġcoercions":11097,"utilities":11098,"trailing":11099,"errupt":11100,"runTests":11101,"cipe":11102,"5280":11103,"Ġzipimport":11104,"ĠRequirementSet":11105,"ĠIPV":11106,"completeRead":11107,"ĠPrePostDevType":11108,"Ġmkdir":11109,"ĠDownloadProgress":11110,"pfx":11111,"â¬Ľâ¬Ľâ¬Ľ\\":11112,"exponential":11113,"ðŁļĥðŁļĥ":11114,"å¾®è½¯":11115,"éĽħé»ĳ":11116,"å¾®è½¯éĽħé»ĳ":11117,"ACK":11118,"FP":11119,"mix":11120,"riday":11121,"Ġ94":11122,"Ġ''),<":11123,"aside":11124,"Ġble":11125,"ects":11126,"148":11127,"231":11128,"LOGS":11129,"manent":11130,"Ġimpl":11131,"tarball":11132,"0000001":11133,"Ġxmlcharref":11134,"satisfy":11135,"Ġ'{}'":11136,"Print":11137,"iguous":11138,"\"[":11139,"*\"":11140,"/')<":11141,"BRIGHT":11142,"Obj":11143,"bbox":11144,"freeze":11145,"Ñİ":11146,"à¼":11147,"çļ":11148,"otion":11149,"illegal":11150,"fileobject":11151,"emon":11152,"joint":11153,"caches":11154,"Commands":11155,"Asn":11156,"gbk":11157,"ird":11158,"lmno":11159,"Closed":11160,"(\"'%":11161,"Ġcreds":11162,"ĠHttp":11163,"'\")<":11164,"BIT":11165,"Emo":11166,"æ¯":11167,"erset":11168,"Ġ'..":11169,"Ġinfile":11170,"Ġsim":11171,"Ġmicro":11172,"unsafe":11173,"xFFFFF":11174,"ĠDaisyXMusic":11175,"Ġ22":11176,"REAM":11177,"Ġbuiltins":11178,"Dialect":11179,"ĠEM":11180,"ĠContainer":11181,"768":11182,"\\\\\\":11183,"ĠIDENTIFIER":11184,"universal":11185,"xEF":11186,"Ġmonotonic":11187,"Member":11188,"Bin":11189,"Flag":11190,"Global":11191,"kCFAllocator":11192,"ned":11193,"Ġ\"\",<":11194,"urtle":11195,"itize":11196,"gered":11197,"Ġbom":11198,"Ġuntil":11199,"ĠCLEAN":11200,"charEncoding":11201,"Ġ655":11202,"minus":11203,"Ġsubdir":11204,"poolmanager":11205,"RICT":11206,"Backend":11207,"}|{":11208,"ĠsubtypeSpec":11209,"kCFAllocatorDefault":11210,"=\"<":11211,"QSizePolicy":11212,"]-":11213,"å°":11214,"inion":11215,"inspect":11216,"anscript":11217,"Ġpurl":11218,"Ġrule":11219,"Information":11220,"usl":11221,"320":11222,"Ġender":11223,"0000011":11224,"âĹ¼ï¸ıâĹ¼ï¸ı\\":11225,"Ġcurrentlevel":11226,"when":11227,"xFDF":11228,"ĠVcs":11229,"Ġadministrators":11230,"RIV":11231,"domains":11232,"CUST":11233,"Ġ\"[%":11234,"ĠAsync":11235,"packratEnabled":11236,"\">":11237,",'),<":11238,",('":11239,"VO":11240,"`\\<":11241,"ln":11242,"will":11243,"Ñĸ":11244,"è¡":11245,"ini":11246,"Ġfactor":11247,"cknowled":11248,"Ġbold":11249,"filedialog":11250,"ggle":11251,"ĠMock":11252,"plits":11253,"Ġ36":11254,"ĠEL":11255,"xFCA":11256,"xFCB":11257,"xFCC":11258,"xFCF":11259,"EEA":11260,"xFFB":11261,"xFFE":11262,"nodeType":11263,"xFAA":11264,"xFDA":11265,"Ġabstract":11266,"ØŃÙĬ":11267,"Ø¬Ùħ":11268,"xABB":11269,"ãĢķ'),<":11270,"Ġaccuracy":11271,"Ġ'*(":11272,"SecTrustRef":11273,"à¾·'),<":11274,"autoreset":11275,"ĠProxyError":11276,"nekos":11277,"ðŁİĨðŁİĩðŁİĨðŁİĩ":11278,"Vertical":11279,"'})<":11280,"/\")<":11281,"Acknowled":11282,"gamma":11283,"larr":11284,"rase":11285,"stark":11286,"Ġindices":11287,"peg":11288,"fileop":11289,"docs":11290,"Ġstock":11291,"Ġfileop":11292,"Ġlst":11293,"imgs":11294,"1253":11295,"ĠOut":11296,"started":11297,"Ġxy":11298,"Ġuninstalled":11299,"ĠnewParent":11300,"subnet":11301,"Ġcollected":11302,"csisol":11303,"vertical":11304,"ignoreEndTag":11305,"insertFromTable":11306,"CONSTRUCT":11307,"ĠInstaller":11308,"deredSet":11309,"OUTPUT":11310,"previews":11311,"DoctypePublic":11312,"selfClosingAcknowled":11313,"BASENAME":11314,"ĠvoidElements":11315,"ĠINSTALL":11316,"selfClosingAcknowledged":11317,")['":11318,"011":11319,"1000001":11320,">])<":11321,"\\\",":11322,"bits":11323,"ging":11324,"æħ":11325,"Ġrevision":11326,"anime":11327,"(\"{}":11328,"pathset":11329,"Ġnotes":11330,"Ġ*=":11331,"orders":11332,"minute":11333,"anges":11334,"184":11335,"ĠFancy":11336,"argmax":11337,"Ġcoltype":11338,"ĠHas":11339,"ĠKeyboard":11340,"igram":11341,"Ġconnections":11342,"ĠRequirements":11343,"Temporary":11344,"consumed":11345,"large":11346,"ficult":11347,"Ġpoll":11348,"ĠFancyGetopt":11349,"\"`":11350,"133":11351,">{}":11352,"?:":11353,"FOR":11354,"MutableMapping":11355,"Would":11356,"reraise":11357,"Ġ''}<":11358,"Ġeven":11359,"scroll":11360,"Ġ26":11361,"RELEASE":11362,"Ġxx":11363,"Unit":11364,"participant":11365,"ĠStatus":11366,"equals":11367,"ĠUnicodeText":11368,"virtual":11369,"writable":11370,"AlgorithmIdentifier":11371,"}**":11372,"Ð¹":11373,"ç©":11374,"Ġ'!":11375,"Ġ\">\"":11376,"Ġpush":11377,"__).":11378,"Ġstub":11379,"Studio":11380,"startup":11381,"208":11382,"xAA":11383,"Ġ{}\"":11384,"worker":11385,"ĠConstraint":11386,"Ġ\",\".":11387,"Ġ[]):<":11388,"Checker":11389,"(['--":11390,"Ġpadx":11391,"ĠLocal":11392,"writelines":11393,"typical":11394,"strerror":11395,"dumb":11396,"free":11397,"plist":11398,"uer":11399,"watch":11400,"warmup":11401,"roles":11402,"('[^":11403,"Ġdelay":11404,"Ġgid":11405,"),)<":11406,"185":11407,"Ġker":11408,"ttributes":11409,"ModuleType":11410,"participants":11411,"HEBRE":11412,"ULES":11413,"CMDS":11414,"Ġwebdriver":11415,"Ġexamples":11416,"ĠLibrary":11417,"radius":11418,"HEBREW":11419,"\"[\\":11420,"356":11421,"949":11422,"RPM":11423,"UI":11424,"_)":11425,"mapped":11426,"rd":11427,"tilde":11428,"ÙĢ":11429,"ĠRes":11430,"Ġrename":11431,"Ġpseudo":11432,"ados":11433,"Ġour":11434,"ection":11435,"()),":11436,"ĠLE":11437,"ĠtagSet":11438,"Ġids":11439,"occurrences":11440,"Getting":11441,"Ġextracted":11442,"Ġroles":11443,"pairwise":11444,"Ġgrid":11445,"ĠmajorVersion":11446,"Ġdomains":11447,"startTagHtml":11448,"ĠRegError":11449,"README":11450,"Ġstaticmethod":11451,"Registry":11452,"dynamic":11453,"Ġprecision":11454,"+\",":11455,"Embed":11456,"fusers":11457,"Ġtp":11458,"changing":11459,"ilarity":11460,"(\"!":11461,"Ġelapsed":11462,"Ġhapp":11463,"power":11464,"ĠSM":11465,"Ext":11466,"outgoing":11467,"Ġ23":11468,"ðŁŁ":11469,"Ġunknown":11470,"tokenize":11471,"internet":11472,"Direct":11473,"csrf":11474,"assertCountEqual":11475,"assertNotRegex":11476,"notification":11477,"nothing":11478,"Ġtrue":11479,"ĠUnpack":11480,"graft":11481,"ferred":11482,"ĠPYTHON":11483,"Ġ\">\":":11484,"à´¿":11485,"Ġrelation":11486,"LATES":11487,"ceipt":11488,"LDSHARED":11489,"ĠVERIFY":11490,"VisualStudio":11491,"\\%":11492,"pun":11493,"sli":11494,"Ã¶":11495,"Ð¿":11496,"åĸ":11497,"Ġpub":11498,"lour":11499,"Ġcnt":11500,"truth":11501,"moot":11502,"imread":11503,"STREAM":11504,"ï¸ıâ":11505,"streaming":11506,"Ġcontextmanager":11507,"aves":11508,"ĠImageDraw":11509,"alphanums":11510,"Ð½Ð°":11511,"}`\"<":11512,"ĠquotedString":11513,"similar":11514,"xxxxxxxx":11515,"EntryPoint":11516,"'[+-]?\\":11517,"Minimum":11518,"periment":11519,"CLASSES":11520,"ãħ¤ãħ¤":11521,"ĠInternalTraversal":11522,"*\")<":11523,"DWORD":11524,"History":11525,"YE":11526,"ied":11527,"rfc":11528,"çī":11529,"è«":11530,"Ġ$":11531,"Ġes":11532,"Ġpie":11533,"namelist":11534,"tranges":11535,"ckpt":11536,"wave":11537,"ĠTEL":11538,"moid":11539,"imit":11540,"Ġpreprocess":11541,"ARRAY":11542,"Ġcafile":11543,"ĠHELP":11544,"MAGE":11545,"Ġcertfile":11546,"Ġskipping":11547,"VELOP":11548,"handshake":11549,"externally":11550,"Ġdirective":11551,"simpledialog":11552,"(':')<":11553,"Hello":11554,"WORK":11555,"ENGINE":11556,":){":11557,"CES":11558,"LANG":11559,"olo":11560,"welc":11561,"}%(":11562,"ðł":11563,"met":11564,"Ġbio":11565,"ĠSJIS":11566,"Ġstickers":11567,"ĠPlayer":11568,"Ġgban":11569,"ĠMissing":11570,"ĠFlood":11571,"Ġthen":11572,"))],<":11573,"AttributeError":11574,"AttributeValue":11575,"Ġadding":11576,"ContextAnalysis":11577,"GetConsoleScreenBufferInfo":11578,"Ġtransitional":11579,"games":11580,"ĠLinkCollector":11581,"ĠÐ¿":11582,"IntegerField":11583,"ĠEUCJP":11584,"ĠCustomerAcctBal":11585,"dylib":11586,"ĠMAXSIZE":11587,"RawConfigParser":11588,"ĠCFStringRef":11589,"nspkg":11590,"Ġteks":11591,"ĠTELSA":11592,"/?":11593,"Clean":11594,"Popen":11595,"Sur":11596,"WIDTH":11597,"echo":11598,"{\\":11599,"ority":11600,"Ġ\"$":11601,"Ġown":11602,"isalpha":11603,"Ġdp":11604,"outcome":11605,"itee":11606,"Connect":11607,"!=\":":11608,"ĠFe":11609,"Ġ517":11610,"marks":11611,"segments":11612,"Ġmodname":11613,"WHITELIST":11614,"HelpFormatter":11615,"Ġgoodbye":11616,"fixture":11617,"ĠRemoteNotFoundError":11618,"jklmno":11619,"426":11620,"=(),":11621,"=()):<":11622,"ARE":11623,"Acc":11624,"Dists":11625,"IABLE":11626,"sb":11627,"vendored":11628,"Ãº":11629,"å¥":11630,"spin":11631,"ĠIs":11632,"Ġ34":11633,"submit":11634,"finders":11635,"Ġcapath":11636,"verted":11637,"Ġappdirs":11638,"âĹ¼ï¸ıâĹ¼ï¸ıâĹ¼ï¸ı":11639,"ĠConv":11640,"Ġ/=":11641,"=[]":11642,"Ġinterval":11643,"ðĿļ":11644,"truetype":11645,"ĠBaseSSLError":11646,"capabilities":11647,"Ġcleanup":11648,"â¡Ģ":11649,"ĠSocketTimeout":11650,"HTTPSHandler":11651,"ftp":11652,"follow":11653,"jpeg":11654,"attn":11655,"Ġ\"!=\":":11656,"celer":11657,"etc":11658,"),]<":11659,"Ġenum":11660,"traverse":11661,"Ġbucket":11662,"ixin":11663,"visible":11664,"CACERT":11665,"returncodes":11666,"(\\.\\":11667,"rating":11668,"Ġblocks":11669,"TEMPLATES":11670,"dnsname":11671,"DistutilsPlatformError":11672,"Ġsnip":11673,"Ġ\"==\":":11674,"xrange":11675,"éĢ":11676,"relay":11677,"Ġtz":11678,"Ġflatten":11679,"Ġcrop":11680,"unichr":11681,"Ġwalk":11682,"vict":11683,"parseNo":11684,"Ġ\"<=\":":11685,"188":11686,"ignment":11687,"FileHandler":11688,"PYOPENSSL":11689,"PPER":11690,"Ġattempt":11691,"Ġopinion":11692,"sqlalchemy":11693,"Ġneutron":11694,"tmpnam":11695,"Ġ\">=\":":11696,"ĠStringEnd":11697,"ProtocolVersion":11698,"ĠNegativeInfinityType":11699,"ĠfailureTests":11700,"parseNoCache":11701,"Cl":11702,"ached":11703,"attach":11704,"aliased":11705,"Ġnor":11706,"Ġcflags":11707,"intel":11708,"ĠĠĠĠĠĠĠĠĠĠĠĠĠĠĠĠĠĠĠĠĠĠĠĠĠĠĠĠĠĠĠĠĠĠĠĠĠĠĠĠĠĠĠĠĠĠĠĠĠĠĠĠĠĠĠĠĠĠĠĠĠĠĠĠĠĠĠ":11709,"Ġcondition":11710,"Ġstrs":11711,"sph":11712,"ĠTools":11713,"Ġenough":11714,"distmap":11715,"substit":11716,"ĠreqMac":11717,"Ġsubitem":11718,"ĠUniversal":11719,"Ġindexes":11720,"NamedTuple":11721,"hello":11722,"OKEN":11723,"emojis":11724,"alphabet":11725,"Ġmasked":11726,"ĠAppDirs":11727,"propagate":11728,"ãĥ¼ãĥ":11729,"juju":11730,"Ġemit":11731,"REMOVE":11732,"=':":11733,"Cy":11734,"CString":11735,"Dig":11736,"Mgr":11737,"ffi":11738,"samp":11739,"ÃŃ":11740,"æİ":11741,"asKeyword":11742,"ĠretString":11743,"Ġsilent":11744,"urlunsplit":11745,"Ġ180":11746,"amt":11747,"Ġresnet":11748,"perf":11749,"parseElement":11750,"Ġkeyb":11751,"ĠBu":11752,"ĠBinary":11753,"Ġpytest":11754,"ĠWH":11755,"ĠGoogle":11756,"ĠHTTPException":11757,"explicit":11758,"topic":11759,"Ġtransaction":11760,"tarfile":11761,"Chats":11762,"(\\.":11763,"ĠoneOf":11764,"ĠState":11765,"âĢİðŁĵ¶â¬Ľâ¬Ľ":11766,"selessKeyword":11767,"CreateWith":11768,"havi":11769,"ĠsmExpr":11770,"PasswordMgr":11771,"ĠCONT":11772,"âļ¡":11773,"decorators":11774,"Decimal":11775,"alternate":11776,"publish":11777,"INSTALLED":11778,"QTableWidgetItem":11779,"RIVATE":11780,"980":11781,"How":11782,"RST":11783,"]\"<":11784,"æį":11785,"Ġjob":11786,"excp":11787,"Ġbroadcast":11788,"hem":11789,"urlretrieve":11790,"ffmpeg":11791,"ĠPRE":11792,"heroku":11793,"Ġdistinfo":11794,"Ġ401":11795,"ĠWeb":11796,"Ġminute":11797,"ðŁĮĳ":11798,"HeaderError":11799,"productdir":11800,"ĠLookupError":11801,"Modi":11802,"Mozilla":11803,"restri":11804,"WARE":11805,"ĠAddress":11806,"BUNDLE":11807,"sphinx":11808,"\"(?:":11809,"Darwin":11810,"brew":11811,"Êĸ":11812,"Ú©":11813,"è·":11814,"èĢ":11815,"Ġke":11816,"ĠâĸĴ":11817,"reserved":11818,"Ġcwords":11819,"lick":11820,"Ġnotedata":11821,"Ġgetter":11822,"1130":11823,"ATORS":11824,"ĠBar":11825,"250":11826,"**\",<":11827,"Ġtempo":11828,"dispose":11829,"issues":11830,"Ġperms":11831,"xmlns":11832,"blem":11833,"xBB":11834,"Ġcrit":11835,"ArgumentError":11836,"loyee":11837,":{":11838,"DN":11839,"[@":11840,"eE":11841,"war":11842,"ä¼":11843,"è¾":11844,"lea":11845,"chr":11846,"chrome":11847,"ctrl":11848,"002":11849,"dataloader":11850,"ĠĠĠĠĠĠĠĠĠĠĠĠĠĠĠĠĠĠĠĠĠĠĠĠĠĠĠĠĠĠĠĠĠĠĠĠĠĠĠĠĠĠĠĠĠĠĠĠĠĠĠĠĠĠ":11851,"Ġconverter":11852,"foc":11853,"Ġdecimal":11854,"Ġ\"<\":<":11855,"017":11856,"247":11857,"Ġalert":11858,"Ġstarting":11859,"])[":11860,"ãĥĥ":11861,"refcount":11862,"ãĤ¢":11863,"resolved":11864,"Ġconverted":11865,"paredRequest":11866,"(\",\")":11867,"DLL":11868,"ĠBackend":11869,"MISS":11870,"515":11871,"Many":11872,"RITE":11873,"_-":11874,"_:":11875,"Ġ\"âĶ":11876,"rocessing":11877,"nameTuple":11878,"looks":11879,"dataElements":11880,"ĠTOKEN":11881,"REF":11882,"ĠAF":11883,"wrappers":11884,"bots":11885,"configurator":11886,"subcommands":11887,"processCharacters":11888,"UTYPE":11889,"absolute":11890,"neqq":11891,"dbs":11892,"MAIN":11893,"Implementation":11894,"placeholder":11895,"StartTagState":11896,"Disable":11897,"DISTRO":11898,"LeftArrow":11899,"terminal":11900,"scriptDataEscapedState":11901,"Ġfsdecode":11902,"Ġreporter":11903,"EnumValue":11904,"EnumKey":11905,"LMNO":11906,"Rawtext":11907,"Matrix":11908,"csisolatin":11909,"2000001":11910,"796":11911,"Got":11912,"Sy":11913,"speak":11914,"{'":11915,"Ùĳ'),<":11916,"ð¤":11917,"Ġer":11918,"Ġutf":11919,"Ģ'),<":11920,"oracle":11921,"alth":11922,"ges":11923,"Ġsre":11924,"Ġbank":11925,"Ġbroken":11926,"Ġbrowser":11927,"abic":11928,"pypa":11929,"Ġ63":11930,"Ġ301":11931,"252":11932,"0000010":11933,"Ġpackname":11934,"ãĥ©":11935,"âĢ²":11936,"Ġschemes":11937,"Ġ\"-\"":11938,"included":11939,"xFDC":11940,"ategies":11941,"Ġwarner":11942,"Ø¬ÙĬ":11943,"ï¼ļ":11944,"ĠAppend":11945,"Ġoptimization":11946,"SPORT":11947,"HERE":11948,"................":11949,"Ġmultilinestr":11950,"allpaper":11951,"ðĿħ¥ðĿħ":11952,"413":11953,"hit":11954,"person":11955,"Ø¸":11956,"åŃ":11957,"Ġ'âĹ":11958,"lead":11959,"Ġtweet":11960,"hest":11961,"preserve":11962,"()\")<":11963,"herit":11964,"house":11965,"855":11966,"Ġmakefile":11967,"]+)":11968,"ðŁĮİ":11969,"MessageEntity":11970,"CoreFoundation":11971,"ielded":11972,"RedirectHandler":11973,"TRANSPORT":11974,"ĠBUTTON":11975,")>":11976,":\"<":11977,"WIN":11978,"cinder":11979,"iator":11980,"lbl":11981,"pressed":11982,"redist":11983,"declared":11984,"hether":11985,"ipart":11986,"ema":11987,"Ġstar":11988,"Ġldf":11989,"ĠMIN":11990,"1133":11991,"202":11992,"Ġprintables":11993,"Lookup":11994,"Ġlinker":11995,"Universal":11996,"UTABLE":11997,"executor":11998,"rawStream":11999,"NOW":12000,"Here":12001,"ustry":12002,"Ġadministrator":12003,"frules":12004,"pki":12005,"Ġldshared":12006,"Ġsteps":12007,"COMMA":12008,"MaintenanceForm":12009,"Ġldflags":12010,")}\"<":12011,"=\\":12012,"Send":12013,"frozenset":12014,"iadd":12015,"king":12016,"mv":12017,"tu":12018,"tan":12019,"æĺ":12020,"Ġrenamed":12021,"Ġrecv":12022,"Ġfraction":12023,"Ġnbytes":12024,"Ġisn":12025,"ĠCERT":12026,"pytest":12027,"ĠABI":12028,"207":12029,"backtrack":12030,"Ġpassive":12031,"249":12032,"ANY":12033,"140":12034,"Ġalso":12035,"Ġ{}}<":12036,"Ġcurses":12037,"administrators":12038,"Ġcompare":12039,"Starting":12040,"Toml":12041,"Ġ\",\"":12042,"devnull":12043,"threading":12044,"ĠDisaster":12045,"ĠExit":12046,"éĩı":12047,"ĠBOTLOG":12048,"~/.":12049,"ĠLocationParseError":12050,"ParsingError":12051,"Combo":12052,"%%":12053,"Ap":12054,"Mar":12055,"Note":12056,"Oid":12057,"ao":12058,"ben":12059,"muted":12060,"rang":12061,"tile":12062,"Ð¶":12063,"éł":12064,"ĥ£":12065,"Ġ'==":12066,"firm":12067,"Ġcancel":12068,"(\"~":12069,"(\":\",":12070,"textarea":12071,"Ġraised":12072,"lineQuery":12073,"ĠMixin":12074,"Ġmade":12075,"Ġ\"<\":":12076,"backslash":12077,"183":12078,"Ġcalendar":12079,"ignor":12080,"Ġclassifiers":12081,"IGH":12082,"Ġmyself":12083,"Ġframes":12084,"calar":12085,"pendencyWarning":12086,"Ġentered":12087,"valent":12088,"Ġprotocols":12089,"Transformer":12090,"PipError":12091,"Ġsticky":12092,"Normal":12093,"VENT":12094,"]])":12095,"ev":12096,"ately":12097,"Ġpstr":12098,"Ġins":12099,"Ġside":12100,"Ġmut":12101,"\",)<":12102,"Ġwbb":12103,"Init":12104,"Ġkr":12105,"anning":12106,"SSIAN":12107,"Ġsubs":12108,"Ġsubscri":12109,"ãĥŀ":12110,"playing":12111,"levelname":12112,"Ġpartition":12113,"ĠVAL":12114,"cases":12115,"embers":12116,"ĠUsers":12117,"Serial":12118,"That":12119,"Variable":12120,"Blocked":12121,"forwards":12122,"Ġtopic":12123,"Ġ\"ðŁĺ":12124,"ibility":12125,"Need":12126,"CUSTOM":12127,"50000":12128,"vac":12129,"çİ":12130,"ario":12131,"lify":12132,"getdefault":12133,"Ġbalance":12134,"aps":12135,"Ġast":12136,"fox":12137,"Ġcopied":12138,"ĠSET":12139,"ĠTargetPython":12140,"Ġvoice":12141,"logy":12142,"ivated":12143,"schemes":12144,"Ġtemporary":12145,"MAIL":12146,"ãĤ³":12147,"bufsize":12148,"Ġrelated":12149,"configs":12150,"ighb":12151,"Ġcontaining":12152,"Ġfillvalue":12153,"takewhile":12154,"-(?":12155,"Sibling":12156,"gtr":12157,"lu":12158,"vary":12159,"Ġangle":12160,"Ġ')":12161,"Ġ\"(?:":12162,"Ġinsp":12163,"getattribute":12164,"ulator":12165,"vee":12166,"Ġ%{":12167,"ĠMake":12168,"Ġlista":12169,"aking":12170,"Logs":12171,"290":12172,"Ġcompression":12173,"UTILS":12174,"TextIO":12175,"ĠRo":12176,"MAC":12177,"Ġservices":12178,"ToWin":12179,"metavar":12180,"mkstemp":12181,"Suite":12182,"ĠTimestamp":12183,"Manifest":12184,"Http":12185,"servation":12186,"wanted":12187,"ĠCLEANER":12188,"san":12189,"åĽ":12190,"Ġlim":12191,"Ġ'`":12192,"fid":12193,"Ġodist":12194,"Ġmbox":12195,"setPoint":12196,"provision":12197,"chardet":12198,"Ġtheir":12199,"Ġ**{":12200,"ĠBest":12201,"ront":12202,"omb":12203,"hashlib":12204,"------":12205,"oir":12206,"âķŃ":12207,"Ġmetaclass":12208,"Ġsuccessful":12209,"seqs":12210,"(.*)\")<":12211,"dical":12212,"Transfer":12213,"AUTO":12214,"market":12215,"Ġcontroller":12216,"Maintainer":12217,"RUSSIAN":12218,"DOTALL":12219,"setPointSize":12220,"\"')<":12221,"CATE":12222,"Kit":12223,"SW":12224,"Task":12225,"curly":12226,"duplicates":12227,"gres":12228,"vailable":12229,"ylabel":12230,"Ġpunch":12231,"defs":12232,"eli":12233,"Ġmigrate":12234,"Ġbz":12235,"Ġexpi":12236,"pyw":12237,"imag":12238,"='/":12239,"ATIVE":12240,"Ġ('%":12241,"statemachine":12242,"codingstatemachine":12243,"ĠFrom":12244,"pha":12245,"([],":12246,"SetGroupProber":12247,"ĠGeck":12248,"vertex":12249,"reflection":12250,"ĠstartTagHead":12251,"âķ®":12252,"ĠendTagHtml":12253,"ĠendTagIgnore":12254,"PathMetadata":12255,"ĠImageTk":12256,"Ġfilterfalse":12257,"emoized":12258,"Ġvalidation":12259,"APPS":12260,"NetFx":12261,"Ġauthority":12262,"ĠCOORD":12263,"approved":12264,"ĠDataLoader":12265,"Ġredacted":12266,"MMMMMMMM":12267,"SHORTCUT":12268,"torrent":12269,"âľłâľłâľłâľł":12270,"MultiByteCharSetProber":12271,"DigestAuth":12272,"brown":12273,"requency":12274,"ADDRZ":12275,"ĠGecko":12276,"Api":12277,"FUN":12278,"OW":12279,"Players":12280,"mu":12281,"tweet":12282,"sequal":12283,"reve":12284,"Ġ'&":12285,"Ġtab":12286,"Ġincompatible":12287,"froms":12288,"Ġ299":12289,"Ġlat":12290,"ĠBLACK":12291,"ĠNum":12292,"findAll":12293,"filesystem":12294,"ĠWRITE":12295,"566":12296,"certfile":12297,"LIVE":12298,"Prefix":12299,"Ġ`.":12300,"Buffered":12301,"NoMatch":12302,"expanded":12303,"})\\":12304,"Ġtables":12305,"BCS":12306,"ĠBaseDistribution":12307,"Admins":12308,"basicConfig":12309,"Ġcustomize":12310,"Ġradi":12311,"ĠWorkingSet":12312,"ĠSelectionPreferences":12313,"PU":12314,"Play":12315,"_,<":12316,"fold":12317,"folders":12318,"gnu":12319,"uss":12320,"Ġedge":12321,"infile":12322,"Ġpjoin":12323,"Ġsizes":12324,"Ġcipher":12325,"Ġbig":12326,"setLevel":12327,"Ġrt":12328,"Ġui":12329,"Ġ108":12330,"Ġyielded":12331,"ĠTotal":12332,"ĠAre":12333,"2018":12334,"shutdown":12335,"findvar":12336,"Ġ84":12337,"Ġsubcommand":12338,"Notation":12339,"ICAL":12340,"ĠRequirementPreparer":12341,"Building":12342,"ĠURLError":12343,"tasks":12344,"ĠPathMetadata":12345,"SoupEquals":12346,"--------------------------------":12347,"Separated":12348,"DATABASE":12349,">))<":12350,"Dump":12351,"Fifo":12352,"IBM":12353,"LL":12354,"cStyleComment":12355,"dtype":12356,"effect":12357,"gus":12358,"kze":12359,"lname":12360,"ç¤":12361,"ĠescChar":12362,"ĠescQuote":12363,"delimitedList":12364,"Ġisequal":12365,"arange":12366,"ali":12367,"Ġ\"âĹ¼ï¸ıâĹ¼ï¸ıâĹ¼ï¸ıâĹ¼ï¸ıâĹ¼ï¸ı\\":12368,"Ġ(':'":12369,"asc":12370,"asString":12371,"Ġretobj":12372,"els":12373,"Ġsi":12374,"Ġsrange":12375,"Ġclause":12376,"setUp":12377,"doinit":12378,"ational":12379,"ibm":12380,"pow":12381,"iger":12382,"team":12383,"Ġdc":12384,"initExpr":12385,"stringEnd":12386,"lineEnd":12387,"lineStart":12388,"parseMethod":12389,"parseFn":12390,"ĠpreparseFn":12391,"fixNotation":12392,"ĠlocMarker":12393,"1258":12394,"ĠwithAttribute":12395,"ĠAn":12396,"ĠURI":12397,"ExceptionDebugAction":12398,"currency":12399,"ParseMethod":12400,"ParseBaseException":12401,"defaultStart":12402,"defaultSuccess":12403,"defaultExceptionDebugAction":12404,"paArgs":12405,"Ġnewloc":12406,"lications":12407,"lobally":12408,"htmlEntity":12409,"maxMismatches":12410,"Ġpackrat":12411,"ĠGzip":12412,"ĠParseExpression":12413,"news":12414,"Ġbreaker":12415,"copyDefault":12416,"Ġthiscol":12417,"ĠthisFunc":12418,"][+-]?\\":12419,"NotMatched":12420,"Ġdictvalue":12421,"ĠfoundAr":12422,"Ġdirnames":12423,"makeTags":12424,"ĠallResults":12425,"ĠerrorStop":12426,"ĠtmpLoc":12427,"USERID":12428,"downcaseTokens":12429,"blockStatementExpr":12430,"ToColumn":12431,"Ġactivate":12432,"returnString":12433,"Ġskipresult":12434,"originalParseMethod":12435,"Ġwarns":12436,"ĠjoinString":12437,"hexnums":12438,"PREF":12439,"ĠmarkerString":12440,"```\")<":12441,"shortcut":12442,"OpenTag":12443,"à¶±":12444,"multirequired":12445,"LeftAssoc":12446,"EnvironmentName":12447,"scanString":12448,"cppStyleComment":12449,"ĠarrayExpr":12450,"thisFunc":12451,"CloseTag":12452,"HASHES":12453,"optionalNotMatched":12454,"WhiteChars":12455,"âĺĢ":12456,"ĠkeepMatching":12457,"generatorType":12458,"commaSeparated":12459,"ĠLineEnd":12460,"ĠendlocMarker":12461,"FifoCache":12462,"kzeug":12463,"asStringList":12464,"initExprGroups":12465,"defaultStartDebugAction":12466,"defaultSuccessDebugAction":12467,"htmlEntityMap":12468,"copyDefaultWhiteChars":12469,"ĠfoundArity":12470,"commaSeparatedList":12471,"sset":12472,"Ã£":12473,"Ġâĸ":12474,"ĠResolution":12475,"asctime":12476,"Ġrp":12477,"heat":12478,"ighest":12479,"']}\\":12480,"ĠTensor":12481,"characters":12482,"Ġ\"<!":12483,"backoff":12484,"Ġ330":12485,"Ġlogged":12486,"ITLE":12487,"ĠWh":12488,"296":12489,"309":12490,"UserRequest":12491,"]+[":12492,"âĶĢ":12493,"forcelist":12494,"Ġviewkeys":12495,"PlatformWarning":12496,"ĠRequestMethods":12497,"ĠTemplate":12498,"Constraints":12499,"RAGMENT":12500,"ĠNewType":12501,"succs":12502,"VALIDATORS":12503,"GHI":12504,"CipherSuite":12505,"SECURETRANSPORT":12506,"ĠGzipDecoder":12507,".-":12508,"hparams":12509,"ya":12510,"Ġicon":12511,"alf":12512,"cta":12513,"009":12514,"tright":12515,"keyring":12516,"noise":12517,"usion":12518,"Ġ29":12519,"Ġpredicate":12520,"Stdout":12521,"209":12522,"013":12523,"Ġspecial":12524,"hashed":12525,"FileFinder":12526,"rolled":12527,"transl":12528,"Ġbackoff":12529,"ĠChrome":12530,"Ġworkers":12531,"Ġexplo":12532,"(\"/\")":12533,"â¬Ľâ¬Ľâ¬Ľâ¬Ľâ¬Ľâ¬Ľâ¬Ľ\\":12534,"ChildNodes":12535,"lru":12536,"Ġplatlib":12537,"separator":12538,"istics":12539,"JKLMNO":12540,"Ġcloser":12541,"ĠPKG":12542,"90000":12543,"Sto":12544,"Sim":12545,"gmute":12546,"âĬ":12547,"è®":12548,"é¾":12549,"éĿ":12550,"oned":12551,"Ġcand":12552,"gettimeout":12553,"Ġwf":12554,"proto":12555,"Ġproto":12556,"329":12557,"Ġ**`.":12558,"Ġplace":12559,"Ġ:-":12560,"assertSoupEquals":12561,"Ġvalor":12562,"Ġ'-')<":12563,"TERS":12564,"msi":12565,"uppercase":12566,"Anchor":12567,"DownloadProgressBar":12568,"InputStream":12569,"clicked":12570,"('_',":12571,"Ġterminal":12572,"åħ¥":12573,">\"\\":12574,"PURE":12575,"futures":12576,"ka":12577,"middle":12578,"pending":12579,"xlabel":12580,"ç¦":12581,"eries":12582,"iters":12583,"others":12584,"lik":12585,"007":12586,"unded":12587,"Ġev":12588,"Ġstore":12589,"1256":12590,"Ġunescape":12591,"Ġunits":12592,"forc":12593,"Ġ48":12594,"specify":12595,"specification":12596,"Ġless":12597,"ĠtestSerializer":12598,"Ġ'./":12599,"prime":12600,"Ġimplied":12601,"xBF":12602,"Disposition":12603,"Ġoverwrite":12604,"Ġ`{}`\\":12605,"REPLY":12606,"General":12607,"Participants":12608,"Ġassigned":12609,"ĠSUPPORTED":12610,"labeled":12611,"âĸĢâĸĢ":12612,"({})<":12613,"Ġinternet":12614,"+]":12615,"Access":12616,"Numb":12617,"fin":12618,"nb":12619,"æĭ":12620,"Ġquiet":12621,"Ġurlencode":12622,"atio":12623,"ĠPlay":12624,"ĠDec":12625,"Ġpretrained":12626,"ĠLock":12627,"backward":12628,"\")],<":12629,"Loading":12630,"regular":12631,"Ġsucc":12632,"positions":12633,"brk":12634,"legend":12635,"PythonVersion":12636,"Ġpreviously":12637,"BANG":12638,"ikipe":12639,"transforms":12640,"âĹ»ï¸ı\\":12641,"todo":12642,"cascade":12643,"âĹ¼ï¸ıâĹ¼ï¸ıâĹ¼ï¸ıâĹ¼ï¸ıâĹ¼ï¸ı\",<":12644,",\\":12645,"Target":12646,"immutable":12647,"sses":12648,"ucs":12649,"éĻ":12650,"inSelect":12651,"asarray":12652,"adjac":12653,"Ġmagic":12654,"Ġhel":12655,"macr":12656,"ĠPass":12657,"noframes":12658,"heading":12659,"charList":12660,"Ġpref":12661,"bogus":12662,"angms":12663,"Ġbuiltin":12664,"\")).":12665,"ANT":12666,"Ġreqts":12667,"Ġ42":12668,"ĠhasChildren":12669,"namespaceURI":12670,"egoti":12671,"Uninstall":12672,"ĠcharList":12673,"supset":12674,"ĠmoduleCache":12675,"Ġarchs":12676,"afari":12677,"insertComment":12678,"croll":12679,"Prece":12680,"ãĤ¹":12681,"clearStackToTable":12682,"MENTS":12683,"ĠDictCache":12684,"Suc":12685,"ï¼ģ":12686,"fbanned":12687,"beforeAttributeNameState":12688,"oodoo":12689,"Ġ'\"%":12690,"snip":12691,"selfClosingStartTagState":12692,"ðŁĶ´ðŁĶµðŁĮķâĻĵâĻİâĽİðŁĶ´ðŁĶµðŁĮķâĻĵâĻİâĽİðŁĶ´ðŁĶµðŁĮķâĻĵâĻİâĽİðŁĶ´ðŁĶµðŁĮķâĻĵâĻİâĽİ":12693,"factories":12694,"RowGroup":12695,"ABCDEF":12696,"ĠConvertingList":12697,"ĠConvertingTuple":12698,"Ġmultiprocessing":12699,"MEDIA":12700,"ikipedia":12701,"adjacency":12702,"'/":12703,"(%(":12704,"Cap":12705,"NAB":12706,"OIN":12707,"^({":12708,"musl":12709,"slim":12710,"tabs":12711,"Ġorm":12712,"Ġ],":12713,"Ġlight":12714,"sequences":12715,"sto":12716,"Ġ\"\"))<":12717,"Ġttk":12718,"exemp":12719,"Ġfreeze":12720,"Ġnanoseconds":12721,"(\"\\\\":12722,"Ġrs":12723,"Ġway":12724,"Rep":12725,"Repair":12726,"Ġdummy":12727,"Ġdevelop":12728,"']}":12729,"Ġtheta":12730,"traction":12731,"189":12732,"cacheable":12733,"scriptor":12734,"phrase":12735,"Ġsubdirectory":12736,"Ġ'.')<":12737,"Ġ76":12738,"Enable":12739,"SERVED":12740,"Requirements":12741,"RAPPER":12742,"ĠVer":12743,"Ġlibfile":12744,"These":12745,"Ġreasons":12746,"Ġ...\")<":12747,"Ġvisual":12748,"ViewSet":12749,"descend":12750,"HOOK":12751,"operand":12752,"Ġquoted":12753,"detected":12754,"ĠPreparedRequest":12755,"writerow":12756,"(':',":12757,"Ġ'\\\\':<":12758,"EXECUTABLE":12759,"Ġbitmap":12760,"ĠProxyScheme":12761,"ĠAlready":12762,"Changed":12763,"ĠLibError":12764,"difficult":12765,"ĠMSVC":12766,"ĠÍ¡Â°":12767,"'\",<":12768,".(\\":12769,"748":12770,"BGR":12771,"CPP":12772,"Linux":12773,"MON":12774,"RM":12775,"aff":12776,"tsv":12777,"}}":12778,"ÐĿ":12779,"åº":12780,"èĻ":12781,"é¼":12782,"incorrect":12783,"otp":12784,"(\"|":12785,"1041":12786,"REL":12787,"buildOid":12788,"StringEnd":12789,"Ġstarted":12790,"EXCE":12791,"posts":12792,"issue":12793,"maybe":12794,"ĠVAR":12795,"Ġ\"(%":12796,"('/'):<":12797,"PROCESS":12798,"BodyPhase":12799,"bindparam":12800,"Ġrefresh":12801,"Rights":12802,"ĠEntryPoint":12803,"Branch":12804,"FullUserRequest":12805,"NEW":12806,"idiError":12807,"ytdl":12808,"ĠSkipTo":12809,"Ġkeras":12810,"NABidiError":12811,"*]":12812,"/*":12813,"600001":12814,"700001":12815,"bile":12816,"fatal":12817,"ham":12818,"ili":12819,"ð¡":12820,"ð¢":12821,"ð§":12822,"Ġvi":12823,"dec":12824,"Ġ'='":12825,"Ġreference":12826,"Ġpid":12827,"trip":12828,"Ġnotename":12829,"messagebox":12830,"protect":12831,"Ġgetproxies":12832,"xFFFF":12833,"Ġgone":12834,"Ġlbl":12835,"ester":12836,"328":12837,"ureTransport":12838,"ĠEdit":12839,"Ġpyopenssl":12840,"prefixed":12841,"Ġextend":12842,"âĹ¼ï¸ıâĹ¼ï¸ıðŁĮİ":12843,"xFFD":12844,"what":12845,"uptoolsDeprecationWarning":12846,"Hebrew":12847,"MPLE":12848,"Ġloading":12849,"SUPPRESS":12850,"ØŃÙħ":12851,"â¬Ľâ¬Ľâ¬Ľâ¬Ľâ¬Ľâ¬Ľâ¬Ľâ¬Ľâ¬Ľ":12852,"ĠPipOption":12853,"cipy":12854,"={})<":12855,"à¤¼'),<":12856,"Ġ'ãĢĶ":12857,":`_":12858,"agraph":12859,"ĠInstalledDistribution":12860,"âĹ¼ï¸ıâĹ¼ï¸ıðŁĮİâĹ¼ï¸ıâĹ¼ï¸ı\\":12861,"285":12862,"Are":12863,"Available":12864,"Candidates":12865,"OTH":12866,"Port":12867,"gain":12868,"lc":12869,"oauth":12870,"yellow":12871,"×Ĳ":12872,"recall":12873,"Ġiver":12874,"Ġpers":12875,"Ġsur":12876,"Ġscipy":12877,"Ġnative":12878,"Ġcust":12879,"005":12880,"ungroup":12881,"Ġwish":12882,"Ġ%.":12883,"Ġ101":12884,"Ġdx":12885,"ĠDid":12886,"1134":12887,"Ġ('',":12888,"Ġ33":12889,"argin":12890,"findNext":12891,"Ġleaving":12892,"EXIST":12893,"('./":12894,"When":12895,".*?":12896,"ĠProgress":12897,"1003":12898,")\\)\",":12899,"Ġlocks":12900,"simplefilter":12901,"INSTALL":12902,"combining":12903,"ĠAND":12904,"garian":12905,".,":12906,"Center":12907,"HARD":12908,"MULT":12909,"PUN":12910,"SOR":12911,"SENT":12912,"Sandbox":12913,"bmp":12914,"kan":12915,"ttk":12916,"reuse":12917,"Ġsc":12918,"Ġnb":12919,"Ġcenter":12920,"('@":12921,"Ġdigits":12922,"Ġhot":12923,"ĠSh":12924,"Ġdd":12925,"=\".":12926,"imap":12927,"ĠLatin":12928,"='%":12929,"Ġlocate":12930,"))[:":12931,"authentic":12932,"lowercase":12933,"qualname":12934,"://\",":12935,"workdir":12936,"Notes":12937,"istration":12938,"ĠInstallation":12939,"Ġbytecode":12940,"Async":12941,"Ġblocksize":12942,"friday":12943,"Ġworker":12944,"OpenSSL":12945,"Ġsigner":12946,"BYNAME":12947,"Shape":12948,"srf":12949,"Ġbetween":12950,"ĠSSLContextRef":12951,"OBJECT":12952,"cw":12953,"dots":12954,"mq":12955,"mle":12956,"nr":12957,"àº":12958,"éŁ":12959,"ëĭ":12960,"Ġreported":12961,"dig":12962,"__\")<":12963,"uni":12964,"Trie":12965,"ĠStyle":12966,"Ġgrp":12967,"ĠMem":12968,"ĠAct":12969,"ĠAUT":12970,"Cost":12971,"curve":12972,"186":12973,"330":12974,"ITES":12975,"Ġpacket":12976,"Impossible":12977,"avor":12978,"Ġprocessing":12979,"SpecifierSet":12980,"Ġappe":12981,"Ġ'\"':<":12982,"hijklmno":12983,"Ġmsgs":12984,"overrides":12985,"mlentity":12986,"\"},<":12987,"BAR":12988,"TM":12989,"cant":12990,"kc":12991,"vo":12992,"itter":12993,"room":12994,"Ġteam":12995,"Ġpdb":12996,"adb":12997,"Ġhy":12998,"__():<":12999,"Infinite":13000,"wav":13001,"Ġlab":13002,"ĠMainWindow":13003,"Ġpredictions":13004,"Ġurlparts":13005,"itemgetter":13006,"colli":13007,"2017":13008,"backwards":13009,"ĠBlock":13010,"shim":13011,"ĠNe":13012,"Ġcalls":13013,"ĠĠĠĠĠĠĠĠĠĠĠĠĠĠĠĠĠĠĠĠĠĠĠĠĠĠĠĠĠĠĠĠĠĠĠĠĠĠĠĠĠĠĠĠĠĠĠĠĠĠĠĠĠĠĠĠĠĠĠĠĠĠĠĠĠĠĠĠĠĠĠĠĠĠĠĠĠĠĠĠĠĠĠĠĠĠĠĠĠĠĠĠĠĠĠĠĠĠĠĠĠĠĠĠĠĠĠĠĠĠĠ":13014,"ãĤ«":13015,"Installing":13016,"Ġagainst":13017,"bitrary":13018,"ä¸Ģ":13019,"Counter":13020,"Ġ\":\"":13021,"management":13022,"Ġsegments":13023,"Ġautomatic":13024,"MAGIC":13025,"Category":13026,"FINAL":13027,"aaf":13028,"gues":13029,"ier":13030,"pMatches":13031,"sho":13032,"})[":13033,"ä¾":13034,"ìĿ":13035,"Ġcard":13036,"formLayout":13037,"ĠPl":13038,"ĠTk":13039,"ĠALIVE":13040,"Ġmeant":13041,"ĠBig":13042,"')(":13043,"')\")<":13044,"334":13045,"Ġ43":13046,"**\"<":13047,"043":13048,"ĠHISTORY":13049,"escapes":13050,"Ġ``":13051,"ushi":13052,"Entries":13053,"Ġtransl":13054,"functional":13055,"QUI":13056,"DISTUTILS":13057,"tgz":13058,"WheelCache":13059,"âĪ«":13060,"Ġstrides":13061,"Ġsomeone":13062,"Ġsomething":13063,"ĠasciiUpper":13064,"COMMON":13065,"Uploading":13066,"ski":13067,"instrument":13068,">{}:</":13069,"BH":13070,"CIP":13071,"TITLE":13072,"pixel":13073,"tgt":13074,"}(":13075,"ÅŁ":13076,"Ģâ£":13077,"arbitrary":13078,"Ġ\"?":13079,"Ġtrun":13080,"Ġpromote":13081,"Ġodd":13082,"Ġmix":13083,"Ġmight":13084,"Ġlol":13085,"doActions":13086,"pread":13087,"ĠSafari":13088,"putheader":13089,"RET":13090,"205":13091,"182":13092,"Ġchoose":13093,"Ġ:])<":13094,"streams":13095,"filterwarnings":13096,"Requests":13097,"ETIME":13098,"ocus":13099,"âķ°":13100,"Ø¬ØŃ":13101,"allows":13102,"circle":13103,"Ġpairwise":13104,"utcnow":13105,"persist":13106,"ĠARCH":13107,"\"âĢ¢":13108,"520":13109,"735":13110,"Pattern":13111,"SCREEN":13112,"VATED":13113,"iod":13114,"pfp":13115,"rip":13116,"Ġireqs":13117,"ened":13118,"encrypted":13119,"Ġpic":13120,"Ġfdst":13121,"__']":13122,"thick":13123,"poon":13124,"ĠScheme":13125,"ĠSign":13126,"Ġdec":13127,"\"]):<":13128,"imshow":13129,"ElementTree":13130,"TypeVar":13131,"KeyError":13132,"FFER":13133,"rowcount":13134,"icture":13135,"aven":13136,"filterfalse":13137,"MAJ":13138,"Ġ`\",<":13139,"masked":13140,"(\".\")":13141,"Ġselection":13142,"à·Ĵ":13143,"Ġhandling":13144,"}'\".":13145,"Hashes":13146,"Ġ(.*)\"))<":13147,"IDEO":13148,"BG":13149,"BL":13150,"Gen":13151,"QFrame":13152,"Sc":13153,"]')<":13154,"fresh":13155,"xhtml":13156,"ÑĦ":13157,"å£":13158,"æĿ":13159,"Ġvirtual":13160,"sess":13161,"Ġ'\"'":13162,"leading":13163,"Ġpc":13164,"Ġpay":13165,"Ġincrement":13166,"Ġspeak":13167,"Ġbrotli":13168,"ĠCSI":13169,"userinfo":13170,"Ġlt":13171,"ĠMay":13172,"2248":13173,"337":13174,"shlib":13175,"mbcss":13176,"ĠGBAN":13177,"Ġextraction":13178,"TextAttribute":13179,"Ġ`/":13180,"Ġblockers":13181,"Ġmanually":13182,"Ġvalidator":13183,"Ġrawmode":13184,"ĠJIS":13185,"ĠInter":13186,"ĠWinStyle":13187,"Ġdistros":13188,"('_')<":13189,"ĠPrevious":13190,"SdkVersion":13191,"ScriptWriter":13192,"dwSize":13193,"Ġcsidl":13194,"SVG":13195,"SetConsoleCursorPosition":13196,"Includes":13197,"ĠMultiByteCharSetProber":13198,"crtver":13199,"DETECTING":13200,"BCSGroupProber":13201,"JKLMNOP":13202,"EXCEP":13203,"MAJOR":13204,"mbcssm":13205,"\"`{":13206,"Each":13207,"Six":13208,"dur":13209,"odate":13210,"sin":13211,"silent":13212,"til":13213,"åĳ":13214,"è£":13215,"íķ":13216,"Ġtbot":13217,"ulation":13218,"Ġucs":13219,"keyfile":13220,"rivers":13221,"Ġ*,":13222,"Ġ201":13223,"curse":13224,"331":13225,"VersionConflict":13226,"Ġpyc":13227,"Ġpymalloc":13228,"filtered":13229,"Ġadvance":13230,"ĠConfigOptionParser":13231,"Frames":13232,"SOCK":13233,"ĠPyQt":13234,"Ġtrim":13235,"ĠYouBlocked":13236,"NTLM":13237,"(\",\")<":13238,"secondary":13239,"Ġsmall":13240,"STATIC":13241,"serializers":13242,"superuser":13243,"WAIT":13244,"ARCHIVE":13245,"WebKit":13246,"karma":13247,"restriction":13248,"esterday":13249,"ĠYouBlockedUser":13250,"*\")":13251,"Duplicate":13252,"Hand":13253,"KHTML":13254,"Oct":13255,"WRAPPER":13256,"ah":13257,"dnd":13258,"pwn":13259,"leWebKit":13260,"Ġ\"..":13261,"asure":13262,"Ġintranges":13263,"Ġsyntax":13264,"getE":13265,"(\"]":13266,"Ġear":13267,"ĠCA":13268,"ĠSelect":13269,"Ġland":13270,"Chrome":13271,"RESERVED":13272,"Ġtokenize":13273,"Ġ67":13274,"takes":13275,"ĠAD":13276,"Ġtextx":13277,"cachecontrol":13278,"directories":13279,"ĠWr":13280,"BaseSpecifier":13281,"Requested":13282,"sessionId":13283,"Ġmouse":13284,"Ð¾ÑĤ":13285,"ĠIDNABidiError":13286,"(\"<%":13287,"Trying":13288,"monitor":13289,"ceiver":13290,"Ġtorlog":13291,"lapse":13292,"Ġmodify":13293,"GetoptError":13294,"caselessmatch":13295,"Ġ'^'":13296,"ï¸ıâĥ£":13297,"/\"":13298,"380":13299,"456":13300,"Break":13301,"Horizontal":13302,"IE":13303,"Pickle":13304,"Way":13305,"jna":13306,"msv":13307,"ran":13308,"áĹ":13309,"Ġcalled":13310,"setWeight":13311,"('=',":13312,"Ġ[(\"":13313,"Ġlogs":13314,"ĠSTO":13315,"pyd":13316,"Ġstrong":13317,"permanent":13318,"Ġgots":13319,"ĠME":13320,"INPUT":13321,"Ġ600":13322,"ĠUrl":13323,"STD":13324,"ãĥ½":13325,"Ġnumeric":13326,"Ġ['--":13327,"ĠHE":13328,"Ġ'/':<":13329,"InvalidVersion":13330,"structured":13331,"convers":13332,"excludes":13333,"sired":13334,"Ġparamstring":13335,"detector":13336,"ĠLegacyCmpKey":13337,"ĠEggMetadata":13338,"ĠInfinityType":13339,"Ġhumanbytes":13340,"æĪĲ":13341,"Ġoccurrences":13342,"semicolon":13343,"ĠYouBlockedUserError":13344,"PLU":13345,"PRIVATE":13346,"Sampler":13347,"bone":13348,"ccon":13349,"catch":13350,"nan":13351,"sget":13352,"xn":13353,"Ãī":13354,"åī":13355,"Ġtw":13356,"Ġfns":13357,"Ġnloc":13358,"Ġactions":13359,"Ġhist":13360,"Example":13361,"Inconsistent":13362,"Ġlan":13363,"INET":13364,"tentative":13365,"defaultdict":13366,"licence":13367,"Ġ{}:":13368,"Ġ{},<":13369,"ĠReccon":13370,"LOCATION":13371,"Ġanaly":13372,"hashCmp":13373,"Ġrequirers":13374,"Ġsplitext":13375,"ï¼¾":13376,"2190":13377,"ĠOrderedSet":13378,"succeeded":13379,"Ġradical":13380,"ĠCacheControlAdapter":13381,"ĠprovMac":13382,"ĠHELPABLE":13383,"Manifests":13384,"Ġtrunc":13385,"200000":13386,"286":13387,":]):<":13388,"CMP":13389,"OO":13390,"ZEN":13391,"_\")<":13392,"dx":13393,"nav":13394,"Å¾":13395,"×©":13396,"æĨ":13397,"Ġfolders":13398,"defrag":13399,"getresponse":13400,"('=":13401,"Ġdispatch":13402,"ĠCategory":13403,"capt":13404,"2267":13405,"='.":13406,"acquire":13407,"Ġ37":13408,"144":13409,"Keywords":13410,"**:":13411,"Ġwhitelist":13412,"Login":13413,"303":13414,"BuildDir":13415,"xDC":13416,"Ġgenerator":13417,"dlg":13418,"Ġplaylist":13419,"Selector":13420,"ÙĦÙħ":13421,"Ġevaluation":13422,"ProxyManager":13423,"Ġconflicts":13424,"ficial":13425,"Ġdiscard":13426,"Ġdynamic":13427,"peercert":13428,"ĠPreviousBuildDir":13429,"ĠPreviousBuildDirError":13430,")(?:":13431,")}\")<":13432,"EK":13433,"LR":13434,"POL":13435,"ZONE":13436,"average":13437,"sco":13438,"zaza":13439,"çģ":13440,"ĠResolutionError":13441,"Ġ'>":13442,"enial":13443,"Ġpag":13444,"Ġsites":13445,"Ġcity":13446,"ackList":13447,"three":13448,"formdata":13449,"Ġstrategy":13450,"addHandler":13451,"ĠDet":13452,"Ġydl":13453,"compression":13454,"2283":13455,"starting":13456,"anga":13457,"ĠkSecTrustResult":13458,"241":13459,"ĠNL":13460,"640":13461,"ffectiveLevel":13462,"Ġending":13463,"Ġbuildsys":13464,"suit":13465,"Ġcompany":13466,"SSLCipherSuite":13467,"ROZEN":13468,"â£¶":13469,"MatchFirst":13470,"Ġcertdata":13471,"ItemImport":13472,"(\".\".":13473,"âĪĢ":13474,"Ġsentence":13475,"endTagP":13476,"\"**{":13477,"EnabledCiphers":13478,"Feature":13479,"SocketError":13480,"åĲį":13481,"ĠCFArray":13482,"resizing":13483,"çļĦ":13484,"xFFFFFFFF":13485,")[::-":13486,":,":13487,"Amount":13488,"FW":13489,"UAL":13490,"_()<":13491,"oft":13492,"áµ":13493,"rebuild":13494,"atial":13495,"Ġpanel":13496,"Ġflow":13497,"chron":13498,"Ġmsc":13499,"Ġmsi":13500,"iff":13501,"istance":13502,"ĠSDK":13503,"nobr":13504,"ĠDATA":13505,"ESC":13506,"Ġdom":13507,"Ġwhl":13508,"://{":13509,"ĠDistutilsGetoptError":13510,"Ġparsing":13511,"Ġclassname":13512,"('.')[":13513,"annotate":13514,"chunkSize":13515,"Ġfeds":13516,"Ġaround":13517,"Ġoverlap":13518,"Subset":13519,"ĠPyDialog":13520,"ØªÙħ":13521,"Ġcfgdata":13522,"Ġseldlg":13523,"tabed":13524,"gateway":13525,"Ġdylib":13526,"Ġoccur":13527,"Something":13528,"TarError":13529,"Ġcaptured":13530,"getEffectiveLevel":13531,"Ġmsilib":13532,"\"(?":13533,"AX":13534,"Ant":13535,"Email":13536,"Hey":13537,"RD":13538,"Team":13539,"band":13540,"rpartition":13541,"ubu":13542,"vr":13543,"ï¹":13544,"stBlock":13545,"Ġ'')":13546,"Ġ\"\"])<":13547,"urthe":13548,"edo":13549,"edBlock":13550,"strategies":13551,"getET":13552,"getreader":13553,"fromXml":13554,"formPointer":13555,"ERY":13556,"']=":13557,"located":13558,"Ġtoml":13559,"Ġgreater":13560,"formattingElement":13561,"comptype":13562,"Ġprotect":13563,"charAsInt":13564,"Ġmaint":13565,"Ġ\"<\"})<":13566,"Ġsysid":13567,"matchString":13568,"tokenlist":13569,"zipped":13570,"Ġcho":13571,"Ġ53":13572,"antEqual":13573,"ĠWHERE":13574,"ãĥ¡":13575,"DOMAIN":13576,"UNPACK":13577,"rawtext":13578,"Ġ\"-\"})<":13579,"Interrupt":13580,"ĠprocessComment":13581,"leftarrow":13582,"rightarrow":13583,"ogon":13584,"MARKERS":13585,"Ġtransfer":13586,"EndTagNameState":13587,"EndTagOpenState":13588,"attributeNameState":13589,"commentState":13590,"ĠdocStr":13591,"PROXY":13592,"ĠResponseError":13593,"Ð¾Ð»":13594,"Ġgenshi":13595,"Ø§ÙĦ":13596,"DoubleQuotedState":13597,"scriptDataState":13598,"scriptDataEscaped":13599,"ĠButtons":13600,"DownArrow":13601,"Editable":13602,"VectorBar":13603,"äºĮ":13604,"Extraction":13605,"InstalledDistribution":13606,"ĠReadError":13607,"Superset":13608,"SlantEqual":13609,"XYZ":13610,"TeeVector":13611,"Ġsatisfied":13612,"scriptDataDoubleEscapedState":13613,"SingleQuotedState":13614,"ĠGNUTYPE":13615,"Ġtreewalker":13616,"Succeeds":13617,"urthestBlock":13618,"getETree":13619,"fromXmlName":13620,".<":13621,"Bit":13622,"FR":13623,"May":13624,"Main":13625,"][:":13626,"bboxes":13627,"cand":13628,"fsen":13629,"ngs":13630,"payment":13631,"èĪ":13632,"èı":13633,"Ġecho":13634,"Ġduring":13635,"capture":13636,"Ġ204":13637,"=\"^":13638,"ĠTEXT":13639,"INIT":13640,"Ġ\"<{":13641,"Ġnewpath":13642,"Ġwhite":13643,"logit":13644,"{}](":13645,"ĠGT":13646,"ĠGr":13647,"which":13648,"synth":13649,"Ġdownloader":13650,"Ġ\"```":13651,"ĠLOAD":13652,"Adam":13653,"ÐµÐ½":13654,"Retrying":13655,"ä¸ĭ":13656,"merged":13657,"Params":13658,"ELEVATED":13659,"Ġquit":13660,"subjectAltName":13661,"Ġsigma":13662,"decorator":13663,"Mismatch":13664,"Ġattack":13665,"FUNC":13666,"protected":13667,"425":13668,"@@":13669,"Flags":13670,"IMAGE":13671,"Ptr":13672,"QLA":13673,"WM":13674,"dT":13675,"ghijklmno":13676,"}:<":13677,"æ®":13678,"ç»":13679,"semb":13680,"secut":13681,"erkzeug":13682,"orient":13683,"Ġtt":13684,"cel":13685,"Ġsince":13686,"setBold":13687,"oking":13688,"Ġ127":13689,"igen":13690,"ĠPE":13691,"Ġfileno":13692,"Ġyes":13693,"instances":13694,"')\"":13695,"ENUM":13696,"DEL":13697,"elementTree":13698,"Ġcompressed":13699,"referred":13700,"Ġclassifier":13701,"nodeName":13702,"returns":13703,"ãĤ·":13704,"âĶ»":13705,"Ġtranslation":13706,"PathImporter":13707,"Ġsuccessor":13708,"clauseelement":13709,"ðŁĮķðŁĮķ":13710,"Ġordering":13711,"origins":13712,"PyAsn":13713,"MetaPathImporter":13714,"FloatField":13715,"LazyDes":13716,"CFArrayRef":13717,"CFArrayCreate":13718,"MLTreeBuilder":13719,"vectors":13720,"epsilon":13721,"Ġdeclare":13722,"focus":13723,"DigestAuthHandler":13724,"SixMetaPathImporter":13725,"ackListFilters":13726,"secutive":13727,"LazyDescr":13728,"+{":13729,"499":13730,"755":13731,"<!--":13732,"BT":13733,"cid":13734,"doku":13735,"pseudo":13736,"radd":13737,"ÐĴ":13738,"çº":13739,"remainder":13740,"orange":13741,"lipsis":13742,"extended":13743,"ety":13744,"ism":13745,"applies":13746,"ableBody":13747,"Ġ103":13748,"ibly":13749,"ĠSTR":13750,"caled":13751,"Ġguild":13752,"ĠAt":13753,"ĠBIG":13754,"176":13755,"Ġali":13756,"([[":13757,"ĠEF":13758,"ĠGame":13759,"(((":13760,"MACH":13761,"See":13762,"ĠProcess":13763,"BOO":13764,"Backup":13765,"Ġeta":13766,"Parameters":13767,"ĠParsedVersion":13768,"ĠLEG":13769,"ĠUniversalDetector":13770,"Modified":13771,"(('.":13772,"LONG":13773,"UST":13774,"cart":13775,"friend":13776,"punc":13777,"|{":13778,"}_":13779,"ç¾":13780,"stand":13781,"Ġ'~":13782,"chive":13783,"ingTool":13784,"ntu":13785,"Ġbv":13786,"Ġball":13787,"mentum":13788,"('~":13789,"dirty":13790,"ĠCur":13791,"indableBody":13792,"Ġseed":13793,"Ġouter":13794,"Ġ304":13795,"Ġunparsed":13796,"Ġ55":13797,"popleft":13798,"DIFF":13799,"ĠUnrew":13800,"LICATION":13801,"Ġupper":13802,"]+\"":13803,"ĠHTTPAdapter":13804,"ORTED":13805,"ĠInvalidCodepoint":13806,"Ġjoining":13807,"GroupList":13808,"ãĢĤ":13809,"Ġ\"ðŁĳ":13810,"WaitFor":13811,"CURSOR":13812,"indableBodyError":13813,"ĠUnrewindableBodyError":13814,"3000001":13815,"3000004":13816,"500001":13817,"7000001":13818,"900001":13819,"9000001":13820,"Ansi":13821,"Django":13822,"Members":13823,"fancy":13824,"family":13825,"kang":13826,"nadata":13827,"sushi":13828,"°'),<":13829,"á¿":13830,"ð©":13831,"Ġ.__":13832,"Ġemb":13833,"ĩ'),<":13834,"ĭ'),<":13835,"adjacent":13836,"Ġcant":13837,"Tracker":13838,"Ġconsu":13839,"prs":13840,"Ġyanked":13841,"2282":13842,"Ġurlsplit":13843,"2015":13844,"launch":13845,"Ġcomplex":13846,"registered":13847,"limiter":13848,"LABLE":13849,"xFFC":13850,"blur":13851,"Ġtorchvision":13852,"Ġidnadata":13853,"TOOLS":13854,"ãĤŃ":13855,"ĠRequirementParseError":13856,"Ø®Ùħ":13857,"âĪķ":13858,"Ġwindows":13859,"COMPI":13860,"STICKERS":13861,"neko":13862,"ĠSuccess":13863,")(\\":13864,",_":13865,"464":13866,"525":13867,"660":13868,"Top":13869,"VEL":13870,"bm":13871,"blog":13872,"categories":13873,"hh":13874,"kana":13875,"rango":13876,"sax":13877,"æ°":13878,"incip":13879,"Ġ'**":13880,"utime":13881,"__\"":13882,"apers":13883,"settimeout":13884,"etag":13885,"Ġgamma":13886,"completed":13887,"loading":13888,"distlib":13889,"atakana":13890,"Ġlistdir":13891,"internals":13892,"Ġ(\"\\":13893,"Ġverbosity":13894,"LACE":13895,"ragana":13896,"BUFFER":13897,"Configuration":13898,"BOOL":13899,"Ġ\"/\"<":13900,"ĠStudio":13901,"BYOWNER":13902,"LATED":13903,"PackageFinder":13904,"Ġwritable":13905,"Certificates":13906,"ĠSearchScope":13907,"+)\\.(\\":13908,"ĠHttpResponse":13909,"QLAl":13910,"!`\")<":13911,"756":13912,"Btn":13913,"MID":13914,"SIG":13915,"Will":13916,"]}<":13917,"bed":13918,"goto":13919,"nm":13920,"nw":13921,"ulo":13922,"witch":13923,"}',":13924,"Ġì":13925,"deque":13926,"Ġtakes":13927,"cogn":13928,"Ġsr":13929,"ully":13930,"('//":13931,"that":13932,"ĠĠĠĠĠĠĠĠĠĠĠĠĠĠĠĠĠĠĠĠĠĠĠĠĠĠĠĠĠĠĠĠĠĠĠĠĠĠĠĠĠĠĠĠĠĠĠĠĠĠĠĠ":13933,"verified":13934,"1083":13935,"=\"+":13936,"ĠTree":13937,"Ġproper":13938,"Ġundef":13939,"grnam":13940,"Ġbegin":13941,"afety":13942,"âĢį":13943,"ISUAL":13944,"flip":13945,"structure":13946,"ĠÐ¼":13947,"blacklisted":13948,"ĠFileList":13949,"(\">\")<":13950,"Ġadjusted":13951,"ĠDISABLED":13952,"augment":13953,"GHIJKLMNOP":13954,"pwnam":13955,"STDERR":13956,"ĠPEER":13957,"QLAlchemy":13958,"FROZEN":13959,"Ok":13960,"blob":13961,"pdf":13962,"Ñī":13963,"çĻ":13964,"iting":13965,"Ġscr":13966,"Ġcam":13967,"unzip":13968,"(\"(\"":13969,"setattr":13970,"acked":13971,"Ġgetgrnam":13972,"Ġgetpwnam":13973,"REST":13974,"installable":13975,"directives":13976,"([(":13977,"ALI":13978,"SERVER":13979,"HANDLE":13980,"downloading":13981,"ragon":13982,"Ġatom":13983,"âłĢâ¢":13984,"SURE":13985,"fetchone":13986,"DBYE":13987,"STRINGS":13988,"Ġfragments":13989,"000119":13990,"ĠLogger":13991,"pieces":13992,"BLOCKSIZE":13993,"Ġmismatch":13994,"âĸĵâĸĵ":13995,"betterroot":13996,"ComboBox":13997,"360":13998,"CDATA":13999,"Dest":14000,"Json":14001,"NN":14002,"UATION":14003,"]^({":14004,"ade":14005,"ared":14006,"|[^\\":14007,"}!\".":14008,"æ¼":14009,"è¦":14010,"éļ":14011,"ĠÑģ":14012,"Ġ\"=\"":14013,"utem":14014,"Ġfilelist":14015,"noon":14016,"Ġ202":14017,"Stretch":14018,"Coords":14019,"trying":14020,"Ġ51":14021,"UTC":14022,"ĠParseElementEnhance":14023,"PIC":14024,"...\\":14025,"Ġinstdir":14026,"prise":14027,"annotation":14028,"Ġatexit":14029,"generative":14030,"fetched":14031,"ĠremoveQuotes":14032,"Ð°ÑĤ":14033,"ILINE":14034,"APPLICATION":14035,"ĠAppleWebKit":14036,"ĠðŁĴ":14037,"modific":14038,"Ġinstances":14039,"critic":14040,"ĠtagAttrName":14041,"allpapers":14042,"utemany":14043,"<!":14044,"DLE":14045,"DURATION":14046,"Game":14047,"Give":14048,"RT":14049,"lush":14050,"milliseconds":14051,"tex":14052,"åĴ":14053,"Ġreraise":14054,"Ġ()):<":14055,"Ġfingerprint":14056,"lope":14057,"ablish":14058,"appdirs":14059,"ERRED":14060,"tool":14061,"Ġgetpass":14062,"outage":14063,"ĠDjango":14064,"Ġ250":14065,"INV":14066,"2016":14067,"2099":14068,"wordchars":14069,"forget":14070,"ĠRev":14071,"LookupError":14072,"Ġsubnet":14073,"==%":14074,"aste":14075,"909":14076,"ENTITY":14077,"Username":14078,"Ġbackslash":14079,"]+\\":14080,"MOD":14081,"Ġnever":14082,"selevel":14083,"bitmap":14084,"Ġ\"*\"":14085,"contiguous":14086,");\")<":14087,"Ġautoreset":14088,"ĠItem":14089,"ĠSubject":14090,"â¬ľâ¬ľâ¬ľ\\":14091,"distributed":14092,"ĠPYTHONPATH":14093,"ParticipantsAdmins":14094,"ĠLEGACY":14095,"'')":14096,",),<":14097,"Click":14098,"GIT":14099,"II":14100,"UV":14101,"]._":14102,"guid":14103,"tlen":14104,"ĠðŁĶ":14105,"see":14106,"relea":14107,"restructured":14108,"atural":14109,"Ġremain":14110,"Ġ():<":14111,"Ġ(),":14112,"disp":14113,"Ġocc":14114,"Ġbeta":14115,"prox":14116,"Ġresize":14117,"additional":14118,"ĠModel":14119,"Ġprod":14120,"Ġsets":14121,"015":14122,"shlex":14123,"Ġnewurl":14124,"Ġcauses":14125,"authentication":14126,"ãĥĺ":14127,"EXCL":14128,"CTUATION":14129,"certifi":14130,"Ġdirpath":14131,"Ġtempd":14132,"(?!":14133,"-----":14134,"('.'))<":14135,"Ġcounts":14136,"floating":14137,"ĠKorean":14138,"(.*?":14139,"ĠFileExists":14140,"lexists":14141,"Ġcomponents":14142,"footer":14143,"fedschat":14144,"Searching":14145,"glitch":14146,"ACTIVE":14147,"subscriber":14148,"Ġexpects":14149,"PhotoImage":14150,"Evaluator":14151,"certain":14152,"Visible":14153,"GNU":14154,"Emoji":14155,"Ġpiece":14156,"releaselevel":14157,"ĠFileExistsError":14158,"340":14159,"764":14160,"Fixed":14161,"IPP":14162,"Player":14163,"Save":14164,"TD":14165,"cn":14166,"dammit":14167,"oint":14168,"ç§":14169,"ermit":14170,"Ġ'à¾":14171,"arp":14172,"roaming":14173,"Ġmsvc":14174,"unescape":14175,"Ġucrtver":14176,"thDistributions":14177,"Ġcons":14178,"violation":14179,"hood":14180,"chardistribution":14181,"INESE":14182,"Converting":14183,"coders":14184,"Ġ45":14185,"SEPAR":14186,"mbcharsetprober":14187,"Ġcompleted":14188,"Ġ)\",<":14189,"localtime":14190,"Ġgroupby":14191,"ooser":14192,"pskc":14193,"Ġ\"{%":14194,"Ġmovie":14195,"binds":14196,"Ġidentities":14197,"POOL":14198,"ĠCharSetProber":14199,")?)?":14200,")?::":14201,"cipient":14202,"(\"_\",":14203,"ĠPackageIndex":14204,"ĠLanguageFilter":14205,"Events":14206,"hidex":14207,"CustomerAcctBal":14208,"PASSIVE":14209,"âłĦâłĦâłĦâłĦ":14210,"agram":14211,"subscribers":14212,".]+',":14213,"strike":14214,"Ġreduced":14215,"FillConsoleOutputAttribute":14216,"FillConsoleOutputCharacter":14217,"recognizedFormat":14218,"EUCKR":14219,"ĠScriptWriter":14220,"Ġstubs":14221,"PUNCTUATION":14222,"SEPARATOR":14223,"\"*":14224,")[\"":14225,"822":14226,":]))<":14227,"GAME":14228,"Language":14229,"gender":14230,"klass":14231,"nE":14232,"zf":14233,"èĬ":14234,"ĠENV":14235,"Ġfamily":14236,"chet":14237,"idle":14238,"Replace":14239,"topo":14240,"typeId":14241,"']).":14242,"Ġdistinct":14243,"117":14244,"unders":14245,"Ġunwanted":14246,"Ġchmod":14247,"Ġcolno":14248,"radio":14249,"295":14250,"ãĥĦ":14251,"Ġchecked":14252,"weather":14253,"Ġ\".\",":14254,"ĠHelp":14255,"ĠHKEYS":14256,"ideos":14257,"chemas":14258,"blockquote":14259,"documents":14260,"xDD":14261,"udge":14262,"CHATID":14263,"SOCKS":14264,"polls":14265,"ĠAnsiStyle":14266,"ĠEnter":14267,"ĠEncoding":14268,"cipher":14269,"IMUM":14270,"motion":14271,"ĠHeader":14272,"hesis":14273,"CalledProcessError":14274,"NK":14275,"ORE":14276,"ially":14277,"oom":14278,"ÐŁ":14279,"áķ":14280,"Ġul":14281,"Ġfk":14282,"Ġcpython":14283,"dators":14284,"(\"~/.":14285,"Ġwt":14286,"versioncontrol":14287,"isk":14288,"agency":14289,"bus":14290,"infolist":14291,"Stickers":14292,"326":14293,"ĠOver":14294,"TypeRef":14295,"ĠBl":14296,"338":14297,"ĠFill":14298,"646":14299,"tempname":14300,"ĠEGG":14301,"FAI":14302,"newline":14303,"â¬ĽâĢİðŁĵ¶âĢİðŁĵ¶âĢİðŁĵ¶âĢİðŁĵ¶":14304,"Ġpause":14305,"'\\\\":14306,"cyrillic":14307,
[...]
